const unsigned char B6101_GhostNet_model[] = {
0x20, 0x00, 0x00, 0x00, 0x54, 0x46, 0x4c, 0x33, 0x00, 0x00, 0x00, 0x00, 0x14, 0x00, 0x20, 0x00, 0x1c, 0x00, 0x18, 0x00, 0x14, 0x00, 0x10, 0x00, 0x0c, 0x00, 0x00, 0x00, 0x08, 0x00, 0x04, 0x00, 0x14, 0x00, 0x00, 0x00, 0x1c, 0x00, 0x00, 0x00, 0x98, 0x00, 0x00, 0x00, 0x18, 0x01, 0x00, 0x00, 0x68, 0x25, 0x00, 0x00, 0x78, 0x25, 0x00, 0x00, 0x64, 0x3a, 0x00, 0x00, 0x03, 0x00, 0x00, 0x00, 0x01, 0x00, 0x00, 0x00, 0x10, 0x00, 0x00, 0x00, 0x00, 0x00, 0x0a, 0x00, 0x10, 0x00, 0x0c, 0x00, 0x08, 0x00, 0x04, 0x00, 0x0a, 0x00, 0x00, 0x00, 0x0c, 0x00, 0x00, 0x00, 0x1c, 0x00, 0x00, 0x00, 0x3c, 0x00, 0x00, 0x00, 0x0f, 0x00, 0x00, 0x00, 0x73, 0x65, 0x72, 0x76, 0x69, 0x6e, 0x67, 0x5f, 0x64, 0x65, 0x66, 0x61, 0x75, 0x6c, 0x74, 0x00, 0x01, 0x00, 0x00, 0x00, 0x04, 0x00, 0x00, 0x00, 0x68, 0xff, 0xff, 0xff, 0x1d, 0x00, 0x00, 0x00, 0x04, 0x00, 0x00, 0x00, 0x08, 0x00, 0x00, 0x00, 0x6f, 0x75, 0x74, 0x70, 0x75, 0x74, 0x5f, 0x30, 0x00, 0x00, 0x00, 0x00, 0x01, 0x00, 0x00, 0x00, 0x04, 0x00, 0x00, 0x00, 0x6e, 0xda, 0xff, 0xff, 0x04, 0x00, 0x00, 0x00, 0x0f, 0x00, 0x00, 0x00, 0x6b, 0x65, 0x72, 0x61, 0x73, 0x5f, 0x74, 0x65, 0x6e, 0x73, 0x6f, 0x72, 0x5f, 0x32, 0x39, 0x00, 0x03, 0x00, 0x00, 0x00, 0x5c, 0x00, 0x00, 0x00, 0x2c, 0x00, 0x00, 0x00, 0x04, 0x00, 0x00, 0x00, 0xb8, 0xff, 0xff, 0xff, 0x21, 0x00, 0x00, 0x00, 0x04, 0x00, 0x00, 0x00, 0x13, 0x00, 0x00, 0x00, 0x43, 0x4f, 0x4e, 0x56, 0x45, 0x52, 0x53, 0x49, 0x4f, 0x4e, 0x5f, 0x4d, 0x45, 0x54, 0x41, 0x44, 0x41, 0x54, 0x41, 0x00, 0xdc, 0xff, 0xff, 0xff, 0x20, 0x00, 0x00, 0x00, 0x04, 0x00, 0x00, 0x00, 0x13, 0x00, 0x00, 0x00, 0x6d, 0x69, 0x6e, 0x5f, 0x72, 0x75, 0x6e, 0x74, 0x69, 0x6d, 0x65, 0x5f, 0x76, 0x65, 0x72, 0x73, 0x69, 0x6f, 0x6e, 0x00, 0x08, 0x00, 0x0c, 0x00, 0x08, 0x00, 0x04, 0x00, 0x08, 0x00, 0x00, 0x00, 0x1f, 0x00, 0x00, 0x00, 0x04, 0x00, 0x00, 0x00, 0x13, 0x00, 0x00, 0x00, 0x6d, 0x69, 0x6e, 0x5f, 0x72, 0x75, 0x6e, 0x74, 0x69, 0x6d, 0x65, 0x5f, 0x76, 0x65, 0x72, 0x73, 0x69, 0x6f, 0x6e, 0x00, 0x22, 0x00, 0x00, 0x00, 0x4c, 0x24, 0x00, 0x00, 0x44, 0x24, 0x00, 0x00, 0x2c, 0x24, 0x00, 0x00, 0x0c, 0x24, 0x00, 0x00, 0x7c, 0x23, 0x00, 0x00, 0xec, 0x22, 0x00, 0x00, 0xdc, 0x10, 0x00, 0x00, 0x8c, 0x10, 0x00, 0x00, 0xec, 0x0f, 0x00, 0x00, 0x9c, 0x0f, 0x00, 0x00, 0x0c, 0x0e, 0x00, 0x00, 0x9c, 0x0d, 0x00, 0x00, 0x6c, 0x03, 0x00, 0x00, 0x2c, 0x03, 0x00, 0x00, 0xb0, 0x02, 0x00, 0x00, 0x70, 0x02, 0x00, 0x00, 0xd0, 0x01, 0x00, 0x00, 0x90, 0x01, 0x00, 0x00, 0x14, 0x01, 0x00, 0x00, 0x0c, 0x01, 0x00, 0x00, 0x04, 0x01, 0x00, 0x00, 0xfc, 0x00, 0x00, 0x00, 0xf4, 0x00, 0x00, 0x00, 0xec, 0x00, 0x00, 0x00, 0xe4, 0x00, 0x00, 0x00, 0xdc, 0x00, 0x00, 0x00, 0xd4, 0x00, 0x00, 0x00, 0xcc, 0x00, 0x00, 0x00, 0xc4, 0x00, 0x00, 0x00, 0xbc, 0x00, 0x00, 0x00, 0xb4, 0x00, 0x00, 0x00, 0x94, 0x00, 0x00, 0x00, 0x74, 0x00, 0x00, 0x00, 0x04, 0x00, 0x00, 0x00, 0x9a, 0xdb, 0xff, 0xff, 0x04, 0x00, 0x00, 0x00, 0x60, 0x00, 0x00, 0x00, 0x0c, 0x00, 0x00, 0x00, 0x08, 0x00, 0x0e, 0x00, 0x08, 0x00, 0x04, 0x00, 0x08, 0x00, 0x00, 0x00, 0x10, 0x00, 0x00, 0x00, 0x28, 0x00, 0x00, 0x00, 0x00, 0x00, 0x06, 0x00, 0x08, 0x00, 0x04, 0x00, 0x06, 0x00, 0x00, 0x00, 0x04, 0x00, 0x00, 0x00, 0x01, 0x00, 0x00, 0x00, 0xeb, 0x03, 0x00, 0x00, 0x0c, 0x00, 0x18, 0x00, 0x14, 0x00, 0x10, 0x00, 0x0c, 0x00, 0x04, 0x00, 0x0c, 0x00, 0x00, 0x00, 0xa9, 0x6b, 0x30, 0xb0, 0xdd, 0xd5, 0x76, 0xbe, 0x02, 0x00, 0x00, 0x00, 0x02, 0x00, 0x00, 0x00, 0x04, 0x00, 0x00, 0x00, 0x06, 0x00, 0x00, 0x00, 0x32, 0x2e, 0x31, 0x39, 0x2e, 0x30, 0x00, 0x00, 0x06, 0xdc, 0xff, 0xff, 0x04, 0x00, 0x00, 0x00, 0x10, 0x00, 0x00, 0x00, 0x00, 0x00, 0x00, 0x00, 0x00, 0x00, 0x00, 0x00, 0x00, 0x00, 0x00, 0x00, 0x00, 0x00, 0x00, 0x00, 0x22, 0xdc, 0xff, 0xff, 0x04, 0x00, 0x00, 0x00, 0x10, 0x00, 0x00, 0x00, 0x31, 0x2e, 0x31, 0x34, 0x2e, 0x30, 0x00, 0x00, 0x00, 0x00, 0x00, 0x00, 0x00, 0x00, 0x00, 0x00, 0xb0, 0xc8, 0xff, 0xff, 0xb4, 0xc8, 0xff, 0xff, 0xb8, 0xc8, 0xff, 0xff, 0xbc, 0xc8, 0xff, 0xff, 0xc0, 0xc8, 0xff, 0xff, 0xc4, 0xc8, 0xff, 0xff, 0xc8, 0xc8, 0xff, 0xff, 0xcc, 0xc8, 0xff, 0xff, 0xd0, 0xc8, 0xff, 0xff, 0xd4, 0xc8, 0xff, 0xff, 0xd8, 0xc8, 0xff, 0xff, 0xdc, 0xc8, 0xff, 0xff, 0x6e, 0xdc, 0xff, 0xff, 0x04, 0x00, 0x00, 0x00, 0x6c, 0x00, 0x00, 0x00, 0x28, 0x9a, 0x8b, 0x9e, 0xc0, 0xb5, 0x81, 0x97, 0xa7, 0xfb, 0xf7, 0xe8, 0xfd, 0x08, 0x08, 0x1f, 0x10, 0x0c, 0x0b, 0xf7, 0x19, 0x1e, 0xe0, 0x0d, 0xe1, 0xfc, 0xdb, 0x16, 0xda, 0xc9, 0x13, 0xec, 0xee, 0x23, 0x00, 0x1f, 0x17, 0xf2, 0x27, 0x0b, 0x25, 0xfe, 0x12, 0xf1, 0x00, 0x19, 0x09, 0x09, 0xd5, 0xe1, 0x03, 0x0b, 0x01, 0x03, 0x1b, 0x13, 0x12, 0x12, 0x06, 0xee, 0xf4, 0xf7, 0x14, 0x20, 0xfa, 0xfc, 0x15, 0xf1, 0x22, 0x0e, 0x1a, 0xcc, 0xe3, 0xfb, 0xe8, 0xfa, 0x1c, 0xe6, 0x14, 0x00, 0xfe, 0x22, 0x03, 0xda, 0x18, 0x1e, 0xed, 0xe9, 0xec, 0xf6, 0xdd, 0x1f, 0x16, 0xe1, 0x30, 0xe7, 0xef, 0x05, 0x28, 0x09, 0x1a, 0x22, 0xe1, 0x12, 0x11, 0x1b, 0x23, 0x0c, 0xe6, 0xdc, 0xff, 0xff, 0x04, 0x00, 0x00, 0x00, 0x30, 0x00, 0x00, 0x00, 0x8c, 0x14, 0x00, 0x00, 0x0a, 0x07, 0x00, 0x00, 0x97, 0x14, 0x00, 0x00, 0xc1, 0x00, 0x00, 0x00, 0x9e, 0xed, 0xff, 0xff, 0x1e, 0xff, 0xff, 0xff, 0x89, 0x02, 0x00, 0x00, 0x59, 0xfe, 0xff, 0xff, 0xe5, 0x1b, 0x00, 0x00, 0x46, 0xfc, 0xff, 0xff, 0x40, 0x01, 0x00, 0x00, 0xf9, 0xf6, 0xff, 0xff, 0x22, 0xdd, 0xff, 0xff, 0x04, 0x00, 0x00, 0x00, 0x90, 0x00, 0x00, 0x00, 0x35, 0xe6, 0xef, 0x24, 0xe9, 0xe5, 0x17, 0xf9, 0x03, 0xf4, 0x20, 0xef, 0xdc, 0x17, 0xe3, 0x2b, 0x1c, 0xfe, 0x14, 0x0c, 0xe9, 0xbd, 0xee, 0x08, 0x1f, 0xf4, 0xf9, 0xd7, 0xf4, 0xda, 0xf8, 0x02, 0xde, 0x09, 0xef, 0xcf, 0x2a, 0xed, 0x05, 0x0a, 0x2e, 0xdd, 0x0e, 0x29, 0xbf, 0xfb, 0x17, 0xf4, 0x2f, 0x13, 0x0a, 0xf4, 0xf0, 0x35, 0xd7, 0xd7, 0x11, 0x2a, 0x97, 0xaf, 0x81, 0xe0, 0x4c, 0x1a, 0x17, 0x2d, 0xdc, 0x32, 0xe8, 0x0f, 0xcc, 0xf1, 0xf7, 0xfc, 0x18, 0xe1, 0xc5, 0x07, 0xe5, 0x2a, 0xe4, 0xbb, 0xcd, 0x09, 0xaf, 0x2d, 0xd3, 0x48, 0xf5, 0x04, 0xcd, 0xd7, 0x17, 0x15, 0x2a, 0xf9, 0x47, 0xef, 0x08, 0xe6, 0xe1, 0x57, 0xfc, 0xd2, 0xf9, 0xe4, 0xfc, 0x16, 0x93, 0x0c, 0x17, 0x4a, 0xd5, 0x01, 0x1d, 0x16, 0xd4, 0x27, 0xf7, 0xdb, 0x45, 0x05, 0x42, 0xdb, 0xe6, 0xdc, 0xdf, 0xde, 0x26, 0x18, 0xd5, 0xf8, 0x11, 0xd9, 0xf3, 0x03, 0x0b, 0xc0, 0xd1, 0x02, 0x9f, 0xe1, 0x35, 0x34, 0xbe, 0xdd, 0xff, 0xff, 0x04, 0x00, 0x00, 0x00, 0x30, 0x00, 0x00, 0x00, 0x61, 0x01, 0x00, 0x00, 0x30, 0xf7, 0xff, 0xff, 0x4e, 0xfe, 0xff, 0xff, 0xb9, 0xfa, 0xff, 0xff, 0xda, 0x04, 0x00, 0x00, 0x62, 0x01, 0x00, 0x00, 0xa8, 0x02, 0x00, 0x00, 0xc8, 0x00, 0x00, 0x00, 0x47, 0x02, 0x00, 0x00, 0x19, 0x03, 0x00, 0x00, 0xe9, 0x0b, 0x00, 0x00, 0x5f, 0xf7, 0xff, 0xff, 0xfa, 0xdd, 0xff, 0xff, 0x04, 0x00, 0x00, 0x00, 0x6c, 0x00, 0x00, 0x00, 0x08, 0xa6, 0xfb, 0xfe, 0x07, 0xaf, 0x7f, 0x55, 0xf9, 0xfd, 0x03, 0x04, 0xd9, 0xe6, 0x05, 0xe7, 0x27, 0xc9, 0x70, 0x46, 0x00, 0x2b, 0x09, 0x2f, 0xe9, 0x34, 0x09, 0x2b, 0x12, 0x16, 0x30, 0x3a, 0x16, 0x3f, 0x20, 0xdb, 0xf6, 0xaa, 0xf3, 0xec, 0xfc, 0xaf, 0x69, 0xbd, 0xfd, 0x15, 0x25, 0x22, 0x52, 0xf4, 0x08, 0xeb, 0x20, 0xe6, 0x56, 0xe3, 0x11, 0x69, 0x44, 0x26, 0x20, 0x35, 0xea, 0x21, 0x32, 0xd3, 0x24, 0x9a, 0xf0, 0x48, 0x13, 0x11, 0x02, 0xe2, 0xe3, 0xe3, 0x0c, 0x30, 0x51, 0xe1, 0xed, 0x19, 0x13, 0xf8, 0x37, 0x03, 0xed, 0x03, 0x1e, 0x43, 0x20, 0xd9, 0x01, 0x31, 0x08, 0x3d, 0xda, 0x22, 0xff, 0x0c, 0x29, 0x33, 0xf3, 0x09, 0xfb, 0x11, 0xf3, 0xd9, 0x72, 0xde, 0xff, 0xff, 0x04, 0x00, 0x00, 0x00, 0x30, 0x00, 0x00, 0x00, 0x83, 0xfe, 0xff, 0xff, 0xa8, 0xff, 0xff, 0xff, 0x32, 0xff, 0xff, 0xff, 0xe3, 0xf2, 0xff, 0xff, 0x9a, 0xfc, 0xff, 0xff, 0x66, 0xff, 0xff, 0xff, 0x7c, 0xff, 0xff, 0xff, 0xed, 0xf8, 0xff, 0xff, 0x77, 0xf7, 0xff, 0xff, 0xc6, 0xff, 0xff, 0xff, 0x74, 0xfe, 0xff, 0xff, 0x48, 0xf8, 0xff, 0xff, 0xae, 0xde, 0xff, 0xff, 0x04, 0x00, 0x00, 0x00, 0x20, 0x0a, 0x00, 0x00, 0xd9, 0x0e, 0xff, 0x08, 0xd6, 0xef, 0xb9, 0x05, 0xb6, 0xf2, 0xf0, 0xe6, 0x0a, 0xfb, 0x0c, 0xfa, 0x17, 0xc2, 0xc9, 0x1d, 0x20, 0x05, 0x06, 0xea, 0xd6, 0x02, 0xeb, 0xf7, 0x06, 0xc9, 0xc0, 0xf3, 0xee, 0xee, 0xe2, 0xfa, 0x1a, 0x04, 0xf5, 0x07, 0x02, 0xe1, 0xbe, 0x2d, 0x0a, 0xf9, 0xfc, 0xf5, 0x2e, 0x03, 0xec, 0xf0, 0x39, 0xea, 0xbc, 0x1c, 0x4b, 0x05, 0x22, 0x14, 0x2b, 0x17, 0x0b, 0x01, 0x03, 0xdb, 0xd1, 0x02, 0x2e, 0xeb, 0x05, 0x0b, 0xf2, 0x04, 0x05, 0xf8, 0xe4, 0x1e, 0xf0, 0xf7, 0xd8, 0x3e, 0xef, 0xdf, 0x4d, 0xf0, 0x07, 0xf9, 0x1b, 0x1f, 0xec, 0x02, 0x2b, 0x2e, 0x01, 0x10, 0x27, 0x07, 0x0e, 0x1d, 0x03, 0xf0, 0xdb, 0x01, 0x00, 0x1c, 0xec, 0x03, 0xf2, 0xe6, 0xf9, 0xf5, 0x27, 0xc4, 0xe0, 0xdb, 0x1f, 0xef, 0x3b, 0xf8, 0xc1, 0xd3, 0xf8, 0xdd, 0x08, 0xe8, 0xda, 0xd1, 0xe3, 0xfd, 0x06, 0xdf, 0x06, 0xda, 0x0c, 0xdb, 0x1e, 0xea, 0xe8, 0xd2, 0xf1, 0x00, 0x35, 0xe4, 0xeb, 0x13, 0xf2, 0xf5, 0xfe, 0xd1, 0xe5, 0xd7, 0xd6, 0xf7, 0x05, 0x10, 0xdd, 0xf8, 0xf3, 0xff, 0x03, 0xd6, 0xc0, 0xec, 0xa4, 0xfb, 0xfe, 0x02, 0xe9, 0xf1, 0xfe, 0x07, 0xf9, 0xf9, 0xe4, 0x0b, 0xca, 0x1d, 0x0d, 0xf7, 0x01, 0x26, 0xf2, 0xf9, 0x12, 0xbf, 0xf8, 0xec, 0x12, 0xf2, 0x26, 0x38, 0xcb, 0x19, 0xf0, 0x0d, 0xf2, 0xf5, 0x04, 0xf8, 0xbd, 0xf4, 0xf8, 0x19, 0x04, 0x05, 0x0e, 0xea, 0x0c, 0x01, 0xe6, 0x0c, 0x00, 0x2e, 0x0d, 0xf3, 0xe4, 0xe7, 0xf3, 0xe7, 0xfa, 0xde, 0xaf, 0x21, 0x19, 0x17, 0x01, 0xfa, 0x04, 0xf4, 0xed, 0xfc, 0x02, 0xf9, 0xdd, 0x0b, 0xfc, 0x04, 0x16, 0xf3, 0xec, 0x07, 0xec, 0xf2, 0x1c, 0xe1, 0xb4, 0x24, 0x35, 0x15, 0x1e, 0x14, 0xe4, 0xf7, 0x0d, 0xff, 0xf5, 0xfc, 0xd1, 0xd5, 0x18, 0xfd, 0x09, 0x04, 0xf2, 0xfa, 0xfb, 0xff, 0x19, 0xf4, 0xca, 0xe2, 0xfa, 0x0a, 0x1e, 0xfd, 0xff, 0x0f, 0x0f, 0x15, 0x14, 0xe9, 0xcb, 0xe9, 0xfe, 0x10, 0x22, 0xfa, 0xde, 0x06, 0x07, 0xf7, 0xf8, 0xec, 0xe5, 0xcf, 0xfd, 0xf4, 0x06, 0xf9, 0xf8, 0x01, 0x0e, 0x1b, 0x06, 0xef, 0xe9, 0xda, 0x03, 0x0d, 0x0e, 0x10, 0xf4, 0x22, 0xf3, 0x06, 0x15, 0xe6, 0xce, 0xde, 0x20, 0xee, 0x18, 0x15, 0x0a, 0x0d, 0xf2, 0xff, 0x2b, 0xf1, 0xa8, 0x17, 0xf2, 0x8c, 0x03, 0x07, 0xfd, 0xf8, 0xff, 0xff, 0x1e, 0x0e, 0xbf, 0x27, 0xee, 0xdb, 0x00, 0xef, 0xee, 0xdc, 0x0a, 0xe5, 0xf3, 0x17, 0xb0, 0x38, 0xe3, 0x19, 0x12, 0xdd, 0x15, 0x22, 0x08, 0xfe, 0x32, 0x1a, 0xdb, 0x11, 0x45, 0xff, 0x1f, 0x32, 0x36, 0x22, 0xfb, 0xff, 0x1d, 0x05, 0xcf, 0x16, 0x13, 0xf9, 0x0c, 0x30, 0xe6, 0xfe, 0x05, 0xea, 0xf0, 0x14, 0xd9, 0x09, 0x11, 0x1d, 0xfa, 0xef, 0x2a, 0x0d, 0xfa, 0x05, 0xff, 0x16, 0x04, 0xff, 0x15, 0x17, 0x0e, 0x25, 0x27, 0x17, 0xf5, 0x06, 0x0b, 0x07, 0xd5, 0xea, 0x1a, 0xdd, 0xf8, 0x0e, 0xfa, 0x0d, 0x09, 0xfe, 0xe2, 0x33, 0xdd, 0xf3, 0xe3, 0x14, 0xf3, 0xfd, 0x2f, 0xe9, 0x0f, 0xf3, 0xf6, 0x13, 0x41, 0x23, 0x04, 0x0d, 0xec, 0xfa, 0x05, 0xf6, 0x04, 0xdd, 0xfe, 0x24, 0x2d, 0x17, 0x0b, 0x12, 0xff, 0xfc, 0x22, 0xfb, 0x11, 0x01, 0xe6, 0x1f, 0x36, 0x17, 0x16, 0x02, 0xf0, 0xe4, 0x1d, 0xf8, 0xf6, 0x09, 0xf9, 0x17, 0x1a, 0x12, 0x04, 0x17, 0x06, 0xea, 0x21, 0x0b, 0x0c, 0xfb, 0x10, 0x27, 0x17, 0x19, 0x22, 0x0c, 0x13, 0xf6, 0x30, 0xec, 0xf5, 0x05, 0xe9, 0x10, 0x2b, 0x0b, 0xf8, 0x0f, 0xee, 0xf2, 0x16, 0x06, 0xf4, 0x0a, 0x08, 0x0d, 0x1a, 0x16, 0x1b, 0xfa, 0xfe, 0x0b, 0xfd, 0x06, 0x04, 0xf3, 0xfd, 0x0a, 0x0c, 0x17, 0x19, 0x07, 0xf4, 0xeb, 0x0f, 0xfe, 0xfa, 0xfb, 0x06, 0x0e, 0x27, 0x1f, 0x05, 0xf8, 0xe0, 0x01, 0x28, 0x0e, 0xf4, 0x0c, 0xef, 0x23, 0x45, 0x25, 0xf6, 0x1a, 0xc0, 0x05, 0x1f, 0x0c, 0xf1, 0x04, 0xea, 0x2b, 0x45, 0x11, 0x10, 0x0c, 0xef, 0x10, 0x16, 0x10, 0x0d, 0x0b, 0xf2, 0x04, 0x3b, 0x06, 0x05, 0xe3, 0xd2, 0x0c, 0x1b, 0xee, 0x13, 0xf9, 0xee, 0x0a, 0x3a, 0x04, 0x01, 0x02, 0xf7, 0x03, 0x34, 0xf6, 0x04, 0xf9, 0x1a, 0x25, 0x30, 0x15, 0x3a, 0x0c, 0x17, 0x06, 0x30, 0xf3, 0xf4, 0xee, 0x05, 0xe3, 0x07, 0x00, 0x38, 0xf5, 0xfb, 0x05, 0x08, 0xeb, 0xf4, 0xfc, 0xf6, 0x13, 0x38, 0x25, 0xdf, 0x0c, 0xe1, 0x0a, 0x10, 0xfc, 0x06, 0xf0, 0x1a, 0xec, 0x03, 0x19, 0x14, 0xe5, 0xfa, 0xf5, 0x13, 0xe9, 0xff, 0xf7, 0x01, 0xe2, 0x0e, 0x24, 0xec, 0xe0, 0x0b, 0xea, 0xeb, 0xf0, 0xec, 0xed, 0xff, 0xcc, 0x98, 0xe9, 0xf9, 0x04, 0x14, 0xd8, 0xfb, 0xe5, 0xfb, 0xec, 0x30, 0xe1, 0xae, 0xf3, 0x19, 0xf8, 0x35, 0xf9, 0xce, 0xf0, 0xff, 0x00, 0x1a, 0xeb, 0xa5, 0x07, 0x13, 0x19, 0x0f, 0xd5, 0x03, 0xfe, 0xed, 0x01, 0x0b, 0xf2, 0xd7, 0xea, 0x09, 0xf6, 0xfc, 0xfd, 0x0a, 0x04, 0x0f, 0xf9, 0x11, 0xd9, 0xb7, 0x10, 0x07, 0xee, 0x11, 0x07, 0xf9, 0x15, 0x10, 0x05, 0x14, 0x06, 0xd1, 0xfc, 0xef, 0x06, 0xeb, 0xf8, 0xfb, 0x1b, 0xf2, 0x0a, 0xff, 0xcf, 0xde, 0xe9, 0xfd, 0x15, 0xf2, 0x04, 0x36, 0x1c, 0xf5, 0x1a, 0xf5, 0xdb, 0xf4, 0xf2, 0x1b, 0x14, 0x05, 0x1b, 0x33, 0x1c, 0xfa, 0x1d, 0xed, 0xea, 0xf0, 0xfb, 0x0d, 0x2e, 0xdd, 0x07, 0x08, 0xe7, 0xfe, 0xe1, 0xd4, 0x20, 0x14, 0x1b, 0xd1, 0x06, 0xa8, 0xe5, 0x1a, 0xfc, 0xf9, 0xed, 0x03, 0x09, 0x16, 0x09, 0x1b, 0x11, 0xff, 0xee, 0x04, 0x04, 0xfa, 0xf8, 0xd7, 0xfb, 0x22, 0x0f, 0xef, 0xf4, 0xbf, 0xf5, 0x3d, 0xff, 0xf4, 0xed, 0xfa, 0x0f, 0x07, 0x19, 0x02, 0x13, 0x12, 0xef, 0x3a, 0xeb, 0x01, 0xf5, 0x28, 0x18, 0x13, 0x21, 0x3e, 0x17, 0x43, 0x0f, 0x3e, 0x11, 0xfc, 0x05, 0xfb, 0xf8, 0x1b, 0x18, 0x34, 0xec, 0x10, 0xfa, 0x00, 0xfe, 0xfc, 0xf7, 0xfa, 0x0b, 0x28, 0x26, 0xe2, 0x09, 0xc6, 0xf9, 0x19, 0xef, 0x03, 0xef, 0x12, 0x18, 0x0e, 0x1e, 0x40, 0x01, 0x0d, 0x00, 0x1c, 0x02, 0xee, 0xfb, 0xf3, 0x0a, 0x1e, 0x24, 0xf0, 0x08, 0xd9, 0x21, 0x11, 0xfd, 0xfc, 0xf9, 0x07, 0xfe, 0xfb, 0x48, 0xf9, 0xd6, 0x0a, 0xf6, 0x03, 0xd2, 0xf4, 0xf3, 0x14, 0x0a, 0xe9, 0x3c, 0x0a, 0xf3, 0x1c, 0xcd, 0xf0, 0xce, 0x04, 0xd7, 0xec, 0x21, 0xe1, 0x39, 0xf5, 0x26, 0xdc, 0xd2, 0x31, 0x06, 0xfe, 0x01, 0xfd, 0x11, 0xec, 0xfc, 0x35, 0x1c, 0x14, 0xfd, 0x67, 0xfe, 0x0d, 0xf8, 0x0f, 0x1a, 0xed, 0x2b, 0x59, 0x3a, 0x10, 0x0a, 0x19, 0x1d, 0xfe, 0x06, 0xfc, 0x1f, 0xe2, 0x04, 0x31, 0x14, 0xff, 0xf8, 0x17, 0x15, 0x11, 0x08, 0xfa, 0x08, 0x12, 0x1d, 0xfc, 0x1b, 0xd6, 0x07, 0x35, 0x09, 0x05, 0xfd, 0xf5, 0xdb, 0xe9, 0x12, 0x3a, 0x04, 0xe5, 0x09, 0x07, 0x26, 0xfc, 0x21, 0xe3, 0x01, 0xe2, 0x02, 0xe3, 0x0f, 0xbf, 0x0d, 0x09, 0x1e, 0x0a, 0x27, 0x11, 0x0d, 0xf5, 0xcc, 0xef, 0xc1, 0x04, 0x1b, 0xef, 0x1a, 0xf6, 0x0d, 0x0d, 0xea, 0xcd, 0x8e, 0x0a, 0xe8, 0xe5, 0x0a, 0xf9, 0x01, 0x01, 0xf8, 0x1a, 0xfc, 0xe6, 0xc2, 0xe4, 0xda, 0xfd, 0xe8, 0x23, 0x0f, 0xec, 0x11, 0x24, 0xff, 0xe7, 0x03, 0x1f, 0xc9, 0x03, 0x24, 0x0c, 0x0e, 0xf8, 0x1c, 0x01, 0x14, 0xe7, 0xf3, 0x05, 0xab, 0x02, 0x11, 0xfa, 0x0d, 0x03, 0xf6, 0x16, 0x35, 0x05, 0x0f, 0xea, 0xeb, 0xfd, 0xf8, 0x27, 0x00, 0xf3, 0x01, 0x00, 0x36, 0xdd, 0x54, 0x0b, 0xff, 0x15, 0x01, 0x19, 0xf6, 0xf3, 0x0c, 0xf4, 0x3c, 0x06, 0x29, 0xc8, 0x05, 0xf8, 0xee, 0x1c, 0xd7, 0x0b, 0xf8, 0xef, 0x3c, 0x18, 0x69, 0xfa, 0x63, 0x08, 0xe9, 0x24, 0xd6, 0x06, 0xd0, 0xef, 0x18, 0x2f, 0x21, 0x0d, 0x18, 0xd6, 0xe7, 0x01, 0xdc, 0x06, 0xd0, 0xed, 0x37, 0x1f, 0x2b, 0x14, 0x19, 0xf8, 0xdb, 0x2e, 0xce, 0xf7, 0xd2, 0xd9, 0x06, 0x30, 0x35, 0x22, 0x0e, 0xee, 0xec, 0x15, 0x04, 0x00, 0xe7, 0x01, 0x08, 0x35, 0xfc, 0x17, 0x10, 0x11, 0x04, 0x28, 0x0a, 0xed, 0xf0, 0x2a, 0x1e, 0x2d, 0x0c, 0x38, 0x1c, 0x23, 0xee, 0x28, 0xf1, 0x0b, 0xee, 0xf6, 0xff, 0x1a, 0x04, 0x09, 0x02, 0xff, 0xf0, 0x0c, 0x0f, 0xfc, 0x1e, 0xf8, 0xcf, 0x34, 0x2a, 0xfe, 0xee, 0xf0, 0x0e, 0x0c, 0x04, 0xef, 0x11, 0x16, 0xe9, 0x10, 0x27, 0x32, 0xfc, 0xe9, 0x26, 0xfb, 0x17, 0x08, 0x17, 0xef, 0xd4, 0x0a, 0x16, 0xf3, 0xcb, 0xe4, 0x04, 0x02, 0x0a, 0xfb, 0xf9, 0xf1, 0x16, 0x0c, 0x0c, 0xe5, 0xfa, 0xf2, 0xf4, 0x04, 0x0f, 0x08, 0x02, 0x01, 0x17, 0xf1, 0x13, 0x01, 0xfd, 0xec, 0xec, 0x02, 0x04, 0xf5, 0x02, 0x01, 0x04, 0x09, 0x1d, 0x15, 0x00, 0xfc, 0x05, 0xfe, 0x11, 0x08, 0xf8, 0x12, 0x06, 0x04, 0x06, 0x10, 0x0b, 0x07, 0xf2, 0x21, 0x13, 0xef, 0xe9, 0x22, 0x0d, 0x01, 0x17, 0x2f, 0x06, 0x31, 0xf7, 0x19, 0x0c, 0x06, 0xe2, 0x19, 0xef, 0xef, 0xfa, 0x14, 0xe7, 0x23, 0x16, 0xfc, 0xfa, 0xed, 0xfa, 0x20, 0xfe, 0xfb, 0x01, 0x09, 0xfa, 0x14, 0x00, 0xfd, 0x06, 0x04, 0xf9, 0x24, 0xde, 0xd4, 0x04, 0x2a, 0xdc, 0x26, 0x0c, 0x19, 0x0f, 0x0e, 0x08, 0x0c, 0x01, 0xf2, 0x06, 0x19, 0xe9, 0x0a, 0x10, 0x0d, 0x00, 0xf0, 0xf5, 0x23, 0xeb, 0xed, 0xf6, 0x0b, 0xe4, 0x21, 0x06, 0xe2, 0x05, 0x0e, 0x1b, 0xf1, 0xf5, 0xee, 0xf4, 0xc7, 0xec, 0xee, 0xff, 0x01, 0x0b, 0xf2, 0xfb, 0x0c, 0x00, 0xdd, 0x10, 0x13, 0x0c, 0x1f, 0xff, 0xf9, 0xf8, 0x05, 0x0a, 0xed, 0xf6, 0xe1, 0xf1, 0xf0, 0xfa, 0x04, 0x1f, 0xc7, 0x06, 0x10, 0xfb, 0xe2, 0x01, 0xf7, 0xfe, 0xb1, 0xf3, 0xe6, 0x0f, 0xeb, 0xe8, 0xf5, 0xf1, 0x06, 0xff, 0xf4, 0x12, 0xdd, 0x15, 0x0d, 0xf2, 0xf7, 0x02, 0xf4, 0xf9, 0x29, 0x0c, 0xf6, 0xd3, 0x1a, 0xe3, 0x17, 0x01, 0xf0, 0x0d, 0x0f, 0x03, 0x04, 0xef, 0xfb, 0xd4, 0xd7, 0x0a, 0xf9, 0xf5, 0x06, 0x02, 0xf2, 0xff, 0x11, 0x21, 0x05, 0xe5, 0xef, 0x33, 0x28, 0xec, 0x07, 0x1b, 0x11, 0x14, 0xf8, 0x12, 0x20, 0x1d, 0x00, 0xd5, 0x0f, 0x00, 0x0b, 0x07, 0xf3, 0x20, 0xdd, 0x46, 0x33, 0x3b, 0xea, 0x0c, 0x05, 0x31, 0x11, 0x19, 0x0e, 0x1a, 0xdf, 0x25, 0x0c, 0x23, 0xe0, 0x06, 0x0c, 0x23, 0xe8, 0x02, 0x0f, 0x0b, 0xf7, 0x41, 0x3b, 0x1b, 0x34, 0x05, 0x0f, 0xf3, 0x00, 0xfc, 0xf6, 0xe6, 0xfe, 0x1c, 0x3b, 0x15, 0x17, 0x0f, 0xe4, 0x02, 0xf0, 0x09, 0x05, 0x0d, 0x00, 0x2d, 0x20, 0x12, 0x24, 0x1d, 0x0b, 0xfc, 0xe4, 0xe9, 0x0a, 0xed, 0xff, 0x0c, 0x27, 0x1b, 0xfc, 0x07, 0x19, 0xdc, 0x21, 0xf1, 0xef, 0x01, 0xea, 0xf3, 0x06, 0x15, 0x28, 0xda, 0x18, 0xe5, 0xfc, 0xf4, 0xfc, 0x06, 0x13, 0x10, 0x0d, 0x04, 0xe1, 0xd8, 0x1f, 0x02, 0xf9, 0x02, 0x00, 0x0f, 0x0a, 0xec, 0xbd, 0xf3, 0x03, 0xd0, 0xfb, 0xf5, 0x00, 0x06, 0x01, 0xf8, 0x0d, 0xde, 0xbe, 0xea, 0xe7, 0xe2, 0x0f, 0x07, 0xdf, 0xf3, 0x0e, 0x00, 0x14, 0xf9, 0xd4, 0xed, 0xe9, 0x17, 0x20, 0xe2, 0xf7, 0xfc, 0x00, 0xf9, 0x16, 0xf5, 0xbf, 0xf2, 0x1e, 0xde, 0x13, 0x08, 0xf4, 0x13, 0x06, 0x1d, 0x1a, 0xef, 0xc3, 0xfe, 0xd8, 0x08, 0x06, 0x24, 0xd1, 0x14, 0x04, 0xf0, 0x0a, 0x0f, 0xdc, 0x09, 0xea, 0x08, 0x16, 0x11, 0x12, 0xf6, 0xfa, 0xec, 0x1d, 0x18, 0xcb, 0x0b, 0xfc, 0xfe, 0x04, 0x11, 0xf3, 0xfe, 0x0d, 0x18, 0xfc, 0x36, 0xee, 0xf7, 0xcc, 0x13, 0xf7, 0x00, 0xf4, 0x03, 0x06, 0x0b, 0x0c, 0x49, 0xe7, 0x16, 0xe5, 0x32, 0x0b, 0x0a, 0x13, 0x0e, 0xf9, 0x0b, 0x18, 0x0d, 0xbc, 0xfc, 0x0e, 0xbc, 0xee, 0xfa, 0x06, 0x08, 0x09, 0x14, 0xf6, 0x40, 0xef, 0x0b, 0x02, 0xf7, 0xfd, 0xea, 0x13, 0xef, 0xf5, 0x06, 0x03, 0x3a, 0xe8, 0x0c, 0xfc, 0x05, 0xf6, 0xd2, 0x0b, 0x05, 0x02, 0x05, 0x07, 0x3f, 0xf4, 0x52, 0x40, 0xf5, 0x0d, 0x12, 0x39, 0x21, 0x03, 0x10, 0x03, 0x17, 0x0e, 0x52, 0x36, 0x01, 0xfa, 0x0b, 0x12, 0x15, 0xf3, 0xf8, 0x0e, 0x45, 0xfb, 0x4e, 0x25, 0x1a, 0x10, 0x00, 0x19, 0x0d, 0xf9, 0x0f, 0x09, 0x31, 0xe3, 0x68, 0x14, 0x26, 0xeb, 0xfa, 0x2b, 0x1e, 0xf7, 0x08, 0xfc, 0x27, 0xec, 0x52, 0x09, 0x0c, 0xf3, 0x10, 0xf8, 0xf3, 0xff, 0x0f, 0x03, 0x3e, 0x0d, 0x7f, 0xde, 0x1b, 0xe3, 0xe9, 0xff, 0x05, 0x10, 0xfc, 0x1d, 0xd5, 0xfb, 0x02, 0x08, 0xf1, 0x0d, 0x01, 0xf2, 0x08, 0xfe, 0x0d, 0xfc, 0xd1, 0xdb, 0x00, 0xe5, 0xf3, 0xf9, 0x23, 0x12, 0x20, 0x12, 0x0e, 0x10, 0xfb, 0xe6, 0xf2, 0xe8, 0xfc, 0x0e, 0x1f, 0xf6, 0x0e, 0x05, 0xf4, 0xeb, 0x00, 0xfd, 0x1d, 0xeb, 0xf0, 0x07, 0x06, 0xcb, 0x09, 0x02, 0x05, 0xd6, 0xf2, 0xf9, 0x1c, 0xbb, 0xeb, 0xde, 0x04, 0xf9, 0xf6, 0xf0, 0xfc, 0xfd, 0x0f, 0x07, 0x13, 0xe7, 0x0b, 0xfc, 0x01, 0xf2, 0xf7, 0x06, 0xd9, 0x22, 0x26, 0xe8, 0xbf, 0x1b, 0xfa, 0x3d, 0xf1, 0xe4, 0xf4, 0x01, 0xef, 0xfe, 0x41, 0x03, 0xda, 0xe8, 0xda, 0x08, 0xfa, 0x06, 0xe6, 0x10, 0xe1, 0x29, 0x59, 0x1c, 0xcb, 0x0a, 0x3d, 0x30, 0x00, 0xf3, 0x30, 0x00, 0x19, 0x07, 0xe7, 0xf6, 0xfa, 0xee, 0xe4, 0x08, 0x32, 0xf4, 0x2c, 0xef, 0x1d, 0x05, 0xf3, 0xe3, 0x0a, 0xd9, 0x04, 0xf1, 0x1d, 0x02, 0xfd, 0x01, 0x06, 0x00, 0xf1, 0xec, 0xef, 0xf0, 0x0d, 0x00, 0x18, 0xe2, 0x0e, 0x10, 0x04, 0xfa, 0xfb, 0xf5, 0x10, 0x04, 0xf2, 0xf8, 0x10, 0xcb, 0xf6, 0xf1, 0x00, 0xf8, 0xf9, 0x11, 0xf6, 0xd2, 0x09, 0xfd, 0x10, 0xf5, 0xe5, 0x0f, 0xe7, 0xf2, 0x00, 0xfa, 0xf9, 0xf8, 0x0d, 0x0b, 0xe8, 0x09, 0xe0, 0x0f, 0xf6, 0x0c, 0x39, 0xf8, 0xe7, 0x10, 0x02, 0x25, 0xf7, 0xf0, 0xe3, 0xfa, 0xe9, 0x05, 0x0e, 0xef, 0xcf, 0xfb, 0xfa, 0x1a, 0xe0, 0xed, 0xc7, 0xfe, 0xdd, 0x14, 0x23, 0x0c, 0xc7, 0xf5, 0x00, 0x1f, 0xdc, 0xda, 0xed, 0x04, 0xf3, 0x2d, 0xd5, 0xd2, 0xfc, 0x38, 0xff, 0x1d, 0xe3, 0xe5, 0xfc, 0x0d, 0xf5, 0x2f, 0xe3, 0xd0, 0xd5, 0x0d, 0x13, 0x2a, 0xf2, 0xce, 0x02, 0xf7, 0x10, 0x30, 0xef, 0xde, 0xd3, 0x1f, 0xfd, 0x36, 0x04, 0xfb, 0x0d, 0x0c, 0x15, 0x10, 0xf0, 0xc3, 0xef, 0x07, 0xed, 0x11, 0xee, 0xd9, 0xf1, 0xf2, 0xf3, 0x05, 0xe9, 0xd2, 0xe3, 0xef, 0x10, 0xed, 0x1e, 0xce, 0x1f, 0xf4, 0x10, 0x09, 0x17, 0xe4, 0xd5, 0xfc, 0x07, 0x0f, 0x09, 0xf6, 0x0b, 0xee, 0xfe, 0x07, 0xe5, 0xda, 0xe1, 0xf0, 0xfb, 0x0d, 0x04, 0x05, 0xf2, 0x06, 0x17, 0x02, 0xf3, 0xf0, 0xf2, 0xdd, 0x35, 0xe5, 0x18, 0xec, 0x04, 0xf0, 0x28, 0x0f, 0xde, 0xe6, 0x03, 0x0e, 0x32, 0x10, 0x18, 0x06, 0xf3, 0x04, 0xfb, 0x06, 0xd7, 0xe3, 0x1f, 0x06, 0xe0, 0x18, 0xfe, 0xc7, 0xfc, 0x02, 0x0f, 0xf1, 0x12, 0xf3, 0x11, 0xb9, 0xfd, 0xf1, 0x12, 0xf0, 0xee, 0xf9, 0xef, 0xfc, 0x16, 0xed, 0x12, 0xfc, 0x0d, 0x08, 0xf8, 0xe0, 0x05, 0xee, 0x03, 0xfc, 0x0b, 0x03, 0x0c, 0x24, 0x01, 0xea, 0x1a, 0xea, 0xfa, 0x07, 0x0f, 0xeb, 0xe0, 0xee, 0x16, 0xd7, 0x17, 0xd5, 0x14, 0xe6, 0x03, 0x11, 0xec, 0xed, 0x15, 0x00, 0x1d, 0xf6, 0x1f, 0x0a, 0xf0, 0xf1, 0x09, 0xed, 0x0c, 0x09, 0xca, 0xf3, 0xf0, 0x04, 0xf7, 0x18, 0x12, 0xff, 0x01, 0x0f, 0x18, 0xf4, 0xd1, 0xfc, 0xec, 0xfa, 0xe6, 0xe6, 0x14, 0xd9, 0x02, 0xfb, 0xfe, 0x16, 0xd1, 0xf4, 0xdb, 0xdf, 0xef, 0x22, 0xe5, 0x2f, 0x05, 0x0b, 0x02, 0xe1, 0x11, 0x0b, 0x39, 0xfa, 0xc1, 0xea, 0x23, 0x15, 0x0b, 0x09, 0x0a, 0xf6, 0x34, 0x15, 0x35, 0xde, 0x0d, 0xd9, 0x0a, 0x08, 0x00, 0x05, 0x0f, 0xf3, 0x37, 0x16, 0x46, 0xd3, 0x2d, 0xed, 0xe5, 0x12, 0xff, 0xf1, 0xfe, 0x0e, 0x36, 0x3c, 0x36, 0x5e, 0x00, 0xff, 0x0f, 0x53, 0xfa, 0x10, 0x0d, 0xf1, 0x2d, 0x2d, 0x26, 0x57, 0x35, 0xf8, 0x0d, 0x1f, 0x01, 0xf8, 0xf8, 0xf4, 0x28, 0x24, 0x37, 0x37, 0x1d, 0xf9, 0x05, 0x08, 0xea, 0x0f, 0x0a, 0xf4, 0x28, 0x1c, 0x39, 0xe9, 0x11, 0xfa, 0xe3, 0x33, 0xf4, 0xf8, 0x0b, 0x0c, 0x10, 0xf0, 0x17, 0x43, 0xf9, 0x09, 0x09, 0xfa, 0xf6, 0x08, 0xed, 0xee, 0x1f, 0x1d, 0x1e, 0xef, 0xd6, 0x01, 0xde, 0x29, 0x0d, 0xf2, 0x09, 0x1d, 0x2d, 0x0f, 0xe2, 0xef, 0x1c, 0xf4, 0x0c, 0x18, 0x0c, 0x01, 0x00, 0xee, 0x09, 0x14, 0xfb, 0x0b, 0x30, 0xf1, 0x12, 0x11, 0x16, 0x09, 0x1c, 0x02, 0x09, 0x2a, 0xe6, 0xe3, 0xf3, 0xfd, 0x12, 0x07, 0x07, 0xf8, 0xf9, 0xea, 0x19, 0x14, 0x13, 0x06, 0x10, 0xec, 0xfa, 0x0f, 0xfd, 0x0a, 0x0f, 0xfe, 0x0b, 0x34, 0xf7, 0x20, 0xf8, 0xe9, 0x0c, 0xfa, 0x0a, 0x14, 0xf6, 0xdb, 0x07, 0x1b, 0xfe, 0x15, 0x04, 0xe9, 0x0b, 0xe7, 0x06, 0xf0, 0xf6, 0xe5, 0x1f, 0x02, 0x32, 0xee, 0x0b, 0xf7, 0xf5, 0x24, 0xeb, 0x00, 0xe3, 0xe6, 0x2a, 0x21, 0x1e, 0x09, 0x0e, 0x06, 0x0a, 0xe9, 0x07, 0x0b, 0xe9, 0xe4, 0x2a, 0x23, 0x31, 0xe6, 0x0b, 0xe9, 0xf7, 0xe4, 0x12, 0xf8, 0x06, 0x0d, 0xde, 0xdd, 0xd8, 0xf2, 0x57, 0x08, 0xe9, 0xfb, 0x04, 0x01, 0x0a, 0x08, 0xbd, 0xdc, 0xc3, 0xff, 0x31, 0x04, 0x08, 0xff, 0x18, 0xf3, 0x05, 0x1f, 0xb8, 0xec, 0xa8, 0x14, 0xd5, 0x03, 0x14, 0xf5, 0x11, 0x04, 0xff, 0x07, 0xc5, 0xc6, 0x02, 0xcb, 0xf4, 0xf4, 0xef, 0xb6, 0x06, 0x0b, 0xef, 0xf7, 0xdc, 0xe8, 0xdb, 0xca, 0xe9, 0xeb, 0x0a, 0xe9, 0x0e, 0x0d, 0x06, 0x0f, 0xd3, 0xdf, 0xe2, 0xf6, 0xff, 0x0b, 0x06, 0xeb, 0xe5, 0xf8, 0xf3, 0xfb, 0xe8, 0xbb, 0xda, 0xfd, 0x0f, 0x04, 0xe4, 0xeb, 0xef, 0x0f, 0x0c, 0xeb, 0x33, 0x08, 0xd5, 0xd9, 0x56, 0x07, 0xef, 0xed, 0xfe, 0xf2, 0xf1, 0x1c, 0xeb, 0xe9, 0xc9, 0x05, 0x4f, 0x11, 0xee, 0xaf, 0x11, 0xf3, 0x0a, 0xff, 0xdc, 0xad, 0x02, 0xf2, 0xf9, 0x07, 0xf4, 0xe1, 0x09, 0xfe, 0x01, 0x2d, 0xd9, 0xa1, 0x05, 0x16, 0xe4, 0x14, 0xfe, 0x9a, 0x11, 0x00, 0x09, 0xfe, 0x02, 0xad, 0xfb, 0xda, 0xf2, 0x0e, 0xfa, 0x15, 0xf6, 0x01, 0xf0, 0x0f, 0xe2, 0xd0, 0xec, 0x1c, 0xe7, 0x01, 0xf9, 0xe6, 0x06, 0xfa, 0xf5, 0x2c, 0xf0, 0xd1, 0xe5, 0x09, 0xfa, 0x0c, 0x17, 0xe4, 0x1c, 0x04, 0xf8, 0x14, 0x10, 0xcc, 0xed, 0x05, 0xfe, 0x06, 0xf6, 0xf7, 0xfc, 0xf6, 0xfa, 0xf8, 0xee, 0xe6, 0xee, 0x00, 0x27, 0xee, 0x0b, 0x1b, 0xf5, 0x06, 0x19, 0xf7, 0x03, 0xe0, 0xd1, 0xf2, 0x1c, 0xf5, 0x16, 0xfb, 0xfa, 0x05, 0x17, 0x03, 0xf5, 0xdb, 0xe8, 0x03, 0x22, 0xf3, 0xf3, 0xda, 0xe8, 0xff, 0xff, 0x04, 0x00, 0x00, 0x00, 0x60, 0x00, 0x00, 0x00, 0xf2, 0xf9, 0xff, 0xff, 0xbb, 0x06, 0x00, 0x00, 0xeb, 0xfc, 0xff, 0xff, 0x34, 0xf6, 0xff, 0xff, 0x26, 0x03, 0x00, 0x00, 0x54, 0x00, 0x00, 0x00, 0x32, 0xfb, 0xff, 0xff, 0xd2, 0xfc, 0xff, 0xff, 0x2a, 0xf9, 0xff, 0xff, 0x84, 0xfa, 0xff, 0xff, 0xea, 0x02, 0x00, 0x00, 0x59, 0xf9, 0xff, 0xff, 0x25, 0x01, 0x00, 0x00, 0x0a, 0xfd, 0xff, 0xff, 0x48, 0xfa, 0xff, 0xff, 0x2e, 0xf8, 0xff, 0xff, 0xdb, 0xfd, 0xff, 0xff, 0x23, 0x06, 0x00, 0x00, 0xe4, 0x01, 0x00, 0x00, 0xc3, 0xff, 0xff, 0xff, 0xa1, 0xfb, 0xff, 0xff, 0x20, 0x01, 0x00, 0x00, 0xf2, 0x01, 0x00, 0x00, 0xac, 0xfb, 0xff, 0xff, 0x46, 0xe9, 0xff, 0xff, 0x04, 0x00, 0x00, 0x00, 0x80, 0x01, 0x00, 0x00, 0xe9, 0xd8, 0xed, 0xbf, 0x2f, 0x7a, 0xe5, 0xf9, 0x32, 0xbd, 0x33, 0xeb, 0xee, 0x24, 0x99, 0xcb, 0xd0, 0x19, 0x02, 0x05, 0x28, 0x27, 0x0b, 0x03, 0x34, 0xaf, 0x01, 0x51, 0xe6, 0x3c, 0xe9, 0x36, 0x45, 0x09, 0x09, 0x34, 0xfd, 0x27, 0x1a, 0x25, 0xf0, 0x2e, 0xc5, 0x1c, 0x6c, 0xf7, 0xcd, 0x09, 0x4c, 0x46, 0x00, 0x0e, 0x04, 0x18, 0x2d, 0xf8, 0x12, 0x50, 0x12, 0x37, 0x0d, 0xd8, 0x46, 0x2f, 0xcb, 0xf1, 0x46, 0xe2, 0xeb, 0xba, 0x11, 0x3b, 0x3a, 0xe3, 0x34, 0xfc, 0x0b, 0xd7, 0x48, 0x24, 0x12, 0x48, 0x39, 0xfd, 0xe6, 0x9d, 0x0a, 0x37, 0xc5, 0x25, 0x43, 0xfa, 0xe9, 0xc6, 0x47, 0x5c, 0x43, 0xec, 0x3a, 0xb8, 0xe1, 0xe2, 0x21, 0x31, 0x1c, 0xc8, 0xf0, 0xe2, 0xce, 0x12, 0xf8, 0xe1, 0xd6, 0xd2, 0x4e, 0xc1, 0xe8, 0x2d, 0x31, 0x13, 0x39, 0x27, 0xeb, 0x0f, 0x22, 0xc3, 0x45, 0x13, 0x4b, 0x1b, 0xfa, 0xe6, 0xfc, 0x16, 0x03, 0x3b, 0x1f, 0xe3, 0xfe, 0x25, 0x3d, 0x0d, 0xed, 0x1d, 0xf2, 0x27, 0x3f, 0x3c, 0xc8, 0x0f, 0x13, 0x1a, 0xe5, 0x20, 0x05, 0x45, 0x3d, 0xdf, 0x3b, 0xf1, 0x3c, 0xf3, 0x0a, 0x09, 0xe2, 0xf3, 0x23, 0x0c, 0x16, 0xda, 0xf0, 0x2c, 0xfd, 0x19, 0x26, 0xce, 0x11, 0xcc, 0x10, 0x11, 0x21, 0x23, 0xf4, 0x2a, 0x03, 0x20, 0xec, 0x2b, 0x48, 0xeb, 0x39, 0x0e, 0x22, 0x16, 0xfa, 0x77, 0xf9, 0xd5, 0x59, 0x52, 0x7f, 0x34, 0x2e, 0xe2, 0xcf, 0x8a, 0x47, 0x3b, 0xb1, 0xa9, 0x31, 0xdc, 0xed, 0x14, 0xcd, 0x33, 0x10, 0xd1, 0xb9, 0xd4, 0x1e, 0x22, 0xbf, 0x35, 0xe6, 0x35, 0xd0, 0x01, 0x0b, 0xe6, 0x18, 0x0c, 0x25, 0x25, 0xa1, 0xc2, 0x0a, 0x35, 0x4b, 0xe5, 0x2b, 0xdf, 0x13, 0xfd, 0x39, 0x47, 0x22, 0x5c, 0x4c, 0xb7, 0x5c, 0x38, 0xc3, 0xf6, 0xc1, 0xe0, 0xd4, 0xd0, 0xc5, 0xe2, 0x0c, 0xda, 0xd9, 0x00, 0x0b, 0x43, 0x1e, 0xe1, 0xdf, 0xe6, 0x0c, 0x2a, 0x03, 0xda, 0x23, 0xc0, 0x1e, 0xc4, 0xe6, 0xbc, 0xea, 0xf6, 0xfd, 0x25, 0xcb, 0xd4, 0x1b, 0xef, 0x04, 0xd5, 0xbf, 0xd2, 0x04, 0x43, 0xe2, 0x1c, 0xef, 0x2f, 0x2e, 0xea, 0xa8, 0x28, 0xd4, 0x46, 0xaa, 0xb4, 0xf5, 0x09, 0x2d, 0x4c, 0xd0, 0xe7, 0x25, 0x06, 0x17, 0xcc, 0xe3, 0x1c, 0xe9, 0x27, 0xdb, 0x0d, 0xe7, 0x23, 0x1a, 0xf6, 0x26, 0xec, 0x12, 0xd5, 0xf1, 0xee, 0xe2, 0xea, 0x5a, 0xe2, 0xfa, 0x05, 0x3d, 0x00, 0x2f, 0x14, 0xd1, 0x44, 0x2c, 0xbc, 0x7d, 0x38, 0x18, 0x11, 0x19, 0x39, 0xde, 0xe8, 0xeb, 0x1b, 0x4b, 0xea, 0xda, 0xbe, 0xea, 0xcf, 0x1c, 0xc8, 0xf0, 0x05, 0xe2, 0xde, 0xd4, 0x0f, 0xf3, 0x14, 0xeb, 0xdf, 0x21, 0x0e, 0xf6, 0xfe, 0xf0, 0x1d, 0xde, 0xeb, 0x30, 0x27, 0xd2, 0xea, 0xff, 0xff, 0x04, 0x00, 0x00, 0x00, 0x40, 0x00, 0x00, 0x00, 0x3d, 0x01, 0x00, 0x00, 0xb9, 0xf9, 0xff, 0xff, 0x51, 0xfe, 0xff, 0xff, 0xbb, 0x02, 0x00, 0x00, 0xa6, 0xff, 0xff, 0xff, 0xd4, 0xfc, 0xff, 0xff, 0x32, 0xfc, 0xff, 0xff, 0x01, 0xfe, 0xff, 0xff, 0x67, 0xfd, 0xff, 0xff, 0x59, 0xff, 0xff, 0xff, 0x7d, 0xfe, 0xff, 0xff, 0x5e, 0x01, 0x00, 0x00, 0x04, 0x00, 0x00, 0x00, 0xcf, 0xfe, 0xff, 0xff, 0x89, 0x02, 0x00, 0x00, 0x30, 0xfe, 0xff, 0xff, 0x1e, 0xeb, 0xff, 0xff, 0x04, 0x00, 0x00, 0x00, 0x90, 0x00, 0x00, 0x00, 0xff, 0xdb, 0x20, 0xdc, 0xd8, 0xe2, 0xad, 0xce, 0xcb, 0xdc, 0x1e, 0x0f, 0xda, 0x22, 0xdb, 0xd4, 0x00, 0xf0, 0x2d, 0xdc, 0x21, 0x09, 0xca, 0x81, 0x08, 0xf0, 0x30, 0x16, 0xd0, 0xfc, 0xdb, 0xea, 0xef, 0xcd, 0x18, 0xfc, 0xfc, 0x0f, 0x0c, 0xa7, 0x06, 0xe7, 0x3e, 0x02, 0xf2, 0xc5, 0x0b, 0xbb, 0xfe, 0x66, 0x14, 0xd8, 0xcb, 0xf5, 0x06, 0xc6, 0x07, 0x46, 0x28, 0xef, 0x26, 0x19, 0xc9, 0x01, 0xec, 0x46, 0x27, 0x34, 0x33, 0xf6, 0x40, 0xd2, 0x3f, 0x25, 0x1c, 0xfa, 0x13, 0x0c, 0x39, 0x04, 0xf6, 0x58, 0x36, 0x54, 0xfa, 0x11, 0x38, 0x1b, 0x03, 0xfe, 0x45, 0x05, 0x02, 0xe2, 0x20, 0x2f, 0xf7, 0x90, 0xc3, 0xfc, 0xba, 0x37, 0x9f, 0x1d, 0x1c, 0xff, 0xd9, 0x08, 0x19, 0x24, 0xab, 0x1f, 0x03, 0xa9, 0xaa, 0xd7, 0x4a, 0x31, 0x15, 0x31, 0x10, 0xf2, 0x27, 0x0f, 0x0c, 0xed, 0x00, 0xf6, 0xfa, 0xc3, 0x9d, 0x11, 0xe1, 0x3c, 0x4b, 0x15, 0xe3, 0xf7, 0xfe, 0x0d, 0x16, 0xc1, 0x25, 0xf0, 0xba, 0xeb, 0xff, 0xff, 0x04, 0x00, 0x00, 0x00, 0x40, 0x00, 0x00, 0x00, 0xec, 0xfe, 0xff, 0xff, 0x6d, 0xfb, 0xff, 0xff, 0xa6, 0xff, 0xff, 0xff, 0xe6, 0xff, 0xff, 0xff, 0xf1, 0xff, 0xff, 0xff, 0x62, 0xff, 0xff, 0xff, 0x56, 0xff, 0xff, 0xff, 0x09, 0xfe, 0xff, 0xff, 0xf0, 0xfe, 0xff, 0xff, 0xf2, 0xff, 0xff, 0xff, 0xce, 0xff, 0xff, 0xff, 0xa4, 0xfe, 0xff, 0xff, 0xe5, 0xff, 0xff, 0xff, 0x73, 0xff, 0xff, 0xff, 0x58, 0xfe, 0xff, 0xff, 0x82, 0xfe, 0xff, 0xff, 0x06, 0xec, 0xff, 0xff, 0x04, 0x00, 0x00, 0x00, 0x00, 0x12, 0x00, 0x00, 0x02, 0x2c, 0xdf, 0xf4, 0xe5, 0x10, 0xf7, 0x00, 0xed, 0x15, 0xc3, 0xed, 0x1f, 0xea, 0xd0, 0x01, 0x32, 0x36, 0xdc, 0xf9, 0xf4, 0xeb, 0xfc, 0x24, 0xb7, 0x00, 0xc7, 0x12, 0x1a, 0xdc, 0xcf, 0x19, 0x18, 0x1b, 0x14, 0xf5, 0x01, 0x0d, 0x10, 0x11, 0xfc, 0x14, 0xbe, 0x14, 0x11, 0x08, 0xcd, 0xf1, 0xf9, 0x25, 0xe6, 0xd0, 0xc6, 0xf8, 0xf7, 0x0a, 0xcd, 0x01, 0xe2, 0x18, 0x11, 0xee, 0x09, 0xeb, 0x20, 0x45, 0xdd, 0xe3, 0xe9, 0xec, 0xfd, 0xe6, 0xa2, 0xdc, 0xe5, 0x1f, 0x2f, 0xff, 0xfc, 0xfa, 0xf7, 0x42, 0xff, 0xef, 0xf8, 0x04, 0x03, 0xf6, 0xee, 0xe0, 0xd2, 0x13, 0x12, 0xf1, 0xf2, 0xfc, 0x0c, 0x24, 0x01, 0x2a, 0x00, 0x06, 0x36, 0x08, 0x0a, 0x10, 0xf9, 0x30, 0x35, 0xfc, 0xe1, 0x0f, 0x28, 0x3b, 0x22, 0x16, 0x1c, 0x08, 0x22, 0x03, 0xe2, 0xfd, 0xe5, 0x05, 0x31, 0x20, 0xe4, 0xf2, 0x2d, 0x2e, 0x42, 0x18, 0xf2, 0xf9, 0x08, 0xfc, 0x3e, 0x28, 0xda, 0x29, 0x14, 0x17, 0xdd, 0xf2, 0x12, 0xda, 0xef, 0xe7, 0xef, 0x2a, 0x2d, 0x2d, 0x20, 0xc5, 0xe1, 0x17, 0xe5, 0x0f, 0x18, 0x13, 0x0d, 0xce, 0x17, 0xef, 0xdd, 0x46, 0x37, 0x1c, 0x35, 0xd1, 0xf1, 0xf2, 0x06, 0x02, 0xfe, 0x07, 0x2b, 0xd7, 0xe5, 0xea, 0xc7, 0x45, 0xd3, 0x13, 0x33, 0xd3, 0x0e, 0xfe, 0xf0, 0xf4, 0x31, 0xe9, 0x28, 0xd2, 0x28, 0x32, 0x05, 0x1d, 0x30, 0x0a, 0x1e, 0x07, 0xae, 0x12, 0xeb, 0x13, 0xf3, 0x11, 0x1a, 0xb8, 0x22, 0x06, 0xd9, 0x29, 0x10, 0x0b, 0x31, 0x02, 0xad, 0x27, 0xd9, 0x0a, 0xdc, 0xf7, 0x05, 0xb9, 0x23, 0xff, 0x01, 0x2d, 0xf5, 0xe2, 0x28, 0xfc, 0xc6, 0xea, 0xef, 0xf8, 0x02, 0x0b, 0x45, 0xcb, 0xef, 0xef, 0xf4, 0x32, 0xbc, 0x20, 0xd6, 0xeb, 0xdf, 0xe5, 0x17, 0xff, 0x35, 0xf6, 0x39, 0xaf, 0xdf, 0xf4, 0xd3, 0x09, 0xef, 0xfe, 0x07, 0x0a, 0x05, 0xeb, 0x1c, 0xf8, 0x27, 0xfd, 0x29, 0xd4, 0xd4, 0xa4, 0xdd, 0x20, 0x81, 0x03, 0xe8, 0x06, 0x0e, 0xe2, 0x28, 0xd0, 0x6e, 0xde, 0x0b, 0x3b, 0xea, 0x0c, 0xeb, 0x03, 0x08, 0x22, 0xfe, 0xf3, 0xc9, 0xe9, 0x0b, 0x01, 0xb8, 0x10, 0x18, 0x42, 0xf4, 0xee, 0xf6, 0x00, 0xef, 0x14, 0xc8, 0xcd, 0xca, 0x19, 0x2c, 0x09, 0xb4, 0x19, 0x24, 0x32, 0x0d, 0x0b, 0xff, 0xfa, 0x12, 0x05, 0xf9, 0xe5, 0xb3, 0x0c, 0x0a, 0xe2, 0xb7, 0xe7, 0xfc, 0x4c, 0xcf, 0xc9, 0xef, 0xff, 0xf5, 0x27, 0xe4, 0xd8, 0xd8, 0x1b, 0x01, 0xfc, 0xf0, 0x15, 0x04, 0x32, 0xd0, 0xe2, 0xd9, 0x1d, 0xe0, 0x0d, 0xc5, 0x02, 0xc6, 0x03, 0x27, 0xf6, 0xe1, 0x0c, 0xf0, 0x38, 0xd7, 0xfc, 0x00, 0x09, 0xe2, 0xef, 0x02, 0xf3, 0xf1, 0x27, 0x29, 0xe0, 0xf1, 0x10, 0xf9, 0x3f, 0x2f, 0x22, 0x0b, 0x30, 0x3e, 0x09, 0x20, 0x14, 0xd3, 0x05, 0x1e, 0x15, 0xfd, 0xf6, 0xfc, 0x32, 0x14, 0x35, 0x03, 0x17, 0x37, 0x25, 0xf8, 0x22, 0xd5, 0x00, 0x11, 0x09, 0xf3, 0xfa, 0x0a, 0x36, 0x39, 0x37, 0x34, 0x2a, 0x18, 0xfc, 0x3a, 0x23, 0x08, 0x34, 0x17, 0x31, 0xeb, 0xf2, 0xd6, 0x56, 0xf0, 0x11, 0xf5, 0x00, 0x01, 0xd3, 0xe9, 0xcd, 0xfd, 0x16, 0xdf, 0xe3, 0xd1, 0xfc, 0xda, 0x3c, 0xf0, 0x0b, 0x47, 0xe4, 0xe2, 0xd9, 0x0b, 0xed, 0x0f, 0xe9, 0xe4, 0xe1, 0x0c, 0xe9, 0xb3, 0x41, 0x09, 0x1b, 0x23, 0xed, 0x07, 0xcd, 0xdb, 0xc6, 0xff, 0x0a, 0xff, 0x04, 0xcd, 0xfc, 0xe1, 0x68, 0xc9, 0xf0, 0x0f, 0x05, 0xee, 0x1f, 0xe1, 0xf1, 0x1d, 0xf6, 0xd7, 0x03, 0xfd, 0xe4, 0xf2, 0x3c, 0xf0, 0x0e, 0x14, 0x08, 0xd3, 0xff, 0xf5, 0xe0, 0x24, 0x10, 0xf9, 0x0f, 0xf4, 0x10, 0xfd, 0x65, 0xcc, 0xf3, 0x11, 0x01, 0xfb, 0x1e, 0xf3, 0xe0, 0x04, 0xf6, 0xf7, 0x07, 0xf4, 0x19, 0xdb, 0x30, 0xf7, 0x24, 0x1b, 0x02, 0x3a, 0xe5, 0x09, 0xe2, 0xf0, 0x1b, 0xcf, 0xf4, 0xbb, 0x05, 0xbd, 0x3b, 0x14, 0x0d, 0x53, 0xf3, 0x2b, 0x0f, 0x19, 0xc8, 0xeb, 0xfe, 0xdd, 0x11, 0xf2, 0x1c, 0xa3, 0x4a, 0x08, 0x29, 0x43, 0x14, 0x40, 0xd5, 0x12, 0xbe, 0x03, 0xe9, 0xde, 0x26, 0xbf, 0x1b, 0xcb, 0xce, 0xf9, 0x0e, 0xfe, 0xbc, 0xfd, 0xf0, 0xe1, 0x43, 0x56, 0xd7, 0x14, 0xde, 0x06, 0xd6, 0xd1, 0x0d, 0xfd, 0x07, 0x4a, 0xd0, 0xce, 0xd6, 0xe0, 0x43, 0x5b, 0xee, 0x12, 0xdc, 0x2e, 0xdb, 0xd6, 0xf2, 0x0a, 0x34, 0x1b, 0xc2, 0xff, 0xd0, 0xd7, 0x51, 0x46, 0xfd, 0x02, 0x0d, 0x10, 0x09, 0xf5, 0xfa, 0x04, 0xdb, 0x19, 0xc9, 0xd6, 0xed, 0xf7, 0xe9, 0x4f, 0xfe, 0xed, 0xfb, 0x1a, 0xf9, 0xe4, 0xef, 0xf9, 0xf5, 0x32, 0xe6, 0x00, 0xf7, 0xed, 0x0d, 0x3e, 0xce, 0xe8, 0x05, 0x1b, 0x02, 0xc8, 0x11, 0x0d, 0x0d, 0x1b, 0xdb, 0xfc, 0x17, 0xd9, 0xe7, 0x4c, 0x08, 0xe5, 0x16, 0x17, 0x08, 0xc3, 0xe3, 0xf2, 0x18, 0x19, 0xd3, 0x1b, 0xfd, 0x19, 0xef, 0x1c, 0xf4, 0xed, 0xe7, 0xdd, 0xf1, 0xe3, 0xfb, 0xe2, 0xf5, 0x1f, 0xd8, 0x08, 0x11, 0xd2, 0xe7, 0x1c, 0xe3, 0xf5, 0x15, 0xe5, 0xfc, 0xd5, 0xfa, 0x22, 0x38, 0x3e, 0xde, 0x3d, 0xe9, 0xed, 0xff, 0x0a, 0x10, 0xd8, 0x01, 0xb7, 0xf8, 0x08, 0x3d, 0xe2, 0x00, 0xf9, 0x39, 0x13, 0x1e, 0xfa, 0xd6, 0xcd, 0x03, 0x0b, 0x08, 0xe6, 0x2f, 0x26, 0x3d, 0xea, 0xe3, 0x12, 0x45, 0x1e, 0xfd, 0x05, 0xb2, 0xab, 0x1f, 0x00, 0xef, 0xf6, 0x11, 0x13, 0x2c, 0xdb, 0x05, 0x0d, 0x14, 0x00, 0x04, 0x08, 0xcb, 0xc3, 0x03, 0xf9, 0xe3, 0xf6, 0xec, 0x11, 0x45, 0xe4, 0xfc, 0xea, 0x19, 0x04, 0x26, 0xf1, 0xfa, 0xaa, 0x04, 0x06, 0x26, 0x08, 0x20, 0x02, 0x18, 0xd4, 0xf0, 0x0c, 0x30, 0x10, 0x27, 0x08, 0xeb, 0xb6, 0x2a, 0x14, 0x0a, 0xd9, 0x05, 0x17, 0x27, 0xfd, 0x10, 0xe6, 0x3a, 0x08, 0x19, 0x08, 0x03, 0xe6, 0xf1, 0xfc, 0xed, 0xed, 0xee, 0x10, 0x4f, 0xf3, 0x10, 0x06, 0x21, 0x17, 0x26, 0xef, 0xe0, 0xc5, 0x01, 0x0a, 0x13, 0xf5, 0x1b, 0x07, 0x1e, 0x10, 0x10, 0x0c, 0x1b, 0x06, 0x0c, 0x19, 0xdf, 0xce, 0x0b, 0x04, 0xfe, 0xfe, 0xfa, 0xf8, 0x43, 0x0d, 0xef, 0x24, 0x21, 0x10, 0x0d, 0x3e, 0x05, 0xf2, 0x09, 0x11, 0x19, 0x1d, 0x0f, 0x12, 0xb9, 0x0c, 0x0a, 0x01, 0x1e, 0xf7, 0x08, 0x1e, 0x26, 0x06, 0x01, 0x12, 0x20, 0x28, 0xfe, 0x1d, 0xa6, 0x22, 0xfa, 0xd5, 0xf7, 0x0d, 0xf0, 0x13, 0x0b, 0x1b, 0xf4, 0xf1, 0xf8, 0x08, 0xed, 0x34, 0xb2, 0x1b, 0xe5, 0xd5, 0x1f, 0xfe, 0x2f, 0x1a, 0x20, 0x14, 0x01, 0x09, 0xf3, 0x41, 0x0b, 0x1b, 0x87, 0x1f, 0x1a, 0x13, 0xff, 0x0a, 0xed, 0x27, 0x12, 0xe3, 0x17, 0x15, 0x15, 0xd3, 0xf1, 0x13, 0xb3, 0x1a, 0x12, 0xde, 0x24, 0x0d, 0x16, 0x25, 0x16, 0xd2, 0x18, 0x0f, 0xff, 0xfc, 0x05, 0x28, 0x8c, 0x15, 0xff, 0xe5, 0xf1, 0x01, 0xf1, 0xff, 0x1a, 0xf8, 0x1e, 0xff, 0x01, 0xf4, 0xea, 0x29, 0xa5, 0x13, 0xda, 0xe7, 0x05, 0xc9, 0x0c, 0xe0, 0x16, 0x16, 0xde, 0x09, 0xf9, 0x5e, 0x11, 0x22, 0x92, 0xf1, 0xe0, 0xc9, 0xf2, 0xf7, 0x16, 0xf7, 0x23, 0x12, 0x02, 0xf4, 0x09, 0x13, 0xd9, 0x40, 0xcf, 0xe0, 0xd0, 0xa5, 0x1f, 0xc8, 0x0c, 0xd0, 0x1d, 0x1b, 0xdd, 0x23, 0xf4, 0x64, 0xf8, 0xe4, 0x23, 0xf5, 0xf6, 0x0c, 0x11, 0x23, 0xfb, 0x04, 0xb2, 0xe9, 0xeb, 0xd7, 0x05, 0x14, 0xfd, 0xcd, 0x41, 0x11, 0x0c, 0x1e, 0x20, 0xf6, 0xfe, 0x2f, 0xc8, 0x0f, 0x05, 0xe3, 0xfc, 0x1b, 0x13, 0xb0, 0x39, 0xe6, 0x19, 0x3e, 0x09, 0x0d, 0xdc, 0xee, 0xb4, 0xde, 0xec, 0xcb, 0xf1, 0xf4, 0xf6, 0xef, 0x1d, 0x17, 0x0c, 0xf8, 0x21, 0xec, 0x0b, 0x05, 0xe1, 0x19, 0xfa, 0xc6, 0xe5, 0xef, 0x12, 0xe8, 0xf5, 0xe7, 0x19, 0x49, 0xf1, 0xe9, 0x1a, 0x0a, 0x04, 0x1c, 0xfd, 0xcb, 0xf3, 0xe8, 0x1e, 0xee, 0x0e, 0x0a, 0xed, 0x14, 0x1f, 0xf6, 0x36, 0xfa, 0x05, 0x09, 0xfd, 0xbb, 0x11, 0x09, 0x0b, 0xbb, 0x2a, 0x0d, 0xe9, 0x16, 0x08, 0x0a, 0xe8, 0xe5, 0xc2, 0xe9, 0x0c, 0xef, 0xf7, 0xcf, 0xf5, 0xaa, 0x37, 0xe4, 0x02, 0x2e, 0x0e, 0xf7, 0xf3, 0x1a, 0xb4, 0x1f, 0xf6, 0xff, 0x07, 0xf6, 0x16, 0xb4, 0x17, 0x04, 0xdd, 0x43, 0x23, 0x0a, 0xe8, 0xe3, 0xc8, 0xe9, 0xd1, 0xc5, 0x0f, 0xe2, 0x1b, 0xea, 0x49, 0xec, 0xf7, 0x09, 0x26, 0x27, 0xfb, 0xfc, 0x8e, 0xc9, 0x0d, 0xe9, 0x28, 0xe4, 0x17, 0xdf, 0x22, 0xef, 0x03, 0x12, 0x33, 0x0c, 0x1c, 0x3c, 0xb3, 0xe8, 0xfc, 0xdc, 0x0d, 0xed, 0x01, 0xcf, 0x28, 0x05, 0xef, 0x11, 0x3b, 0xee, 0x16, 0x04, 0x9d, 0xe3, 0x0d, 0xd1, 0x0c, 0xf6, 0x01, 0xdb, 0x19, 0xe7, 0x07, 0x06, 0x2f, 0x1d, 0x1f, 0xed, 0xf7, 0xe0, 0x04, 0xf8, 0x1a, 0x00, 0xfc, 0x08, 0xea, 0xed, 0xfc, 0x12, 0x08, 0xfe, 0x03, 0x18, 0x0e, 0xe9, 0x13, 0xef, 0x1b, 0xe1, 0x23, 0xfd, 0x1f, 0xfd, 0xec, 0x05, 0x2e, 0xf6, 0x2a, 0x0c, 0x19, 0xd5, 0x08, 0xc9, 0x12, 0xf2, 0x25, 0xfb, 0x21, 0x01, 0xfc, 0x2f, 0x0a, 0x0e, 0xe8, 0xf2, 0xb2, 0xf6, 0xf7, 0xf0, 0xfc, 0xec, 0x25, 0xe2, 0x2b, 0xfe, 0x0d, 0x15, 0x40, 0xf5, 0x14, 0x25, 0xc2, 0x02, 0xec, 0xed, 0xfb, 0xf7, 0x21, 0xd2, 0x19, 0xe4, 0x0f, 0x14, 0x25, 0xf7, 0xe8, 0x06, 0xc4, 0xe6, 0xef, 0xdc, 0x19, 0x19, 0xfc, 0x15, 0xac, 0x07, 0x1a, 0xed, 0x45, 0x00, 0x14, 0x25, 0xcb, 0x0a, 0x22, 0x06, 0x2c, 0x3a, 0x03, 0x13, 0x9b, 0x0f, 0x03, 0xef, 0x41, 0x3a, 0x00, 0x35, 0xd0, 0x17, 0xf7, 0xe0, 0x21, 0x24, 0xf6, 0x0d, 0xa8, 0x0b, 0xd7, 0xca, 0x31, 0xf1, 0x01, 0x1a, 0xd9, 0xfc, 0xfc, 0x03, 0xfd, 0x4c, 0xed, 0xfd, 0x9d, 0x32, 0x26, 0x24, 0x20, 0x04, 0xe8, 0x13, 0x00, 0xc1, 0x06, 0xe6, 0x0d, 0xf4, 0x15, 0x01, 0xb0, 0x2c, 0x33, 0xe0, 0x26, 0x1e, 0x03, 0x55, 0x0e, 0xc5, 0xfc, 0xda, 0x20, 0xfe, 0xf0, 0x1b, 0xa9, 0x03, 0xf9, 0xdf, 0x1c, 0xf4, 0x07, 0x34, 0x1b, 0xe4, 0xf9, 0x04, 0x27, 0xef, 0xff, 0x3a, 0xcc, 0xcf, 0xe6, 0xda, 0x39, 0xcb, 0x26, 0xe5, 0xf0, 0x24, 0x00, 0x25, 0xdc, 0x3e, 0xf2, 0x21, 0xb3, 0xe7, 0xd9, 0xd5, 0x1d, 0xda, 0xe0, 0x02, 0x17, 0xf9, 0x05, 0x0a, 0xf0, 0x3f, 0xde, 0x25, 0xd1, 0xda, 0xaf, 0xe9, 0x13, 0x97, 0x0d, 0xc4, 0x1d, 0x14, 0xc4, 0x27, 0xe5, 0x4c, 0xda, 0x32, 0xfb, 0x07, 0xf3, 0xe1, 0xc9, 0xf6, 0xf2, 0xf4, 0x4a, 0xf8, 0x11, 0x34, 0xe7, 0xe2, 0xf4, 0x1c, 0xf0, 0xff, 0xe4, 0x07, 0xd4, 0xed, 0xf6, 0xb2, 0x30, 0x02, 0x07, 0x10, 0xfa, 0xe9, 0x06, 0x20, 0x0a, 0x22, 0x2d, 0xe8, 0xf6, 0xee, 0xfb, 0xfe, 0x50, 0xfd, 0x1a, 0x0b, 0xf5, 0xd0, 0xf0, 0x17, 0xf4, 0xfb, 0xea, 0xdd, 0xe5, 0x07, 0x01, 0xec, 0xff, 0x1e, 0x07, 0x38, 0xe8, 0x10, 0xd4, 0x04, 0x1e, 0xd3, 0x03, 0x04, 0xf3, 0x03, 0xe6, 0xc7, 0xfe, 0x08, 0xfc, 0x2d, 0xeb, 0x16, 0xed, 0x16, 0x0d, 0x06, 0xea, 0xd9, 0xe7, 0xff, 0xff, 0xe0, 0xe9, 0x1d, 0x1b, 0x33, 0xff, 0x0e, 0xe5, 0x03, 0x1a, 0x22, 0x32, 0xdd, 0xe0, 0x2e, 0xf4, 0x0c, 0x2a, 0xf8, 0x2b, 0x0c, 0x10, 0xeb, 0x0c, 0x37, 0xfe, 0x0b, 0x00, 0xf1, 0xd3, 0x18, 0xfd, 0xdc, 0x22, 0x00, 0x18, 0x1a, 0x0e, 0xd1, 0xfc, 0x25, 0x16, 0x20, 0x2f, 0x09, 0x0b, 0x1e, 0x1d, 0x40, 0x31, 0x1d, 0x25, 0x0a, 0xfe, 0xf9, 0x02, 0x00, 0x5e, 0xda, 0xeb, 0x13, 0x22, 0x19, 0x16, 0xe9, 0xcf, 0xb2, 0xed, 0xff, 0x09, 0xdc, 0xf4, 0x09, 0x3b, 0x03, 0x01, 0x24, 0xfa, 0xff, 0x15, 0xf8, 0xb6, 0xbd, 0x04, 0xf3, 0x11, 0xc4, 0x1f, 0xf7, 0x61, 0xe5, 0x09, 0x35, 0x1a, 0xf9, 0xe9, 0xf9, 0xba, 0xd8, 0x07, 0xe5, 0x0e, 0xe1, 0xed, 0xfa, 0x59, 0xce, 0x09, 0xfd, 0x0a, 0xf8, 0x29, 0xda, 0xee, 0xc6, 0xfc, 0xe7, 0x0c, 0xf9, 0x00, 0xed, 0x4d, 0xc6, 0xfe, 0x13, 0xe0, 0x06, 0xe6, 0xce, 0xf9, 0xc5, 0x08, 0xf3, 0x04, 0xe7, 0xfe, 0x04, 0x58, 0xef, 0xfa, 0x06, 0x1e, 0xea, 0x08, 0xf9, 0xf9, 0xc9, 0x14, 0x06, 0xf9, 0x09, 0x21, 0xdd, 0x4f, 0x11, 0x13, 0x0a, 0x14, 0x26, 0x05, 0x0d, 0xe1, 0xd8, 0x12, 0xfa, 0x26, 0xe8, 0x1c, 0xe0, 0x64, 0x01, 0x2a, 0x3b, 0x01, 0x1e, 0x17, 0x19, 0xda, 0xda, 0x05, 0x13, 0x11, 0xf2, 0xfc, 0xe9, 0x3e, 0x1c, 0x26, 0x34, 0xf3, 0x39, 0xe2, 0x30, 0xeb, 0xef, 0xf8, 0x07, 0x03, 0xf3, 0xf5, 0x10, 0x9d, 0x18, 0x03, 0xe9, 0xf2, 0xf0, 0xf6, 0x27, 0x5f, 0x4e, 0xfb, 0x06, 0xff, 0x1c, 0xfc, 0x16, 0xa8, 0xf7, 0x0e, 0xf4, 0xcb, 0x0d, 0xea, 0xea, 0x61, 0x33, 0x03, 0xf7, 0xf1, 0x2f, 0xfb, 0x2e, 0xc0, 0xfc, 0xfd, 0xea, 0xe3, 0x03, 0x07, 0x0f, 0x63, 0x46, 0x15, 0x16, 0xe7, 0x30, 0xf1, 0x0b, 0xb5, 0x3b, 0x19, 0xec, 0xf7, 0xf5, 0xe2, 0x10, 0x00, 0x3c, 0x02, 0x22, 0xff, 0x0e, 0xf1, 0x1b, 0xde, 0x0c, 0x0f, 0xe6, 0xf6, 0x02, 0xd7, 0x2f, 0x03, 0x2e, 0x0d, 0x23, 0xfb, 0xfe, 0xdc, 0x0c, 0xb0, 0x22, 0xff, 0xf2, 0xd3, 0xf9, 0xc7, 0x1e, 0x0b, 0x27, 0xf6, 0xfa, 0x06, 0xf3, 0x02, 0x0b, 0xbc, 0xf4, 0xf5, 0xe4, 0xe3, 0xd6, 0xde, 0x12, 0x20, 0x19, 0xe9, 0x03, 0x05, 0x02, 0xde, 0x19, 0xbc, 0xed, 0xed, 0xe6, 0xdf, 0xd2, 0xf3, 0xf5, 0x3a, 0x18, 0x07, 0xf1, 0xe2, 0x10, 0xd9, 0x1d, 0xa2, 0xf4, 0xfb, 0xaf, 0xe1, 0xe4, 0xec, 0xe0, 0x27, 0x24, 0x04, 0xe5, 0x05, 0x24, 0xe2, 0x25, 0x0f, 0x01, 0x01, 0x0d, 0x51, 0x07, 0x15, 0xfe, 0xaa, 0xca, 0x01, 0xfe, 0x20, 0xe6, 0x0f, 0x23, 0x14, 0x0d, 0xe8, 0xf5, 0x4d, 0x19, 0x15, 0x12, 0xa8, 0xc2, 0x01, 0x02, 0x20, 0xdd, 0x2b, 0x31, 0x07, 0xe7, 0xd3, 0xea, 0x42, 0xe6, 0x06, 0x37, 0xaf, 0xdd, 0xf0, 0xe6, 0xf6, 0xf7, 0x18, 0x1d, 0x1a, 0x0e, 0x12, 0x09, 0x2c, 0x26, 0x09, 0xe3, 0xfe, 0xa3, 0xfe, 0x01, 0x1d, 0xda, 0x39, 0x18, 0xec, 0x17, 0x20, 0xd8, 0x12, 0x0a, 0x02, 0x1e, 0x19, 0xa5, 0x15, 0xe8, 0xff, 0xfd, 0x07, 0x34, 0xe4, 0xea, 0x0c, 0xd9, 0x31, 0xff, 0x10, 0x16, 0x01, 0xa4, 0x05, 0xf4, 0x14, 0xe4, 0x17, 0x28, 0x1c, 0xfa, 0xee, 0x14, 0x1a, 0xf8, 0x0b, 0xdc, 0xe7, 0xe0, 0x0c, 0x28, 0x17, 0x1a, 0x01, 0x0b, 0x0d, 0xfa, 0xf9, 0xd2, 0x2c, 0x01, 0xfd, 0x1b, 0xfe, 0xd2, 0x11, 0x08, 0x12, 0x0b, 0xed, 0x2a, 0x1e, 0xf7, 0xd1, 0xd9, 0x32, 0xbd, 0x0c, 0xf5, 0x17, 0x07, 0xe0, 0x13, 0xe1, 0x58, 0xfc, 0x08, 0xce, 0x22, 0xff, 0x23, 0x0a, 0x05, 0xec, 0x1a, 0xf5, 0xfe, 0x19, 0xfa, 0x0b, 0x4c, 0x16, 0xe7, 0xcc, 0x02, 0x1e, 0xed, 0x1b, 0x23, 0xf2, 0x5b, 0xe9, 0x31, 0xec, 0xcd, 0x0a, 0x1b, 0xf8, 0xfb, 0xc5, 0x05, 0xcd, 0x0e, 0x12, 0xe6, 0x1e, 0x1c, 0xe9, 0x2d, 0xd3, 0xf4, 0x08, 0x40, 0xf0, 0x12, 0xad, 0x25, 0x10, 0x09, 0x12, 0x21, 0xf3, 0x3c, 0x1f, 0x04, 0x14, 0xe0, 0x2e, 0x14, 0x19, 0xf2, 0xc5, 0x3f, 0x28, 0xf5, 0x12, 0x0f, 0x00, 0x4a, 0x19, 0xd9, 0x17, 0xed, 0x17, 0xff, 0xfd, 0x11, 0x9e, 0x06, 0xf4, 0x20, 0x16, 0xf7, 0xf2, 0x2f, 0xfe, 0xda, 0xd7, 0xe4, 0x1b, 0xf0, 0xfd, 0x17, 0xbd, 0xe0, 0xc7, 0xeb, 0x0e, 0xdf, 0x1c, 0xfd, 0xf7, 0xf3, 0xcd, 0xff, 0xf5, 0x15, 0x0e, 0xfa, 0xce, 0xf8, 0xec, 0xe7, 0xfb, 0xc9, 0xf5, 0x08, 0xde, 0x21, 0xf6, 0xde, 0xfd, 0x14, 0xf0, 0xff, 0xcb, 0xc9, 0xd2, 0xcc, 0x1e, 0xad, 0xed, 0xbc, 0x09, 0x21, 0xd6, 0xe3, 0xdd, 0x49, 0xd5, 0x1d, 0xa9, 0xf1, 0x16, 0x19, 0xf1, 0xec, 0xfa, 0x18, 0x1b, 0x42, 0xf3, 0x14, 0x1e, 0x25, 0xed, 0x0d, 0xb7, 0x21, 0xf9, 0xcc, 0x06, 0x1d, 0x0f, 0xfd, 0x0c, 0x2e, 0xfa, 0xf9, 0x18, 0x08, 0xfe, 0x16, 0xab, 0x09, 0x00, 0xd7, 0xef, 0x06, 0xfb, 0x25, 0x0e, 0x32, 0xf2, 0xfa, 0xf5, 0x53, 0xf2, 0x07, 0xac, 0x27, 0x0e, 0x22, 0x0e, 0xfc, 0xcd, 0x02, 0x22, 0xfd, 0xf4, 0x29, 0x06, 0xfd, 0xef, 0x20, 0xaa, 0x2a, 0x26, 0xd8, 0x07, 0x1d, 0x0f, 0x43, 0xfb, 0x05, 0xfb, 0xef, 0x21, 0x0d, 0x18, 0x0d, 0x9c, 0x39, 0xf2, 0xdf, 0xfb, 0xfe, 0xf1, 0xf9, 0x1c, 0x22, 0x09, 0x09, 0x11, 0xf3, 0x01, 0x43, 0xac, 0xf9, 0xd7, 0x00, 0xf1, 0xd2, 0xee, 0xd6, 0x28, 0x28, 0xea, 0xf3, 0xd8, 0x1e, 0xdd, 0x31, 0x8e, 0xe8, 0xd3, 0xcc, 0xfa, 0xdc, 0xf0, 0xe4, 0x25, 0x11, 0x0a, 0xfe, 0xff, 0x0d, 0x0e, 0x27, 0xa4, 0xe4, 0xae, 0xab, 0xfb, 0xce, 0x14, 0xef, 0x33, 0x0a, 0xe6, 0x1c, 0xd5, 0x21, 0xd7, 0x21, 0x1a, 0xfd, 0xec, 0xe9, 0xeb, 0x11, 0x05, 0xfd, 0x17, 0xb1, 0xea, 0x00, 0x05, 0xd4, 0x1c, 0x32, 0x01, 0xe8, 0xf0, 0x05, 0xef, 0xf5, 0x05, 0xae, 0x11, 0xb8, 0x18, 0x22, 0xfe, 0xe2, 0x0f, 0x36, 0x07, 0x07, 0x12, 0xee, 0xe8, 0xfc, 0xf1, 0x0d, 0x1a, 0xbb, 0x0b, 0x2d, 0xf7, 0xcf, 0xe7, 0x11, 0x20, 0xde, 0xee, 0xe5, 0x20, 0xf8, 0xf8, 0xcd, 0xf3, 0xdf, 0x02, 0x42, 0x0c, 0xf4, 0x01, 0xff, 0x27, 0xe2, 0xf1, 0xcd, 0x00, 0xe3, 0xdd, 0xcc, 0xf3, 0xd3, 0x19, 0x19, 0xf7, 0xf3, 0xf8, 0x21, 0x2d, 0xf7, 0x05, 0xce, 0x0f, 0xf3, 0x00, 0xfc, 0x11, 0xfc, 0x18, 0x13, 0x11, 0xf5, 0xdf, 0x25, 0x3a, 0x10, 0x24, 0xf3, 0x17, 0x1f, 0xfe, 0x14, 0x2c, 0xce, 0x18, 0x1b, 0x12, 0xea, 0x16, 0x12, 0x2f, 0x26, 0x09, 0xed, 0xfa, 0x15, 0x0c, 0xf9, 0x37, 0xd7, 0x04, 0x12, 0x05, 0xf7, 0x06, 0x10, 0x19, 0x37, 0x08, 0x14, 0x09, 0xfa, 0x1f, 0x4e, 0x25, 0x0b, 0x27, 0x40, 0x0a, 0xf4, 0x13, 0xe7, 0x07, 0x0d, 0x0d, 0x0b, 0x23, 0x12, 0xfd, 0xff, 0xa7, 0xe2, 0x0b, 0xf7, 0x18, 0xf8, 0x1b, 0x08, 0x02, 0x1f, 0x20, 0xf9, 0x40, 0x24, 0x1c, 0x45, 0xaf, 0xf5, 0x0d, 0xe0, 0x28, 0xf3, 0xf6, 0x05, 0xf2, 0xf2, 0xdd, 0xf7, 0x21, 0x08, 0x0a, 0x12, 0xb4, 0xe3, 0xfc, 0xe9, 0xff, 0x18, 0xf9, 0x08, 0xe5, 0x0d, 0x19, 0x1c, 0x1e, 0x24, 0x1f, 0xf7, 0xfb, 0xb2, 0xea, 0xd8, 0x22, 0xe8, 0x29, 0xee, 0xe0, 0x09, 0xff, 0xdd, 0x2c, 0xfd, 0x01, 0x4d, 0x03, 0xe3, 0xea, 0xe2, 0x04, 0xed, 0x2a, 0xfd, 0xd5, 0x1f, 0xfc, 0xf3, 0x10, 0x03, 0xf2, 0x0f, 0xf8, 0xd8, 0xd4, 0xf3, 0x01, 0x07, 0x07, 0x0e, 0x01, 0xd8, 0xdb, 0x04, 0x1c, 0xf5, 0x11, 0xc3, 0xd2, 0xe7, 0xfd, 0xf8, 0xf9, 0x13, 0xf3, 0xf5, 0xec, 0xff, 0xd4, 0xf1, 0x3c, 0xd3, 0x05, 0x2c, 0xfe, 0xf6, 0xdc, 0x0a, 0x0c, 0x1b, 0x14, 0x17, 0xed, 0xbb, 0xc4, 0x08, 0x2a, 0xc1, 0x16, 0xe8, 0xed, 0x09, 0xea, 0x09, 0xda, 0x4c, 0xf0, 0xe1, 0x23, 0xe4, 0xe6, 0x16, 0x34, 0x19, 0x1f, 0x04, 0x9d, 0xda, 0xf7, 0xcf, 0x24, 0x06, 0x0f, 0xd7, 0xec, 0xfd, 0x14, 0xfc, 0x31, 0x0b, 0x1d, 0x5f, 0xcb, 0xe6, 0x21, 0xf1, 0x1e, 0x14, 0x1b, 0x03, 0x00, 0xe2, 0xdb, 0xeb, 0x31, 0x0b, 0xf0, 0x2a, 0xac, 0xde, 0x0b, 0xe3, 0x0d, 0xf8, 0xfb, 0x07, 0xfa, 0x04, 0x22, 0x08, 0x19, 0x02, 0x01, 0x12, 0x0f, 0xbe, 0x04, 0xcb, 0x08, 0xd9, 0x17, 0xfa, 0xe3, 0x27, 0x2e, 0x00, 0x1a, 0x20, 0x0d, 0x3c, 0x24, 0xee, 0xf6, 0xc1, 0xfb, 0xe7, 0x1d, 0xf6, 0x04, 0x0c, 0xdf, 0x0b, 0x2a, 0x0a, 0x11, 0x1a, 0x02, 0xf2, 0xe3, 0xd6, 0xf2, 0x08, 0xf6, 0xe1, 0x04, 0xf8, 0xfc, 0x16, 0x28, 0xec, 0x03, 0xed, 0xf3, 0xe0, 0xf5, 0xdf, 0x0c, 0x16, 0x18, 0xe7, 0x0c, 0x09, 0xdc, 0xf4, 0x07, 0xe1, 0xec, 0x0a, 0xca, 0x1c, 0xeb, 0x00, 0x18, 0xfe, 0x16, 0xf1, 0x19, 0xb8, 0xd3, 0xea, 0x27, 0xbc, 0xe8, 0xe3, 0xeb, 0x10, 0xd3, 0xf4, 0xe5, 0x27, 0x05, 0xdb, 0xd5, 0x1f, 0xff, 0x03, 0xfb, 0xf5, 0xff, 0x15, 0x07, 0x66, 0xf5, 0x10, 0xf9, 0x42, 0xf7, 0xcb, 0xdb, 0xf2, 0x16, 0x1f, 0x05, 0xfe, 0x09, 0x31, 0x21, 0x47, 0xe2, 0xf6, 0x1b, 0x3b, 0xfe, 0xe3, 0xec, 0xfe, 0x07, 0x05, 0xf2, 0x12, 0xf4, 0xfa, 0x13, 0x4f, 0x0a, 0xfe, 0xf6, 0x41, 0x16, 0xed, 0xd2, 0x16, 0x19, 0x1a, 0x12, 0x09, 0xf7, 0x20, 0x1b, 0x38, 0xfc, 0xef, 0xeb, 0x1b, 0xe1, 0x00, 0xd1, 0x32, 0x1b, 0x0d, 0xf9, 0x09, 0xf6, 0x46, 0x1b, 0x35, 0xed, 0xce, 0x09, 0x08, 0x0a, 0xfb, 0xf5, 0x04, 0x05, 0x1e, 0xe7, 0x0c, 0xf2, 0xf9, 0x19, 0x17, 0x0b, 0xf8, 0xfb, 0x0b, 0x0b, 0xdd, 0xcc, 0xd3, 0xe4, 0xff, 0xef, 0xf0, 0xd6, 0xe4, 0xf1, 0x2a, 0xf5, 0xcf, 0xf1, 0xfd, 0xe1, 0xf4, 0xe8, 0xd8, 0xef, 0x12, 0xe0, 0xee, 0x03, 0x11, 0x00, 0x19, 0xe6, 0xcd, 0xf4, 0x15, 0xfd, 0xd2, 0xda, 0xd4, 0xd7, 0x1c, 0xeb, 0xde, 0x11, 0xb8, 0xe0, 0x18, 0xe3, 0xf6, 0xe8, 0xf7, 0x0e, 0x21, 0xd7, 0x1b, 0xf9, 0x02, 0xcb, 0x05, 0xeb, 0x07, 0x6f, 0x2b, 0x01, 0x36, 0xe9, 0x2a, 0xf8, 0x35, 0xea, 0x15, 0x05, 0xd4, 0xe7, 0x08, 0x01, 0xe0, 0x55, 0x18, 0xfe, 0x35, 0xd8, 0xf4, 0xe0, 0x15, 0xfd, 0xfa, 0xf4, 0xde, 0xcb, 0xf4, 0xeb, 0xff, 0x69, 0x20, 0x08, 0x28, 0xef, 0x27, 0xee, 0x1f, 0xf8, 0x27, 0x01, 0xe4, 0xc6, 0x02, 0xe0, 0xf4, 0x0d, 0x30, 0xfe, 0x1d, 0xe2, 0x26, 0xd3, 0x0e, 0xf2, 0xfb, 0x08, 0xe4, 0x08, 0xf1, 0xec, 0xf5, 0xf7, 0x2e, 0x0c, 0x36, 0xfd, 0x0c, 0xf8, 0x07, 0xf0, 0x07, 0x17, 0xe4, 0xcd, 0x06, 0xf3, 0x05, 0xf1, 0x4f, 0x14, 0x10, 0x03, 0x14, 0xfd, 0x2c, 0xdd, 0xf4, 0x00, 0x02, 0xd5, 0x00, 0x10, 0x0d, 0x39, 0x2c, 0x1e, 0x2b, 0x0d, 0x0b, 0xe3, 0x41, 0xe6, 0xff, 0xf0, 0xd3, 0xcb, 0xed, 0xfe, 0xd8, 0x45, 0x18, 0x0b, 0x13, 0xda, 0xe6, 0xed, 0x1d, 0xf1, 0x20, 0x11, 0xf3, 0xeb, 0x02, 0xfe, 0xe8, 0x33, 0x2f, 0x37, 0x23, 0xe9, 0xe1, 0xd8, 0xd5, 0xeb, 0x0a, 0x1f, 0x19, 0x06, 0x0d, 0xe4, 0x2c, 0x27, 0x4c, 0xf2, 0x0e, 0xec, 0x2a, 0x06, 0xe2, 0xd1, 0x06, 0x28, 0xf3, 0x18, 0xef, 0xdd, 0x35, 0x07, 0x49, 0xfb, 0xf9, 0x05, 0x35, 0x0a, 0xfd, 0xc2, 0xe6, 0x0f, 0xef, 0x14, 0x04, 0xde, 0xed, 0x15, 0x36, 0xda, 0x08, 0xea, 0x23, 0x0f, 0xed, 0xc5, 0x34, 0x12, 0x20, 0xed, 0x12, 0xea, 0x45, 0xf5, 0x38, 0xe4, 0xcf, 0x15, 0x10, 0xfe, 0xfe, 0xca, 0x1c, 0x25, 0x14, 0xed, 0x21, 0x0c, 0x54, 0x27, 0x3a, 0x0b, 0xf8, 0xf6, 0xff, 0xf1, 0x0d, 0xe8, 0x1b, 0xf6, 0x18, 0xf5, 0xfd, 0xee, 0xf5, 0xf7, 0x31, 0xde, 0xf0, 0xfe, 0x03, 0xf6, 0xf3, 0xb3, 0xe7, 0xe1, 0xe7, 0xeb, 0xbb, 0x04, 0xe1, 0xed, 0x12, 0xe1, 0xe4, 0xfa, 0x13, 0xf8, 0xe6, 0xd7, 0xd0, 0xf3, 0x04, 0xe2, 0xdb, 0xe1, 0x11, 0xed, 0x18, 0xe1, 0xd9, 0xf3, 0xee, 0xf0, 0xdb, 0xc5, 0xc8, 0xc3, 0x04, 0x00, 0xf1, 0x11, 0xc4, 0xf3, 0x04, 0xfb, 0xc1, 0xea, 0x0f, 0xe4, 0x46, 0x16, 0xf6, 0xe4, 0xf2, 0x24, 0x08, 0x26, 0x09, 0xc1, 0xb9, 0x03, 0xfa, 0xf4, 0xf3, 0x06, 0x54, 0xe1, 0x08, 0xda, 0xc8, 0x1e, 0x1a, 0x12, 0x02, 0xc1, 0xc1, 0x24, 0x09, 0x0e, 0xeb, 0x1b, 0x52, 0xfc, 0x07, 0xd3, 0xbf, 0x38, 0xee, 0x05, 0x22, 0xda, 0xb8, 0x15, 0xf6, 0xf0, 0x05, 0xec, 0x0c, 0xe3, 0x1c, 0x0f, 0xf6, 0x18, 0x0a, 0xf0, 0x0f, 0xfb, 0xa8, 0x14, 0x00, 0x0d, 0xbf, 0x24, 0x24, 0xfc, 0x06, 0x10, 0xbe, 0x39, 0x20, 0x02, 0x03, 0xf1, 0xb8, 0x0d, 0x00, 0x0b, 0xde, 0x0e, 0x41, 0xd3, 0x27, 0xed, 0xe5, 0x0f, 0xfe, 0xef, 0x20, 0x09, 0xba, 0x29, 0x2f, 0xf3, 0xeb, 0x0e, 0x43, 0xed, 0xea, 0xf1, 0x0b, 0x41, 0xe9, 0x09, 0x0b, 0x38, 0xe7, 0xf7, 0x11, 0x02, 0x34, 0x0a, 0x26, 0x08, 0x18, 0x0d, 0xf8, 0x31, 0xe8, 0xfd, 0x0e, 0x0a, 0xcd, 0x1b, 0x37, 0xf4, 0x17, 0x12, 0x5f, 0x07, 0xfe, 0xd1, 0xf0, 0x2a, 0xdd, 0x03, 0x26, 0x2b, 0xf7, 0x19, 0x2d, 0xf6, 0x2f, 0xda, 0x1c, 0xd8, 0xf4, 0xeb, 0xf2, 0xcc, 0xeb, 0x0c, 0xf5, 0x51, 0x09, 0xf4, 0x17, 0xee, 0x15, 0x01, 0x50, 0xf8, 0x15, 0xfa, 0xbf, 0xe8, 0xed, 0xe5, 0xc5, 0x5e, 0xf0, 0xfd, 0x13, 0x05, 0xd7, 0x07, 0x35, 0xf4, 0xfc, 0x09, 0xec, 0xd4, 0xf1, 0x0c, 0x11, 0x4a, 0x0c, 0x30, 0x29, 0xfa, 0x11, 0xe8, 0x11, 0x02, 0xeb, 0xf8, 0xfa, 0xf4, 0x23, 0xf0, 0x05, 0xe6, 0x23, 0x15, 0x3f, 0x04, 0x22, 0xf0, 0x20, 0xff, 0x01, 0xe5, 0xe0, 0x00, 0x0c, 0xca, 0xd1, 0x10, 0xf9, 0x1e, 0x23, 0xf8, 0x1f, 0xe3, 0x3a, 0x0e, 0x16, 0x15, 0xc9, 0xfb, 0x17, 0xbe, 0x0c, 0xe8, 0x09, 0x0a, 0x4c, 0xe9, 0x05, 0xf6, 0x31, 0xe2, 0x18, 0x06, 0xd9, 0xdd, 0xf8, 0xf5, 0x06, 0x43, 0xf9, 0x1f, 0x1f, 0x0a, 0x16, 0xf0, 0x3d, 0xda, 0xf9, 0x23, 0xe0, 0xe3, 0x09, 0xf7, 0xd7, 0x45, 0x03, 0x3a, 0x19, 0xf9, 0x09, 0xdd, 0x4f, 0xf5, 0x34, 0x15, 0xdc, 0xdb, 0x05, 0x07, 0x13, 0x46, 0xf3, 0x4b, 0x3b, 0xf9, 0x0b, 0xfb, 0x23, 0x56, 0xdc, 0xf8, 0xdc, 0xed, 0xf4, 0x23, 0xcf, 0x03, 0xb8, 0xf6, 0x06, 0x0d, 0xa7, 0x1e, 0x2d, 0x26, 0xf6, 0xda, 0x07, 0x10, 0x02, 0xfe, 0xd8, 0x0a, 0xa1, 0x00, 0x12, 0xfe, 0xcd, 0xea, 0x18, 0x53, 0x25, 0x19, 0xe4, 0xfd, 0x12, 0xee, 0xff, 0xf6, 0xac, 0x14, 0x2c, 0xff, 0xc1, 0xf1, 0xed, 0x45, 0xe4, 0xd6, 0xeb, 0xfd, 0x02, 0x10, 0xc7, 0xe5, 0xc8, 0x1a, 0x1a, 0xf0, 0xfd, 0x01, 0x01, 0x5c, 0xbe, 0xe7, 0xdb, 0x18, 0xe8, 0xe9, 0xa9, 0x0b, 0xcd, 0x15, 0x26, 0x0a, 0xf0, 0xff, 0x24, 0x3e, 0xd8, 0xfc, 0xef, 0xf9, 0xed, 0xf5, 0xe3, 0xea, 0xcd, 0x31, 0x27, 0xfa, 0xf2, 0x12, 0xf7, 0x5f, 0x36, 0x32, 0xf3, 0x07, 0x25, 0x24, 0x07, 0x0d, 0xe2, 0x07, 0x24, 0x32, 0xeb, 0x03, 0xff, 0x2e, 0x1c, 0x10, 0x16, 0x1b, 0x0f, 0x16, 0xf4, 0x0a, 0xce, 0x1c, 0x18, 0x15, 0xe6, 0x0e, 0x03, 0x3a, 0x28, 0x4d, 0xf9, 0x19, 0x2a, 0x09, 0x5f, 0x1c, 0xe8, 0x38, 0x3c, 0x29, 0xda, 0xf5, 0x1f, 0x28, 0x02, 0xf5, 0xf9, 0x44, 0x15, 0x07, 0x06, 0xae, 0xc0, 0x1e, 0xe0, 0x17, 0xf1, 0x1a, 0x26, 0xfe, 0xf3, 0x00, 0xe6, 0x1d, 0xfc, 0x04, 0x06, 0xbe, 0xb5, 0x1b, 0xf5, 0x08, 0xe9, 0xf9, 0x21, 0x0a, 0xfb, 0xd0, 0xce, 0x4e, 0xd3, 0x0b, 0x26, 0xbf, 0xda, 0xfe, 0x13, 0x15, 0x08, 0x02, 0x06, 0xfe, 0x14, 0xfc, 0x01, 0x1d, 0x2c, 0xeb, 0xf3, 0xe4, 0x9f, 0x12, 0xf5, 0x26, 0xdd, 0x34, 0x19, 0xff, 0xf8, 0x11, 0xe3, 0x08, 0x0a, 0x0d, 0x17, 0x0f, 0xb4, 0x13, 0xef, 0x13, 0xf2, 0x25, 0x14, 0xff, 0x08, 0xeb, 0xfc, 0x12, 0xeb, 0xe4, 0x1f, 0x0d, 0xb5, 0x15, 0x0e, 0x02, 0xd6, 0xf5, 0x2f, 0x0c, 0x12, 0xe5, 0xee, 0x42, 0x0b, 0x22, 0x16, 0xea, 0xcf, 0x06, 0x33, 0xfc, 0x1e, 0x24, 0x2f, 0xfd, 0x06, 0x0b, 0xd2, 0x09, 0xfd, 0x09, 0x2c, 0x1c, 0xd6, 0x0b, 0x27, 0x0c, 0x2e, 0x04, 0x41, 0x22, 0x05, 0xe5, 0xe8, 0x21, 0xcf, 0x06, 0x1b, 0x11, 0xe1, 0x02, 0x3a, 0xf8, 0x40, 0xd6, 0x15, 0x93, 0x19, 0x12, 0x20, 0xe4, 0x04, 0xee, 0x29, 0x46, 0x50, 0xf6, 0xf0, 0x0d, 0x52, 0xe8, 0x07, 0x98, 0x1f, 0x25, 0xe7, 0xf4, 0x1c, 0xf4, 0x38, 0x31, 0x38, 0x06, 0x11, 0x05, 0x18, 0xed, 0x12, 0xa8, 0xf7, 0xdd, 0xdf, 0x07, 0x05, 0xf9, 0xff, 0x22, 0x4c, 0xe2, 0x02, 0x0c, 0x4a, 0x12, 0xfe, 0x98, 0x2b, 0x12, 0x0e, 0xec, 0xfe, 0xd8, 0x26, 0x14, 0x3d, 0xf4, 0xf7, 0x1c, 0x1a, 0xf2, 0xfc, 0xcf, 0x20, 0x18, 0xdc, 0xfc, 0x02, 0xf6, 0x42, 0x2c, 0x2a, 0xf1, 0xec, 0xfb, 0x24, 0x1f, 0x12, 0x90, 0x13, 0x13, 0x04, 0xf3, 0x14, 0xd9, 0x08, 0x04, 0x24, 0x03, 0xfb, 0x13, 0x09, 0xec, 0x1e, 0xad, 0xd8, 0xc5, 0xe2, 0x01, 0xd4, 0xf2, 0xec, 0x0d, 0x22, 0xde, 0xe8, 0xdd, 0x2c, 0x03, 0x31, 0xac, 0x08, 0xd9, 0xdb, 0xe7, 0xe6, 0xe8, 0xdb, 0x2f, 0x13, 0xfe, 0xe6, 0xe3, 0x0f, 0xe7, 0x1a, 0x9b, 0xe3, 0xbe, 0xbf, 0xeb, 0xa9, 0x0b, 0xc8, 0x0e, 0x31, 0xf5, 0xef, 0xe7, 0x29, 0xf6, 0x21, 0xec, 0x02, 0x02, 0xee, 0xbe, 0xfa, 0xe3, 0x02, 0x6e, 0x1b, 0xed, 0x39, 0xf0, 0xdd, 0x00, 0x30, 0xfe, 0xdb, 0xef, 0xfb, 0xc8, 0xd7, 0xe5, 0xb3, 0x69, 0xfa, 0xf2, 0x15, 0xfe, 0xde, 0xfc, 0x1f, 0xef, 0x17, 0xfc, 0xd5, 0xef, 0x0d, 0xee, 0xe3, 0x68, 0x1f, 0x15, 0x14, 0xdc, 0xe8, 0xea, 0x13, 0x00, 0x00, 0x03, 0xd9, 0xda, 0xfe, 0xda, 0xf2, 0xf5, 0x3d, 0x10, 0x19, 0xea, 0xf8, 0xf7, 0x1d, 0x1e, 0xec, 0xd9, 0xe5, 0xd7, 0xf4, 0xd5, 0xbf, 0xf3, 0x27, 0xeb, 0x44, 0xf4, 0x2a, 0xd9, 0xff, 0x0e, 0x0d, 0xfa, 0xf6, 0xd1, 0xfb, 0x00, 0x02, 0xf3, 0x1d, 0x00, 0x39, 0x01, 0x20, 0xd9, 0x18, 0x02, 0x1d, 0x22, 0xe6, 0xc5, 0x04, 0x15, 0x2a, 0x44, 0x03, 0x28, 0x18, 0x0d, 0xd2, 0xe5, 0x19, 0xde, 0x0e, 0xf8, 0x09, 0xc5, 0x00, 0xea, 0xdd, 0x26, 0x1b, 0x0e, 0x2e, 0xde, 0xd8, 0x11, 0x2f, 0x02, 0x14, 0x2a, 0x08, 0xf9, 0x1c, 0x15, 0x1b, 0x4b, 0x1e, 0x29, 0x12, 0x1c, 0xea, 0xee, 0x3c, 0x8a, 0x0e, 0xfc, 0xdf, 0xfc, 0xea, 0x0f, 0x27, 0x54, 0x2a, 0xe4, 0x1a, 0xff, 0x2c, 0xfa, 0x19, 0xa0, 0x1c, 0xfe, 0xe5, 0xd3, 0x05, 0xeb, 0x10, 0x3a, 0x26, 0x01, 0x2a, 0xeb, 0x2e, 0xf7, 0x1c, 0x9d, 0xfe, 0xed, 0xd8, 0x05, 0xf9, 0xfb, 0x21, 0x77, 0x4b, 0xf4, 0x1f, 0xf1, 0x3f, 0xd8, 0x01, 0xc2, 0x21, 0x0f, 0xf9, 0xd0, 0x19, 0xe2, 0x22, 0x14, 0x35, 0x0f, 0x0a, 0x19, 0xef, 0xde, 0x08, 0xcd, 0x19, 0xff, 0xe8, 0x12, 0x05, 0xdc, 0x08, 0x0b, 0x21, 0x08, 0x23, 0x07, 0xfd, 0xfb, 0x32, 0xaa, 0x10, 0x15, 0x0b, 0xf7, 0x03, 0xc4, 0x08, 0xf8, 0x0f, 0x06, 0x16, 0x04, 0x11, 0xea, 0x4d, 0xa0, 0x0b, 0xe7, 0xe8, 0xf2, 0xcc, 0x02, 0xfe, 0x2b, 0x21, 0xf2, 0x19, 0xe1, 0x0e, 0xe9, 0x1e, 0xb9, 0x12, 0x0d, 0xc5, 0xc9, 0x05, 0xf4, 0xf2, 0x35, 0x1b, 0x06, 0xf0, 0xfc, 0xfb, 0xe4, 0x29, 0xa2, 0x05, 0xeb, 0xc5, 0xf2, 0xe8, 0xf3, 0x02, 0x24, 0x12, 0x20, 0x24, 0xed, 0x1c, 0xf8, 0xf8, 0x2e, 0x11, 0xf3, 0x0b, 0xea, 0xe0, 0xdd, 0xd5, 0x49, 0xfe, 0x01, 0x02, 0xe4, 0xf0, 0xf5, 0xf0, 0x2f, 0xf0, 0xe1, 0x32, 0xeb, 0xd1, 0x06, 0xd4, 0x25, 0x10, 0xf1, 0x24, 0xf3, 0xd7, 0x08, 0xec, 0x24, 0x17, 0x12, 0x18, 0xd0, 0x19, 0xe9, 0xdb, 0x4c, 0x0d, 0x18, 0x03, 0x0b, 0xc5, 0x02, 0xe8, 0x32, 0xd0, 0xee, 0xe3, 0xcf, 0xe6, 0x0b, 0x01, 0xf0, 0x40, 0xe8, 0x04, 0xdb, 0x1f, 0x0b, 0x19, 0x5e, 0xbf, 0xcc, 0x07, 0xec, 0xec, 0xda, 0xbc, 0xda, 0x15, 0xf2, 0x2e, 0xe7, 0x20, 0xf6, 0xf9, 0x44, 0xfb, 0x0e, 0x04, 0xd8, 0xf7, 0x19, 0xe8, 0x02, 0x2b, 0xee, 0x16, 0xf0, 0x1d, 0xf4, 0xfe, 0x2d, 0x34, 0x19, 0x13, 0xc8, 0x49, 0xef, 0x1a, 0x10, 0xec, 0xff, 0xf8, 0x19, 0xba, 0xfa, 0x0a, 0x3c, 0xf4, 0x0c, 0x2e, 0xf8, 0x39, 0x0a, 0xf2, 0xeb, 0xf3, 0x1a, 0xe8, 0x1e, 0xcd, 0x03, 0xdd, 0x21, 0x36, 0x62, 0x33, 0xf2, 0x50, 0xfd, 0x1b, 0xf3, 0xfb, 0x32, 0xfb, 0x2b, 0xa8, 0x01, 0x03, 0xea, 0xe5, 0x16, 0xee, 0x3f, 0x1d, 0x15, 0x16, 0xce, 0xe7, 0xea, 0xdf, 0x25, 0x09, 0xf6, 0xf1, 0xce, 0x14, 0xec, 0xe6, 0x37, 0x32, 0xfb, 0x36, 0xb5, 0xde, 0x19, 0x05, 0x16, 0x00, 0x14, 0x03, 0xd6, 0xeb, 0xe8, 0x09, 0x40, 0xeb, 0x22, 0x32, 0xce, 0xfc, 0xe0, 0xec, 0xf8, 0x3a, 0x13, 0x05, 0xd5, 0x09, 0x02, 0x06, 0x0e, 0x0a, 0xef, 0x21, 0xff, 0xde, 0x07, 0xf6, 0x2e, 0xf8, 0x20, 0xee, 0xb1, 0x1f, 0x38, 0xf6, 0x0d, 0x35, 0x14, 0x58, 0x0a, 0xbe, 0x18, 0xf9, 0x23, 0xf1, 0xf5, 0x02, 0xb1, 0x1f, 0xfe, 0xf6, 0x34, 0xe7, 0xfc, 0x23, 0x07, 0xd0, 0x04, 0x01, 0xf7, 0x0e, 0x14, 0x09, 0xe0, 0xee, 0xc7, 0x0f, 0x33, 0xc4, 0xf7, 0xea, 0xdf, 0xde, 0xdb, 0x14, 0x00, 0x3a, 0xee, 0x23, 0xde, 0x01, 0xd6, 0xf1, 0x2b, 0xf3, 0xfc, 0x0a, 0xe8, 0xe9, 0xf8, 0xf2, 0xf8, 0x31, 0xf7, 0x19, 0xfa, 0xb8, 0xb3, 0xec, 0x12, 0xad, 0xf2, 0xe7, 0xdc, 0x03, 0xe9, 0xfd, 0xeb, 0x44, 0x03, 0x12, 0xfe, 0xe0, 0xdf, 0x0a, 0x57, 0x21, 0x1b, 0xf4, 0xcc, 0xbf, 0x06, 0x0b, 0x1a, 0xe9, 0x35, 0x2b, 0x0a, 0x08, 0x06, 0xc1, 0x4d, 0x1e, 0x1f, 0x2c, 0xc8, 0xae, 0x03, 0xe7, 0x29, 0xe3, 0x0e, 0x35, 0xfd, 0xee, 0xda, 0xd1, 0x40, 0xd4, 0x0a, 0x23, 0xbb, 0xd9, 0xf2, 0xe0, 0x02, 0xfe, 0x08, 0x0a, 0x18, 0x05, 0x14, 0xf6, 0x1a, 0x33, 0x09, 0xdb, 0x1c, 0xab, 0x0e, 0xf1, 0x2b, 0xcd, 0x13, 0x02, 0xe0, 0x2d, 0xff, 0xed, 0x19, 0x0f, 0x14, 0x14, 0x15, 0xb3, 0x09, 0xef, 0x30, 0xdb, 0x01, 0x1c, 0xf5, 0x04, 0xf7, 0xdd, 0x20, 0xe4, 0x10, 0x08, 0x00, 0xc6, 0x0e, 0x1a, 0xef, 0xec, 0x0d, 0x34, 0x04, 0xf8, 0xfa, 0xf8, 0x25, 0xfb, 0x31, 0xef, 0xfd, 0xf5, 0xf9, 0x22, 0x11, 0x38, 0xfa, 0x42, 0xed, 0x18, 0x00, 0xe4, 0x2a, 0x03, 0x19, 0x0d, 0xec, 0xf1, 0x12, 0x02, 0x07, 0x22, 0xf9, 0x3e, 0x0f, 0xe1, 0xc4, 0xdf, 0x4f, 0xcc, 0x07, 0x25, 0x03, 0xe5, 0xdf, 0x13, 0xcf, 0x2c, 0xf3, 0x12, 0xfe, 0xff, 0xff, 0x04, 0x00, 0x00, 0x00, 0x80, 0x00, 0x00, 0x00, 0x15, 0x01, 0x00, 0x00, 0x0c, 0x00, 0x00, 0x00, 0x58, 0x00, 0x00, 0x00, 0x42, 0x02, 0x00, 0x00, 0x11, 0xff, 0xff, 0xff, 0x2f, 0x01, 0x00, 0x00, 0xe9, 0xfc, 0xff, 0xff, 0x04, 0x02, 0x00, 0x00, 0x9e, 0x01, 0x00, 0x00, 0x7a, 0xff, 0xff, 0xff, 0xc3, 0xfe, 0xff, 0xff, 0x5c, 0x01, 0x00, 0x00, 0x76, 0xfd, 0xff, 0xff, 0x98, 0x01, 0x00, 0x00, 0x69, 0xff, 0xff, 0xff, 0x24, 0xfe, 0xff, 0xff, 0x83, 0xff, 0xff, 0xff, 0x88, 0x00, 0x00, 0x00, 0x24, 0x01, 0x00, 0x00, 0xac, 0xff, 0xff, 0xff, 0x31, 0xfe, 0xff, 0xff, 0x4e, 0xff, 0xff, 0xff, 0xc7, 0xff, 0xff, 0xff, 0x47, 0xfe, 0xff, 0xff, 0x0a, 0x01, 0x00, 0x00, 0xf3, 0xff, 0xff, 0xff, 0x71, 0xfe, 0xff, 0xff, 0xee, 0xfe, 0xff, 0xff, 0xae, 0xfd, 0xff, 0xff, 0xef, 0xff, 0xff, 0xff, 0xf8, 0xff, 0xff, 0xff, 0x0e, 0x01, 0x00, 0x00, 0x9e, 0xfe, 0xff, 0xff, 0x04, 0x00, 0x00, 0x00, 0x80, 0x00, 0x00, 0x00, 0xed, 0x98, 0xeb, 0xe5, 0x37, 0xd4, 0xff, 0xcb, 0xc9, 0xb3, 0x2b, 0xc2, 0x07, 0xd1, 0xf4, 0xff, 0xf9, 0xdd, 0xcb, 0x28, 0x1f, 0x34, 0xca, 0xec, 0xcb, 0xb8, 0x3d, 0x3c, 0x20, 0x50, 0xb4, 0xb4, 0xd2, 0xca, 0x00, 0x4d, 0x03, 0x2e, 0xa7, 0x2c, 0x1f, 0xbe, 0xcf, 0x32, 0xb1, 0x28, 0x21, 0xac, 0xda, 0x39, 0x22, 0x22, 0xda, 0x21, 0xd7, 0xa9, 0xd6, 0xf5, 0xf8, 0xf3, 0xd0, 0x0d, 0x11, 0x17, 0x44, 0xca, 0x5d, 0xf3, 0xdf, 0x3a, 0xd7, 0xcd, 0xea, 0xa9, 0x28, 0x28, 0xc9, 0x37, 0xd5, 0xb8, 0x56, 0x07, 0xd8, 0xb4, 0x07, 0xc9, 0x48, 0xf2, 0x25, 0x43, 0xf0, 0x30, 0x01, 0x47, 0xe7, 0x35, 0xc0, 0x51, 0xdd, 0xae, 0xd5, 0x0e, 0x4a, 0xd0, 0xec, 0x7f, 0xdb, 0xc1, 0xfa, 0x42, 0x54, 0x2b, 0xe5, 0x47, 0x20, 0x28, 0x0b, 0x3f, 0x46, 0xd7, 0xb7, 0x36, 0x50, 0x06, 0x2b, 0x9e, 0x55, 0x46, 0x2a, 0xff, 0xff, 0xff, 0x04, 0x00, 0x00, 0x00, 0x10, 0x00, 0x00, 0x00, 0x8e, 0xfd, 0xff, 0xff, 0xa7, 0x01, 0x00, 0x00, 0x43, 0x01, 0x00, 0x00, 0x72, 0xff, 0xff, 0xff, 0x46, 0xff, 0xff, 0xff, 0x04, 0x00, 0x00, 0x00, 0x08, 0x00, 0x00, 0x00, 0x01, 0x00, 0x00, 0x00, 0x02, 0x00, 0x00, 0x00, 0xcc, 0xeb, 0xff, 0xff, 0xd0, 0xeb, 0xff, 0xff, 0x0f, 0x00, 0x00, 0x00, 0x4d, 0x4c, 0x49, 0x52, 0x20, 0x43, 0x6f, 0x6e, 0x76, 0x65, 0x72, 0x74, 0x65, 0x64, 0x2e, 0x00, 0x01, 0x00, 0x00, 0x00, 0x14, 0x00, 0x00, 0x00, 0x00, 0x00, 0x0e, 0x00, 0x18, 0x00, 0x14, 0x00, 0x10, 0x00, 0x0c, 0x00, 0x08, 0x00, 0x04, 0x00, 0x0e, 0x00, 0x00, 0x00, 0x14, 0x00, 0x00, 0x00, 0x1c, 0x00, 0x00, 0x00, 0x68, 0x03, 0x00, 0x00, 0x6c, 0x03, 0x00, 0x00, 0x70, 0x03, 0x00, 0x00, 0x04, 0x00, 0x00, 0x00, 0x6d, 0x61, 0x69, 0x6e, 0x00, 0x00, 0x00, 0x00, 0x0c, 0x00, 0x00, 0x00, 0x00, 0x03, 0x00, 0x00, 0xac, 0x02, 0x00, 0x00, 0x54, 0x02, 0x00, 0x00, 0x10, 0x02, 0x00, 0x00, 0xb8, 0x01, 0x00, 0x00, 0x64, 0x01, 0x00, 0x00, 0x1c, 0x01, 0x00, 0x00, 0xe8, 0x00, 0x00, 0x00, 0xac, 0x00, 0x00, 0x00, 0x78, 0x00, 0x00, 0x00, 0x40, 0x00, 0x00, 0x00, 0x04, 0x00, 0x00, 0x00, 0xe2, 0xfd, 0xff, 0xff, 0x1c, 0x00, 0x00, 0x00, 0x00, 0x00, 0x00, 0x09, 0x1c, 0x00, 0x00, 0x00, 0x20, 0x00, 0x00, 0x00, 0x05, 0x00, 0x00, 0x00, 0x00, 0x00, 0x06, 0x00, 0x08, 0x00, 0x04, 0x00, 0x06, 0x00, 0x00, 0x00, 0x00, 0x00, 0x80, 0x3f, 0x01, 0x00, 0x00, 0x00, 0x1d, 0x00, 0x00, 0x00, 0x01, 0x00, 0x00, 0x00, 0x1c, 0x00, 0x00, 0x00, 0x5a, 0xfe, 0xff, 0xff, 0x14, 0x00, 0x00, 0x00, 0x00, 0x00, 0x00, 0x08, 0x10, 0x00, 0x00, 0x00, 0x14, 0x00, 0x00, 0x00, 0x04, 0x00, 0x00, 0x00, 0xa8, 0xec, 0xff, 0xff, 0x01, 0x00, 0x00, 0x00, 0x1c, 0x00, 0x00, 0x00, 0x03, 0x00, 0x00, 0x00, 0x1b, 0x00, 0x00, 0x00, 0x03, 0x00, 0x00, 0x00, 0x02, 0x00, 0x00, 0x00, 0x8e, 0xfe, 0xff, 0xff, 0x14, 0x00, 0x00, 0x00, 0x00, 0x00, 0x00, 0x1b, 0x10, 0x00, 0x00, 0x00, 0x14, 0x00, 0x00, 0x00, 0x03, 0x00, 0x00, 0x00, 0xdc, 0xec, 0xff, 0xff, 0x01, 0x00, 0x00, 0x00, 0x1b, 0x00, 0x00, 0x00, 0x02, 0x00, 0x00, 0x00, 0x1a, 0x00, 0x00, 0x00, 0x01, 0x00, 0x00, 0x00, 0xda, 0xfd, 0xff, 0xff, 0x10, 0x00, 0x00, 0x00, 0x00, 0x00, 0x00, 0x01, 0x14, 0x00, 0x00, 0x00, 0x18, 0x00, 0x00, 0x00, 0x02, 0xff, 0xff, 0xff, 0x02, 0x00, 0x00, 0x00, 0x02, 0x00, 0x00, 0x00, 0x01, 0x00, 0x00, 0x00, 0x1a, 0x00, 0x00, 0x00, 0x03, 0x00, 0x00, 0x00, 0x19, 0x00, 0x00, 0x00, 0x05, 0x00, 0x00, 0x00, 0x04, 0x00, 0x00, 0x00, 0xf6, 0xfe, 0xff, 0xff, 0x14, 0x00, 0x00, 0x00, 0x00, 0x00, 0x00, 0x0b, 0x10, 0x00, 0x00, 0x00, 0x14, 0x00, 0x00, 0x00, 0x02, 0x00, 0x00, 0x00, 0x44, 0xed, 0xff, 0xff, 0x01, 0x00, 0x00, 0x00, 0x19, 0x00, 0x00, 0x00, 0x02, 0x00, 0x00, 0x00, 0x17, 0x00, 0x00, 0x00, 0x18, 0x00, 0x00, 0x00, 0x26, 0xff, 0xff, 0xff, 0x14, 0x00, 0x00, 0x00, 0x00, 0x00, 0x00, 0x02, 0x20, 0x00, 0x00, 0x00, 0x24, 0x00, 0x00, 0x00, 0x01, 0x00, 0x00, 0x00, 0xd6, 0xfe, 0xff, 0xff, 0x00, 0x00, 0x00, 0x01, 0x01, 0x00, 0x00, 0x00, 0x01, 0x00, 0x00, 0x00, 0x01, 0x00, 0x00, 0x00, 0x01, 0x00, 0x00, 0x00, 0x18, 0x00, 0x00, 0x00, 0x03, 0x00, 0x00, 0x00, 0x17, 0x00, 0x00, 0x00, 0x07, 0x00, 0x00, 0x00, 0x06, 0x00, 0x00, 0x00, 0x86, 0xfe, 0xff, 0xff, 0x10, 0x00, 0x00, 0x00, 0x00, 0x00, 0x00, 0x01, 0x1c, 0x00, 0x00, 0x00, 0x20, 0x00, 0x00, 0x00, 0x78, 0xfe, 0xff, 0xff, 0x00, 0x00, 0x00, 0x01, 0x01, 0x00, 0x00, 0x00, 0x01, 0x00, 0x00, 0x00, 0x00, 0x00, 0x00, 0x01, 0x01, 0x00, 0x00, 0x00, 0x17, 0x00, 0x00, 0x00, 0x03, 0x00, 0x00, 0x00, 0x16, 0x00, 0x00, 0x00, 0x09, 0x00, 0x00, 0x00, 0x08, 0x00, 0x00, 0x00, 0x00, 0x00, 0x0e, 0x00, 0x16, 0x00, 0x00, 0x00, 0x10, 0x00, 0x0c, 0x00, 0x0b, 0x00, 0x04, 0x00, 0x0e, 0x00, 0x00, 0x00, 0x1c, 0x00, 0x00, 0x00, 0x00, 0x00, 0x00, 0x01, 0x20, 0x00, 0x00, 0x00, 0x24, 0x00, 0x00, 0x00, 0x00, 0x00, 0x0a, 0x00, 0x0c, 0x00, 0x00, 0x00, 0x08, 0x00, 0x04, 0x00, 0x0a, 0x00, 0x00, 0x00, 0x02, 0x00, 0x00, 0x00, 0x02, 0x00, 0x00, 0x00, 0x01, 0x00, 0x00, 0x00, 0x16, 0x00, 0x00, 0x00, 0x03, 0x00, 0x00, 0x00, 0x15, 0x00, 0x00, 0x00, 0x0b, 0x00, 0x00, 0x00, 0x0a, 0x00, 0x00, 0x00, 0x00, 0x00, 0x0e, 0x00, 0x18, 0x00, 0x14, 0x00, 0x10, 0x00, 0x0c, 0x00, 0x0b, 0x00, 0x04, 0x00, 0x0e, 0x00, 0x00, 0x00, 0x14, 0x00, 0x00, 0x00, 0x00, 0x00, 0x00, 0x0b, 0x10, 0x00, 0x00, 0x00, 0x14, 0x00, 0x00, 0x00, 0x02, 0x00, 0x00, 0x00, 0x5c, 0xee, 0xff, 0xff, 0x01, 0x00, 0x00, 0x00, 0x15, 0x00, 0x00, 0x00, 0x02, 0x00, 0x00, 0x00, 0x13, 0x00, 0x00, 0x00, 0x14, 0x00, 0x00, 0x00, 0x00, 0x00, 0x0e, 0x00, 0x1a, 0x00, 0x14, 0x00, 0x10, 0x00, 0x0c, 0x00, 0x0b, 0x00, 0x04, 0x00, 0x0e, 0x00, 0x00, 0x00, 0x24, 0x00, 0x00, 0x00, 0x00, 0x00, 0x00, 0x02, 0x30, 0x00, 0x00, 0x00, 0x34, 0x00, 0x00, 0x00, 0x01, 0x00, 0x00, 0x00, 0x00, 0x00, 0x0e, 0x00, 0x14, 0x00, 0x00, 0x00, 0x10, 0x00, 0x0c, 0x00, 0x08, 0x00, 0x07, 0x00, 0x0e, 0x00, 0x00, 0x00, 0x00, 0x00, 0x00, 0x01, 0x01, 0x00, 0x00, 0x00, 0x01, 0x00, 0x00, 0x00, 0x01, 0x00, 0x00, 0x00, 0x01, 0x00, 0x00, 0x00, 0x14, 0x00, 0x00, 0x00, 0x03, 0x00, 0x00, 0x00, 0x13, 0x00, 0x00, 0x00, 0x0d, 0x00, 0x00, 0x00, 0x0c, 0x00, 0x00, 0x00, 0xbe, 0xff, 0xff, 0xff, 0x10, 0x00, 0x00, 0x00, 0x00, 0x00, 0x00, 0x01, 0x1c, 0x00, 0x00, 0x00, 0x20, 0x00, 0x00, 0x00, 0xb0, 0xff, 0xff, 0xff, 0x00, 0x00, 0x00, 0x01, 0x01, 0x00, 0x00, 0x00, 0x01, 0x00, 0x00, 0x00, 0x00, 0x00, 0x00, 0x01, 0x01, 0x00, 0x00, 0x00, 0x13, 0x00, 0x00, 0x00, 0x03, 0x00, 0x00, 0x00, 0x12, 0x00, 0x00, 0x00, 0x0f, 0x00, 0x00, 0x00, 0x0e, 0x00, 0x00, 0x00, 0x00, 0x00, 0x0e, 0x00, 0x14, 0x00, 0x00, 0x00, 0x10, 0x00, 0x0c, 0x00, 0x0b, 0x00, 0x04, 0x00, 0x0e, 0x00, 0x00, 0x00, 0x1c, 0x00, 0x00, 0x00, 0x00, 0x00, 0x00, 0x01, 0x28, 0x00, 0x00, 0x00, 0x2c, 0x00, 0x00, 0x00, 0x0c, 0x00, 0x14, 0x00, 0x13, 0x00, 0x0c, 0x00, 0x08, 0x00, 0x07, 0x00, 0x0c, 0x00, 0x00, 0x00, 0x00, 0x00, 0x00, 0x01, 0x02, 0x00, 0x00, 0x00, 0x02, 0x00, 0x00, 0x00, 0x00, 0x00, 0x00, 0x01, 0x01, 0x00, 0x00, 0x00, 0x12, 0x00, 0x00, 0x00, 0x03, 0x00, 0x00, 0x00, 0x00, 0x00, 0x00, 0x00, 0x11, 0x00, 0x00, 0x00, 0x10, 0x00, 0x00, 0x00, 0x01, 0x00, 0x00, 0x00, 0x1d, 0x00, 0x00, 0x00, 0x01, 0x00, 0x00, 0x00, 0x00, 0x00, 0x00, 0x00, 0x1e, 0x00, 0x00, 0x00, 0xb4, 0x10, 0x00, 0x00, 0x58, 0x10, 0x00, 0x00, 0xe0, 0x0f, 0x00, 0x00, 0x7c, 0x0f, 0x00, 0x00, 0x18, 0x0f, 0x00, 0x00, 0xac, 0x0e, 0x00, 0x00, 0x48, 0x0e, 0x00, 0x00, 0xdc, 0x0d, 0x00, 0x00, 0x78, 0x0d, 0x00, 0x00, 0x0c, 0x0d, 0x00, 0x00, 0xa8, 0x0c, 0x00, 0x00, 0x3c, 0x0c, 0x00, 0x00, 0xd8, 0x0b, 0x00, 0x00, 0x6c, 0x0b, 0x00, 0x00, 0x08, 0x0b, 0x00, 0x00, 0x9c, 0x0a, 0x00, 0x00, 0x38, 0x0a, 0x00, 0x00, 0xcc, 0x09, 0x00, 0x00, 0xc8, 0x08, 0x00, 0x00, 0xc4, 0x07, 0x00, 0x00, 0xb0, 0x06, 0x00, 0x00, 0x24, 0x06, 0x00, 0x00, 0x40, 0x05, 0x00, 0x00, 0x3c, 0x04, 0x00, 0x00, 0x28, 0x03, 0x00, 0x00, 0x9c, 0x02, 0x00, 0x00, 0xb8, 0x01, 0x00, 0x00, 0x24, 0x01, 0x00, 0x00, 0x80, 0x00, 0x00, 0x00, 0x04, 0x00, 0x00, 0x00, 0xda, 0xef, 0xff, 0xff, 0x00, 0x00, 0x00, 0x01, 0x18, 0x00, 0x00, 0x00, 0x20, 0x00, 0x00, 0x00, 0x3c, 0x00, 0x00, 0x00, 0x1e, 0x00, 0x00, 0x00, 0x00, 0x00, 0x00, 0x09, 0x50, 0x00, 0x00, 0x00, 0x02, 0x00, 0x00, 0x00, 0xff, 0xff, 0xff, 0xff, 0x04, 0x00, 0x00, 0x00, 0xbc, 0xef, 0xff, 0xff, 0x08, 0x00, 0x00, 0x00, 0x10, 0x00, 0x00, 0x00, 0x01, 0x00, 0x00, 0x00, 0x80, 0xff, 0xff, 0xff, 0xff, 0xff, 0xff, 0xff, 0x01, 0x00, 0x00, 0x00, 0x00, 0x00, 0x80, 0x3b, 0x1b, 0x00, 0x00, 0x00, 0x53, 0x74, 0x61, 0x74, 0x65, 0x66, 0x75, 0x6c, 0x50, 0x61, 0x72, 0x74, 0x69, 0x74, 0x69, 0x6f, 0x6e, 0x65, 0x64, 0x43, 0x61, 0x6c, 0x6c, 0x5f, 0x31, 0x3a, 0x30, 0x00, 0x02, 0x00, 0x00, 0x00, 0x01, 0x00, 0x00, 0x00, 0x04, 0x00, 0x00, 0x00, 0x52, 0xf0, 0xff, 0xff, 0x00, 0x00, 0x00, 0x01, 0x18, 0x00, 0x00, 0x00, 0x20, 0x00, 0x00, 0x00, 0x3c, 0x00, 0x00, 0x00, 0x1d, 0x00, 0x00, 0x00, 0x00, 0x00, 0x00, 0x09, 0x78, 0x00, 0x00, 0x00, 0x02, 0x00, 0x00, 0x00, 0xff, 0xff, 0xff, 0xff, 0x04, 0x00, 0x00, 0x00, 0x34, 0xf0, 0xff, 0xff, 0x08, 0x00, 0x00, 0x00, 0x10, 0x00, 0x00, 0x00, 0x01, 0x00, 0x00, 0x00, 0xfb, 0xff, 0xff, 0xff, 0xff, 0xff, 0xff, 0xff, 0x01, 0x00, 0x00, 0x00, 0xc7, 0x14, 0xdb, 0x3d, 0x40, 0x00, 0x00, 0x00, 0x66, 0x75, 0x6e, 0x63, 0x74, 0x69, 0x6f, 0x6e, 0x61, 0x6c, 0x5f, 0x32, 0x5f, 0x31, 0x2f, 0x64, 0x65, 0x6e, 0x73, 0x65, 0x5f, 0x32, 0x5f, 0x31, 0x2f, 0x4d, 0x61, 0x74, 0x4d, 0x75, 0x6c, 0x3b, 0x66, 0x75, 0x6e, 0x63, 0x74, 0x69, 0x6f, 0x6e, 0x61, 0x6c, 0x5f, 0x32, 0x5f, 0x31, 0x2f, 0x64, 0x65, 0x6e, 0x73, 0x65, 0x5f, 0x32, 0x5f, 0x31, 0x2f, 0x42, 0x69, 0x61, 0x73, 0x41, 0x64, 0x64, 0x00, 0x00, 0x00, 0x00, 0x02, 0x00, 0x00, 0x00, 0x01, 0x00, 0x00, 0x00, 0x04, 0x00, 0x00, 0x00, 0xf2, 0xf0, 0xff, 0xff, 0x00, 0x00, 0x00, 0x01, 0x18, 0x00, 0x00, 0x00, 0x20, 0x00, 0x00, 0x00, 0x3c, 0x00, 0x00, 0x00, 0x1c, 0x00, 0x00, 0x00, 0x00, 0x00, 0x00, 0x09, 0x68, 0x00, 0x00, 0x00, 0x02, 0x00, 0x00, 0x00, 0xff, 0xff, 0xff, 0xff, 0x20, 0x00, 0x00, 0x00, 0xd4, 0xf0, 0xff, 0xff, 0x08, 0x00, 0x00, 0x00, 0x10, 0x00, 0x00, 0x00, 0x01, 0x00, 0x00, 0x00, 0xe8, 0xff, 0xff, 0xff, 0xff, 0xff, 0xff, 0xff, 0x01, 0x00, 0x00, 0x00, 0xe2, 0x52, 0xf6, 0x3c, 0x30, 0x00, 0x00, 0x00, 0x66, 0x75, 0x6e, 0x63, 0x74, 0x69, 0x6f, 0x6e, 0x61, 0x6c, 0x5f, 0x32, 0x5f, 0x31, 0x2f, 0x67, 0x6c, 0x6f, 0x62, 0x61, 0x6c, 0x5f, 0x61, 0x76, 0x65, 0x72, 0x61, 0x67, 0x65, 0x5f, 0x70, 0x6f, 0x6f, 0x6c, 0x69, 0x6e, 0x67, 0x32, 0x64, 0x5f, 0x32, 0x5f, 0x31, 0x2f, 0x4d, 0x65, 0x61, 0x6e, 0x00, 0x00, 0x00, 0x00, 0x02, 0x00, 0x00, 0x00, 0x01, 0x00, 0x00, 0x00, 0x20, 0x00, 0x00, 0x00, 0x82, 0xf1, 0xff, 0xff, 0x00, 0x00, 0x00, 0x01, 0x18, 0x00, 0x00, 0x00, 0x28, 0x00, 0x00, 0x00, 0x48, 0x00, 0x00, 0x00, 0x1b, 0x00, 0x00, 0x00, 0x00, 0x00, 0x00, 0x09, 0xb0, 0x00, 0x00, 0x00, 0x04, 0x00, 0x00, 0x00, 0xff, 0xff, 0xff, 0xff, 0x0c, 0x00, 0x00, 0x00, 0x0c, 0x00, 0x00, 0x00, 0x20, 0x00, 0x00, 0x00, 0x6c, 0xf1, 0xff, 0xff, 0x08, 0x00, 0x00, 0x00, 0x14, 0x00, 0x00, 0x00, 0x01, 0x00, 0x00, 0x00, 0x05, 0x00, 0x00, 0x00, 0x00, 0x00, 0x00, 0x00, 0x00, 0x00, 0x00, 0x00, 0x01, 0x00, 0x00, 0x00, 0x0a, 0x74, 0xf8, 0x3d, 0x6c, 0x00, 0x00, 0x00, 0x66, 0x75, 0x6e, 0x63, 0x74, 0x69, 0x6f, 0x6e, 0x61, 0x6c, 0x5f, 0x32, 0x5f, 0x31, 0x2f, 0x63, 0x6f, 0x6e, 0x76, 0x32, 0x64, 0x5f, 0x31, 0x34, 0x5f, 0x31, 0x2f, 0x42, 0x69, 0x61, 0x73, 0x41, 0x64, 0x64, 0x3b, 0x66, 0x75, 0x6e, 0x63, 0x74, 0x69, 0x6f, 0x6e, 0x61, 0x6c, 0x5f, 0x32, 0x5f, 0x31, 0x2f, 0x63, 0x6f, 0x6e, 0x76, 0x32, 0x64, 0x5f, 0x31, 0x34, 0x5f, 0x31, 0x2f, 0x63, 0x6f, 0x6e, 0x76, 0x6f, 0x6c, 0x75, 0x74, 0x69, 0x6f, 0x6e, 0x3b, 0x66, 0x75, 0x6e, 0x63, 0x74, 0x69, 0x6f, 0x6e, 0x61, 0x6c, 0x5f, 0x32, 0x5f, 0x31, 0x2f, 0x63, 0x6f, 0x6e, 0x76, 0x32, 0x64, 0x5f, 0x31, 0x34, 0x5f, 0x31, 0x2f, 0x53, 0x71, 0x75, 0x65, 0x65, 0x7a, 0x65, 0x00, 0x00, 0x00, 0x00, 0x04, 0x00, 0x00, 0x00, 0x01, 0x00, 0x00, 0x00, 0x0c, 0x00, 0x00, 0x00, 0x0c, 0x00, 0x00, 0x00, 0x20, 0x00, 0x00, 0x00, 0x62, 0xf2, 0xff, 0xff, 0x00, 0x00, 0x00, 0x01, 0x18, 0x00, 0x00, 0x00, 0x28, 0x00, 0x00, 0x00, 0x44, 0x00, 0x00, 0x00, 0x1a, 0x00, 0x00, 0x00, 0x00, 0x00, 0x00, 0x09, 0x58, 0x00, 0x00, 0x00, 0x04, 0x00, 0x00, 0x00, 0xff, 0xff, 0xff, 0xff, 0x18, 0x00, 0x00, 0x00, 0x18, 0x00, 0x00, 0x00, 0x10, 0x00, 0x00, 0x00, 0x4c, 0xf2, 0xff, 0xff, 0x08, 0x00, 0x00, 0x00, 0x10, 0x00, 0x00, 0x00, 0x01, 0x00, 0x00, 0x00, 0x80, 0xff, 0xff, 0xff, 0xff, 0xff, 0xff, 0xff, 0x01, 0x00, 0x00, 0x00, 0xb2, 0xbc, 0x22, 0x3d, 0x1a, 0x00, 0x00, 0x00, 0x66, 0x75, 0x6e, 0x63, 0x74, 0x69, 0x6f, 0x6e, 0x61, 0x6c, 0x5f, 0x32, 0x5f, 0x31, 0x2f, 0x61, 0x64, 0x64, 0x5f, 0x35, 0x5f, 0x31, 0x2f, 0x41, 0x64, 0x64, 0x00, 0x00, 0x04, 0x00, 0x00, 0x00, 0x01, 0x00, 0x00, 0x00, 0x18, 0x00, 0x00, 0x00, 0x18, 0x00, 0x00, 0x00, 0x10, 0x00, 0x00, 0x00, 0xea, 0xf2, 0xff, 0xff, 0x00, 0x00, 0x00, 0x01, 0x18, 0x00, 0x00, 0x00, 0x28, 0x00, 0x00, 0x00, 0x44, 0x00, 0x00, 0x00, 0x19, 0x00, 0x00, 0x00, 0x00, 0x00, 0x00, 0x09, 0xe0, 0x00, 0x00, 0x00, 0x04, 0x00, 0x00, 0x00, 0xff, 0xff, 0xff, 0xff, 0x18, 0x00, 0x00, 0x00, 0x18, 0x00, 0x00, 0x00, 0x10, 0x00, 0x00, 0x00, 0xd4, 0xf2, 0xff, 0xff, 0x08, 0x00, 0x00, 0x00, 0x10, 0x00, 0x00, 0x00, 0x01, 0x00, 0x00, 0x00, 0x80, 0xff, 0xff, 0xff, 0xff, 0xff, 0xff, 0xff, 0x01, 0x00, 0x00, 0x00, 0xb2, 0xbc, 0x22, 0x3d, 0xa3, 0x00, 0x00, 0x00, 0x66, 0x75, 0x6e, 0x63, 0x74, 0x69, 0x6f, 0x6e, 0x61, 0x6c, 0x5f, 0x32, 0x5f, 0x31, 0x2f, 0x72, 0x65, 0x5f, 0x6c, 0x75, 0x5f, 0x35, 0x5f, 0x31, 0x2f, 0x52, 0x65, 0x6c, 0x75, 0x3b, 0x66, 0x75, 0x6e, 0x63, 0x74, 0x69, 0x6f, 0x6e, 0x61, 0x6c, 0x5f, 0x32, 0x5f, 0x31, 0x2f, 0x64, 0x65, 0x70, 0x74, 0x68, 0x77, 0x69, 0x73, 0x65, 0x5f, 0x63, 0x6f, 0x6e, 0x76, 0x32, 0x64, 0x5f, 0x35, 0x5f, 0x31, 0x2f, 0x42, 0x69, 0x61, 0x73, 0x41, 0x64, 0x64, 0x3b, 0x66, 0x75, 0x6e, 0x63, 0x74, 0x69, 0x6f, 0x6e, 0x61, 0x6c, 0x5f, 0x32, 0x5f, 0x31, 0x2f, 0x64, 0x65, 0x70, 0x74, 0x68, 0x77, 0x69, 0x73, 0x65, 0x5f, 0x63, 0x6f, 0x6e, 0x76, 0x32, 0x64, 0x5f, 0x35, 0x5f, 0x31, 0x2f, 0x64, 0x65, 0x70, 0x74, 0x68, 0x77, 0x69, 0x73, 0x65, 0x3b, 0x66, 0x75, 0x6e, 0x63, 0x74, 0x69, 0x6f, 0x6e, 0x61, 0x6c, 0x5f, 0x32, 0x5f, 0x31, 0x2f, 0x64, 0x65, 0x70, 0x74, 0x68, 0x77, 0x69, 0x73, 0x65, 0x5f, 0x63, 0x6f, 0x6e, 0x76, 0x32, 0x64, 0x5f, 0x35, 0x5f, 0x31, 0x2f, 0x53, 0x71, 0x75, 0x65, 0x65, 0x7a, 0x65, 0x00, 0x04, 0x00, 0x00, 0x00, 0x01, 0x00, 0x00, 0x00, 0x18, 0x00, 0x00, 0x00, 0x18, 0x00, 0x00, 0x00, 0x10, 0x00, 0x00, 0x00, 0xfa, 0xf3, 0xff, 0xff, 0x00, 0x00, 0x00, 0x01, 0x18, 0x00, 0x00, 0x00, 0x28, 0x00, 0x00, 0x00, 0x48, 0x00, 0x00, 0x00, 0x18, 0x00, 0x00, 0x00, 0x00, 0x00, 0x00, 0x09, 0xd0, 0x00, 0x00, 0x00, 0x04, 0x00, 0x00, 0x00, 0xff, 0xff, 0xff, 0xff, 0x18, 0x00, 0x00, 0x00, 0x18, 0x00, 0x00, 0x00, 0x10, 0x00, 0x00, 0x00, 0xe4, 0xf3, 0xff, 0xff, 0x08, 0x00, 0x00, 0x00, 0x14, 0x00, 0x00, 0x00, 0x01, 0x00, 0x00, 0x00, 0x80, 0xff, 0xff, 0xff, 0xff, 0xff, 0xff, 0xff, 0x00, 0x00, 0x00, 0x00, 0x01, 0x00, 0x00, 0x00, 0xae, 0xee, 0xdf, 0x3c, 0x8c, 0x00, 0x00, 0x00, 0x66, 0x75, 0x6e, 0x63, 0x74, 0x69, 0x6f, 0x6e, 0x61, 0x6c, 0x5f, 0x32, 0x5f, 0x31, 0x2f, 0x63, 0x6f, 0x6e, 0x76, 0x32, 0x64, 0x5f, 0x31, 0x33, 0x5f, 0x31, 0x2f, 0x52, 0x65, 0x6c, 0x75, 0x3b, 0x66, 0x75, 0x6e, 0x63, 0x74, 0x69, 0x6f, 0x6e, 0x61, 0x6c, 0x5f, 0x32, 0x5f, 0x31, 0x2f, 0x63, 0x6f, 0x6e, 0x76, 0x32, 0x64, 0x5f, 0x31, 0x33, 0x5f, 0x31, 0x2f, 0x42, 0x69, 0x61, 0x73, 0x41, 0x64, 0x64, 0x3b, 0x66, 0x75, 0x6e, 0x63, 0x74, 0x69, 0x6f, 0x6e, 0x61, 0x6c, 0x5f, 0x32, 0x5f, 0x31, 0x2f, 0x63, 0x6f, 0x6e, 0x76, 0x32, 0x64, 0x5f, 0x31, 0x33, 0x5f, 0x31, 0x2f, 0x63, 0x6f, 0x6e, 0x76, 0x6f, 0x6c, 0x75, 0x74, 0x69, 0x6f, 0x6e, 0x3b, 0x66, 0x75, 0x6e, 0x63, 0x74, 0x69, 0x6f, 0x6e, 0x61, 0x6c, 0x5f, 0x32, 0x5f, 0x31, 0x2f, 0x63, 0x6f, 0x6e, 0x76, 0x32, 0x64, 0x5f, 0x31, 0x33, 0x5f, 0x31, 0x2f, 0x53, 0x71, 0x75, 0x65, 0x65, 0x7a, 0x65, 0x00, 0x00, 0x00, 0x00, 0x04, 0x00, 0x00, 0x00, 0x01, 0x00, 0x00, 0x00, 0x18, 0x00, 0x00, 0x00, 0x18, 0x00, 0x00, 0x00, 0x10, 0x00, 0x00, 0x00, 0xfa, 0xf4, 0xff, 0xff, 0x00, 0x00, 0x00, 0x01, 0x18, 0x00, 0x00, 0x00, 0x28, 0x00, 0x00, 0x00, 0x48, 0x00, 0x00, 0x00, 0x17, 0x00, 0x00, 0x00, 0x00, 0x00, 0x00, 0x09, 0xb0, 0x00, 0x00, 0x00, 0x04, 0x00, 0x00, 0x00, 0xff, 0xff, 0xff, 0xff, 0x18, 0x00, 0x00, 0x00, 0x18, 0x00, 0x00, 0x00, 0x18, 0x00, 0x00, 0x00, 0xe4, 0xf4, 0xff, 0xff, 0x08, 0x00, 0x00, 0x00, 0x14, 0x00, 0x00, 0x00, 0x01, 0x00, 0x00, 0x00, 0xce, 0xff, 0xff, 0xff, 0xff, 0xff, 0xff, 0xff, 0x00, 0x00, 0x00, 0x00, 0x01, 0x00, 0x00, 0x00, 0x45, 0xc9, 0xa9, 0x3c, 0x6c, 0x00, 0x00, 0x00, 0x66, 0x75, 0x6e, 0x63, 0x74, 0x69, 0x6f, 0x6e, 0x61, 0x6c, 0x5f, 0x32, 0x5f, 0x31, 0x2f, 0x63, 0x6f, 0x6e, 0x76, 0x32, 0x64, 0x5f, 0x31, 0x32, 0x5f, 0x31, 0x2f, 0x42, 0x69, 0x61, 0x73, 0x41, 0x64, 0x64, 0x3b, 0x66, 0x75, 0x6e, 0x63, 0x74, 0x69, 0x6f, 0x6e, 0x61, 0x6c, 0x5f, 0x32, 0x5f, 0x31, 0x2f, 0x63, 0x6f, 0x6e, 0x76, 0x32, 0x64, 0x5f, 0x31, 0x32, 0x5f, 0x31, 0x2f, 0x63, 0x6f, 0x6e, 0x76, 0x6f, 0x6c, 0x75, 0x74, 0x69, 0x6f, 0x6e, 0x3b, 0x66, 0x75, 0x6e, 0x63, 0x74, 0x69, 0x6f, 0x6e, 0x61, 0x6c, 0x5f, 0x32, 0x5f, 0x31, 0x2f, 0x63, 0x6f, 0x6e, 0x76, 0x32, 0x64, 0x5f, 0x31, 0x32, 0x5f, 0x31, 0x2f, 0x53, 0x71, 0x75, 0x65, 0x65, 0x7a, 0x65, 0x00, 0x00, 0x00, 0x00, 0x04, 0x00, 0x00, 0x00, 0x01, 0x00, 0x00, 0x00, 0x18, 0x00, 0x00, 0x00, 0x18, 0x00, 0x00, 0x00, 0x18, 0x00, 0x00, 0x00, 0xda, 0xf5, 0xff, 0xff, 0x00, 0x00, 0x00, 0x01, 0x18, 0x00, 0x00, 0x00, 0x28, 0x00, 0x00, 0x00, 0x44, 0x00, 0x00, 0x00, 0x16, 0x00, 0x00, 0x00, 0x00, 0x00, 0x00, 0x09, 0x58, 0x00, 0x00, 0x00, 0x04, 0x00, 0x00, 0x00, 0xff, 0xff, 0xff, 0xff, 0x2f, 0x00, 0x00, 0x00, 0x2f, 0x00, 0x00, 0x00, 0x0c, 0x00, 0x00, 0x00, 0xc4, 0xf5, 0xff, 0xff, 0x08, 0x00, 0x00, 0x00, 0x10, 0x00, 0x00, 0x00, 0x01, 0x00, 0x00, 0x00, 0x80, 0xff, 0xff, 0xff, 0xff, 0xff, 0xff, 0xff, 0x01, 0x00, 0x00, 0x00, 0x4f, 0x3b, 0xb7, 0x3b, 0x1a, 0x00, 0x00, 0x00, 0x66, 0x75, 0x6e, 0x63, 0x74, 0x69, 0x6f, 0x6e, 0x61, 0x6c, 0x5f, 0x32, 0x5f, 0x31, 0x2f, 0x61, 0x64, 0x64, 0x5f, 0x34, 0x5f, 0x31, 0x2f, 0x41, 0x64, 0x64, 0x00, 0x00, 0x04, 0x00, 0x00, 0x00, 0x01, 0x00, 0x00, 0x00, 0x2f, 0x00, 0x00, 0x00, 0x2f, 0x00, 0x00, 0x00, 0x0c, 0x00, 0x00, 0x00, 0x62, 0xf6, 0xff, 0xff, 0x00, 0x00, 0x00, 0x01, 0x18, 0x00, 0x00, 0x00, 0x28, 0x00, 0x00, 0x00, 0x44, 0x00, 0x00, 0x00, 0x15, 0x00, 0x00, 0x00, 0x00, 0x00, 0x00, 0x09, 0xe0, 0x00, 0x00, 0x00, 0x04, 0x00, 0x00, 0x00, 0xff, 0xff, 0xff, 0xff, 0x2f, 0x00, 0x00, 0x00, 0x2f, 0x00, 0x00, 0x00, 0x0c, 0x00, 0x00, 0x00, 0x4c, 0xf6, 0xff, 0xff, 0x08, 0x00, 0x00, 0x00, 0x10, 0x00, 0x00, 0x00, 0x01, 0x00, 0x00, 0x00, 0x80, 0xff, 0xff, 0xff, 0xff, 0xff, 0xff, 0xff, 0x01, 0x00, 0x00, 0x00, 0x4f, 0x3b, 0xb7, 0x3b, 0xa3, 0x00, 0x00, 0x00, 0x66, 0x75, 0x6e, 0x63, 0x74, 0x69, 0x6f, 0x6e, 0x61, 0x6c, 0x5f, 0x32, 0x5f, 0x31, 0x2f, 0x72, 0x65, 0x5f, 0x6c, 0x75, 0x5f, 0x34, 0x5f, 0x31, 0x2f, 0x52, 0x65, 0x6c, 0x75, 0x3b, 0x66, 0x75, 0x6e, 0x63, 0x74, 0x69, 0x6f, 0x6e, 0x61, 0x6c, 0x5f, 0x32, 0x5f, 0x31, 0x2f, 0x64, 0x65, 0x70, 0x74, 0x68, 0x77, 0x69, 0x73, 0x65, 0x5f, 0x63, 0x6f, 0x6e, 0x76, 0x32, 0x64, 0x5f, 0x34, 0x5f, 0x31, 0x2f, 0x42, 0x69, 0x61, 0x73, 0x41, 0x64, 0x64, 0x3b, 0x66, 0x75, 0x6e, 0x63, 0x74, 0x69, 0x6f, 0x6e, 0x61, 0x6c, 0x5f, 0x32, 0x5f, 0x31, 0x2f, 0x64, 0x65, 0x70, 0x74, 0x68, 0x77, 0x69, 0x73, 0x65, 0x5f, 0x63, 0x6f, 0x6e, 0x76, 0x32, 0x64, 0x5f, 0x34, 0x5f, 0x31, 0x2f, 0x64, 0x65, 0x70, 0x74, 0x68, 0x77, 0x69, 0x73, 0x65, 0x3b, 0x66, 0x75, 0x6e, 0x63, 0x74, 0x69, 0x6f, 0x6e, 0x61, 0x6c, 0x5f, 0x32, 0x5f, 0x31, 0x2f, 0x64, 0x65, 0x70, 0x74, 0x68, 0x77, 0x69, 0x73, 0x65, 0x5f, 0x63, 0x6f, 0x6e, 0x76, 0x32, 0x64, 0x5f, 0x34, 0x5f, 0x31, 0x2f, 0x53, 0x71, 0x75, 0x65, 0x65, 0x7a, 0x65, 0x00, 0x04, 0x00, 0x00, 0x00, 0x01, 0x00, 0x00, 0x00, 0x2f, 0x00, 0x00, 0x00, 0x2f, 0x00, 0x00, 0x00, 0x0c, 0x00, 0x00, 0x00, 0x72, 0xf7, 0xff, 0xff, 0x00, 0x00, 0x00, 0x01, 0x18, 0x00, 0x00, 0x00, 0x28, 0x00, 0x00, 0x00, 0x48, 0x00, 0x00, 0x00, 0x14, 0x00, 0x00, 0x00, 0x00, 0x00, 0x00, 0x09, 0xd0, 0x00, 0x00, 0x00, 0x04, 0x00, 0x00, 0x00, 0xff, 0xff, 0xff, 0xff, 0x2f, 0x00, 0x00, 0x00, 0x2f, 0x00, 0x00, 0x00, 0x0c, 0x00, 0x00, 0x00, 0x5c, 0xf7, 0xff, 0xff, 0x08, 0x00, 0x00, 0x00, 0x14, 0x00, 0x00, 0x00, 0x01, 0x00, 0x00, 0x00, 0x80, 0xff, 0xff, 0xff, 0xff, 0xff, 0xff, 0xff, 0x00, 0x00, 0x00, 0x00, 0x01, 0x00, 0x00, 0x00, 0xcd, 0x51, 0x39, 0x3b, 0x8c, 0x00, 0x00, 0x00, 0x66, 0x75, 0x6e, 0x63, 0x74, 0x69, 0x6f, 0x6e, 0x61, 0x6c, 0x5f, 0x32, 0x5f, 0x31, 0x2f, 0x63, 0x6f, 0x6e, 0x76, 0x32, 0x64, 0x5f, 0x31, 0x31, 0x5f, 0x31, 0x2f, 0x52, 0x65, 0x6c, 0x75, 0x3b, 0x66, 0x75, 0x6e, 0x63, 0x74, 0x69, 0x6f, 0x6e, 0x61, 0x6c, 0x5f, 0x32, 0x5f, 0x31, 0x2f, 0x63, 0x6f, 0x6e, 0x76, 0x32, 0x64, 0x5f, 0x31, 0x31, 0x5f, 0x31, 0x2f, 0x42, 0x69, 0x61, 0x73, 0x41, 0x64, 0x64, 0x3b, 0x66, 0x75, 0x6e, 0x63, 0x74, 0x69, 0x6f, 0x6e, 0x61, 0x6c, 0x5f, 0x32, 0x5f, 0x31, 0x2f, 0x63, 0x6f, 0x6e, 0x76, 0x32, 0x64, 0x5f, 0x31, 0x31, 0x5f, 0x31, 0x2f, 0x63, 0x6f, 0x6e, 0x76, 0x6f, 0x6c, 0x75, 0x74, 0x69, 0x6f, 0x6e, 0x3b, 0x66, 0x75, 0x6e, 0x63, 0x74, 0x69, 0x6f, 0x6e, 0x61, 0x6c, 0x5f, 0x32, 0x5f, 0x31, 0x2f, 0x63, 0x6f, 0x6e, 0x76, 0x32, 0x64, 0x5f, 0x31, 0x31, 0x5f, 0x31, 0x2f, 0x53, 0x71, 0x75, 0x65, 0x65, 0x7a, 0x65, 0x00, 0x00, 0x00, 0x00, 0x04, 0x00, 0x00, 0x00, 0x01, 0x00, 0x00, 0x00, 0x2f, 0x00, 0x00, 0x00, 0x2f, 0x00, 0x00, 0x00, 0x0c, 0x00, 0x00, 0x00, 0x72, 0xf8, 0xff, 0xff, 0x00, 0x00, 0x00, 0x01, 0x18, 0x00, 0x00, 0x00, 0x28, 0x00, 0x00, 0x00, 0x48, 0x00, 0x00, 0x00, 0x13, 0x00, 0x00, 0x00, 0x00, 0x00, 0x00, 0x09, 0xd0, 0x00, 0x00, 0x00, 0x04, 0x00, 0x00, 0x00, 0xff, 0xff, 0xff, 0xff, 0x2f, 0x00, 0x00, 0x00, 0x2f, 0x00, 0x00, 0x00, 0x0c, 0x00, 0x00, 0x00, 0x5c, 0xf8, 0xff, 0xff, 0x08, 0x00, 0x00, 0x00, 0x14, 0x00, 0x00, 0x00, 0x01, 0x00, 0x00, 0x00, 0x80, 0xff, 0xff, 0xff, 0xff, 0xff, 0xff, 0xff, 0x00, 0x00, 0x00, 0x00, 0x01, 0x00, 0x00, 0x00, 0xa0, 0x0e, 0xa0, 0x3b, 0x8d, 0x00, 0x00, 0x00, 0x66, 0x75, 0x6e, 0x63, 0x74, 0x69, 0x6f, 0x6e, 0x61, 0x6c, 0x5f, 0x32, 0x5f, 0x31, 0x2f, 0x63, 0x6f, 0x6e, 0x76, 0x32, 0x64, 0x5f, 0x31, 0x30, 0x5f, 0x31, 0x2f, 0x52, 0x65, 0x6c, 0x75, 0x3b, 0x66, 0x75, 0x6e, 0x63, 0x74, 0x69, 0x6f, 0x6e, 0x61, 0x6c, 0x5f, 0x32, 0x5f, 0x31, 0x2f, 0x63, 0x6f, 0x6e, 0x76, 0x32, 0x64, 0x5f, 0x31, 0x30, 0x5f, 0x31, 0x2f, 0x42, 0x69, 0x61, 0x73, 0x41, 0x64, 0x64, 0x3b, 0x66, 0x75, 0x6e, 0x63, 0x74, 0x69, 0x6f, 0x6e, 0x61, 0x6c, 0x5f, 0x32, 0x5f, 0x31, 0x2f, 0x63, 0x6f, 0x6e, 0x76, 0x32, 0x64, 0x5f, 0x31, 0x30, 0x5f, 0x31, 0x2f, 0x63, 0x6f, 0x6e, 0x76, 0x6f, 0x6c, 0x75, 0x74, 0x69, 0x6f, 0x6e, 0x3b, 0x66, 0x75, 0x6e, 0x63, 0x74, 0x69, 0x6f, 0x6e, 0x61, 0x6c, 0x5f, 0x32, 0x5f, 0x31, 0x2f, 0x63, 0x6f, 0x6e, 0x76, 0x32, 0x64, 0x5f, 0x31, 0x30, 0x5f, 0x31, 0x2f, 0x53, 0x71, 0x75, 0x65, 0x65, 0x7a, 0x65, 0x31, 0x00, 0x00, 0x00, 0x04, 0x00, 0x00, 0x00, 0x01, 0x00, 0x00, 0x00, 0x2f, 0x00, 0x00, 0x00, 0x2f, 0x00, 0x00, 0x00, 0x0c, 0x00, 0x00, 0x00, 0xca, 0xf9, 0xff, 0xff, 0x00, 0x00, 0x00, 0x01, 0x14, 0x00, 0x00, 0x00, 0x30, 0x00, 0x00, 0x00, 0x12, 0x00, 0x00, 0x00, 0x00, 0x00, 0x00, 0x09, 0x3c, 0x00, 0x00, 0x00, 0x44, 0xf9, 0xff, 0xff, 0x08, 0x00, 0x00, 0x00, 0x10, 0x00, 0x00, 0x00, 0x01, 0x00, 0x00, 0x00, 0x00, 0x00, 0x00, 0x00, 0x00, 0x00, 0x00, 0x00, 0x01, 0x00, 0x00, 0x00, 0x37, 0x64, 0xfb, 0x3b, 0x13, 0x00, 0x00, 0x00, 0x74, 0x66, 0x6c, 0x2e, 0x70, 0x73, 0x65, 0x75, 0x64, 0x6f, 0x5f, 0x71, 0x63, 0x6f, 0x6e, 0x73, 0x74, 0x31, 0x35, 0x00, 0x04, 0x00, 0x00, 0x00, 0x0c, 0x00, 0x00, 0x00, 0x03, 0x00, 0x00, 0x00, 0x03, 0x00, 0x00, 0x00, 0x01, 0x00, 0x00, 0x00, 0x32, 0xfa, 0xff, 0xff, 0x00, 0x00, 0x00, 0x01, 0x14, 0x00, 0x00, 0x00, 0x34, 0x00, 0x00, 0x00, 0x11, 0x00, 0x00, 0x00, 0x00, 0x00, 0x00, 0x02, 0x40, 0x00, 0x00, 0x00, 0xac, 0xf9, 0xff, 0xff, 0x08, 0x00, 0x00, 0x00, 0x14, 0x00, 0x00, 0x00, 0x01, 0x00, 0x00, 0x00, 0x00, 0x00, 0x00, 0x00, 0x00, 0x00, 0x00, 0x00, 0x00, 0x00, 0x00, 0x00, 0x01, 0x00, 0x00, 0x00, 0x99, 0x60, 0xfc, 0x37, 0x13, 0x00, 0x00, 0x00, 0x74, 0x66, 0x6c, 0x2e, 0x70, 0x73, 0x65, 0x75, 0x64, 0x6f, 0x5f, 0x71, 0x63, 0x6f, 0x6e, 0x73, 0x74, 0x31, 0x34, 0x00, 0x01, 0x00, 0x00, 0x00, 0x0c, 0x00, 0x00, 0x00, 0x92, 0xfa, 0xff, 0xff, 0x00, 0x00, 0x00, 0x01, 0x14, 0x00, 0x00, 0x00, 0x30, 0x00, 0x00, 0x00, 0x10, 0x00, 0x00, 0x00, 0x00, 0x00, 0x00, 0x09, 0x3c, 0x00, 0x00, 0x00, 0x0c, 0xfa, 0xff, 0xff, 0x08, 0x00, 0x00, 0x00, 0x10, 0x00, 0x00, 0x00, 0x01, 0x00, 0x00, 0x00, 0x00, 0x00, 0x00, 0x00, 0x00, 0x00, 0x00, 0x00, 0x01, 0x00, 0x00, 0x00, 0x2f, 0x40, 0x23, 0x3c, 0x13, 0x00, 0x00, 0x00, 0x74, 0x66, 0x6c, 0x2e, 0x70, 0x73, 0x65, 0x75, 0x64, 0x6f, 0x5f, 0x71, 0x63, 0x6f, 0x6e, 0x73, 0x74, 0x31, 0x33, 0x00, 0x04, 0x00, 0x00, 0x00, 0x0c, 0x00, 0x00, 0x00, 0x01, 0x00, 0x00, 0x00, 0x01, 0x00, 0x00, 0x00, 0x0c, 0x00, 0x00, 0x00, 0xfa, 0xfa, 0xff, 0xff, 0x00, 0x00, 0x00, 0x01, 0x14, 0x00, 0x00, 0x00, 0x34, 0x00, 0x00, 0x00, 0x0f, 0x00, 0x00, 0x00, 0x00, 0x00, 0x00, 0x02, 0x40, 0x00, 0x00, 0x00, 0x74, 0xfa, 0xff, 0xff, 0x08, 0x00, 0x00, 0x00, 0x14, 0x00, 0x00, 0x00, 0x01, 0x00, 0x00, 0x00, 0x00, 0x00, 0x00, 0x00, 0x00, 0x00, 0x00, 0x00, 0x00, 0x00, 0x00, 0x00, 0x01, 0x00, 0x00, 0x00, 0xe2, 0x22, 0x4c, 0x38, 0x13, 0x00, 0x00, 0x00, 0x74, 0x66, 0x6c, 0x2e, 0x70, 0x73, 0x65, 0x75, 0x64, 0x6f, 0x5f, 0x71, 0x63, 0x6f, 0x6e, 0x73, 0x74, 0x31, 0x32, 0x00, 0x01, 0x00, 0x00, 0x00, 0x0c, 0x00, 0x00, 0x00, 0x5a, 0xfb, 0xff, 0xff, 0x00, 0x00, 0x00, 0x01, 0x14, 0x00, 0x00, 0x00, 0x30, 0x00, 0x00, 0x00, 0x0e, 0x00, 0x00, 0x00, 0x00, 0x00, 0x00, 0x09, 0x3c, 0x00, 0x00, 0x00, 0xd4, 0xfa, 0xff, 0xff, 0x08, 0x00, 0x00, 0x00, 0x10, 0x00, 0x00, 0x00, 0x01, 0x00, 0x00, 0x00, 0x00, 0x00, 0x00, 0x00, 0x00, 0x00, 0x00, 0x00, 0x01, 0x00, 0x00, 0x00, 0x0d, 0x17, 0xdc, 0x3b, 0x13, 0x00, 0x00, 0x00, 0x74, 0x66, 0x6c, 0x2e, 0x70, 0x73, 0x65, 0x75, 0x64, 0x6f, 0x5f, 0x71, 0x63, 0x6f, 0x6e, 0x73, 0x74, 0x31, 0x31, 0x00, 0x04, 0x00, 0x00, 0x00, 0x01, 0x00, 0x00, 0x00, 0x03, 0x00, 0x00, 0x00, 0x03, 0x00, 0x00, 0x00, 0x0c, 0x00, 0x00, 0x00, 0xc2, 0xfb, 0xff, 0xff, 0x00, 0x00, 0x00, 0x01, 0x14, 0x00, 0x00, 0x00, 0x34, 0x00, 0x00, 0x00, 0x0d, 0x00, 0x00, 0x00, 0x00, 0x00, 0x00, 0x02, 0x40, 0x00, 0x00, 0x00, 0x3c, 0xfb, 0xff, 0xff, 0x08, 0x00, 0x00, 0x00, 0x14, 0x00, 0x00, 0x00, 0x01, 0x00, 0x00, 0x00, 0x00, 0x00, 0x00, 0x00, 0x00, 0x00, 0x00, 0x00, 0x00, 0x00, 0x00, 0x00, 0x01, 0x00, 0x00, 0x00, 0xfc, 0x52, 0x9f, 0x37, 0x13, 0x00, 0x00, 0x00, 0x74, 0x66, 0x6c, 0x2e, 0x70, 0x73, 0x65, 0x75, 0x64, 0x6f, 0x5f, 0x71, 0x63, 0x6f, 0x6e, 0x73, 0x74, 0x31, 0x30, 0x00, 0x01, 0x00, 0x00, 0x00, 0x0c, 0x00, 0x00, 0x00, 0x22, 0xfc, 0xff, 0xff, 0x00, 0x00, 0x00, 0x01, 0x14, 0x00, 0x00, 0x00, 0x30, 0x00, 0x00, 0x00, 0x0c, 0x00, 0x00, 0x00, 0x00, 0x00, 0x00, 0x09, 0x3c, 0x00, 0x00, 0x00, 0x9c, 0xfb, 0xff, 0xff, 0x08, 0x00, 0x00, 0x00, 0x10, 0x00, 0x00, 0x00, 0x01, 0x00, 0x00, 0x00, 0x00, 0x00, 0x00, 0x00, 0x00, 0x00, 0x00, 0x00, 0x01, 0x00, 0x00, 0x00, 0xab, 0x64, 0xee, 0x3b, 0x12, 0x00, 0x00, 0x00, 0x74, 0x66, 0x6c, 0x2e, 0x70, 0x73, 0x65, 0x75, 0x64, 0x6f, 0x5f, 0x71, 0x63, 0x6f, 0x6e, 0x73, 0x74, 0x39, 0x00, 0x00, 0x04, 0x00, 0x00, 0x00, 0x18, 0x00, 0x00, 0x00, 0x03, 0x00, 0x00, 0x00, 0x03, 0x00, 0x00, 0x00, 0x0c, 0x00, 0x00, 0x00, 0x8a, 0xfc, 0xff, 0xff, 0x00, 0x00, 0x00, 0x01, 0x14, 0x00, 0x00, 0x00, 0x34, 0x00, 0x00, 0x00, 0x0b, 0x00, 0x00, 0x00, 0x00, 0x00, 0x00, 0x02, 0x40, 0x00, 0x00, 0x00, 0x04, 0xfc, 0xff, 0xff, 0x08, 0x00, 0x00, 0x00, 0x14, 0x00, 0x00, 0x00, 0x01, 0x00, 0x00, 0x00, 0x00, 0x00, 0x00, 0x00, 0x00, 0x00, 0x00, 0x00, 0x00, 0x00, 0x00, 0x00, 0x01, 0x00, 0x00, 0x00, 0x31, 0xa1, 0x2a, 0x38, 0x12, 0x00, 0x00, 0x00, 0x74, 0x66, 0x6c, 0x2e, 0x70, 0x73, 0x65, 0x75, 0x64, 0x6f, 0x5f, 0x71, 0x63, 0x6f, 0x6e, 0x73, 0x74, 0x38, 0x00, 0x00, 0x01, 0x00, 0x00, 0x00, 0x18, 0x00, 0x00, 0x00, 0xea, 0xfc, 0xff, 0xff, 0x00, 0x00, 0x00, 0x01, 0x14, 0x00, 0x00, 0x00, 0x30, 0x00, 0x00, 0x00, 0x0a, 0x00, 0x00, 0x00, 0x00, 0x00, 0x00, 0x09, 0x3c, 0x00, 0x00, 0x00, 0x64, 0xfc, 0xff, 0xff, 0x08, 0x00, 0x00, 0x00, 0x10, 0x00, 0x00, 0x00, 0x01, 0x00, 0x00, 0x00, 0x00, 0x00, 0x00, 0x00, 0x00, 0x00, 0x00, 0x00, 0x01, 0x00, 0x00, 0x00, 0xe8, 0x41, 0xdf, 0x3b, 0x12, 0x00, 0x00, 0x00, 0x74, 0x66, 0x6c, 0x2e, 0x70, 0x73, 0x65, 0x75, 0x64, 0x6f, 0x5f, 0x71, 0x63, 0x6f, 0x6e, 0x73, 0x74, 0x37, 0x00, 0x00, 0x04, 0x00, 0x00, 0x00, 0x10, 0x00, 0x00, 0x00, 0x01, 0x00, 0x00, 0x00, 0x01, 0x00, 0x00, 0x00, 0x18, 0x00, 0x00, 0x00, 0x52, 0xfd, 0xff, 0xff, 0x00, 0x00, 0x00, 0x01, 0x14, 0x00, 0x00, 0x00, 0x34, 0x00, 0x00, 0x00, 0x09, 0x00, 0x00, 0x00, 0x00, 0x00, 0x00, 0x02, 0x40, 0x00, 0x00, 0x00, 0xcc, 0xfc, 0xff, 0xff, 0x08, 0x00, 0x00, 0x00, 0x14, 0x00, 0x00, 0x00, 0x01, 0x00, 0x00, 0x00, 0x00, 0x00, 0x00, 0x00, 0x00, 0x00, 0x00, 0x00, 0x00, 0x00, 0x00, 0x00, 0x01, 0x00, 0x00, 0x00, 0x09, 0x12, 0x14, 0x39, 0x12, 0x00, 0x00, 0x00, 0x74, 0x66, 0x6c, 0x2e, 0x70, 0x73, 0x65, 0x75, 0x64, 0x6f, 0x5f, 0x71, 0x63, 0x6f, 0x6e, 0x73, 0x74, 0x36, 0x00, 0x00, 0x01, 0x00, 0x00, 0x00, 0x10, 0x00, 0x00, 0x00, 0xb2, 0xfd, 0xff, 0xff, 0x00, 0x00, 0x00, 0x01, 0x14, 0x00, 0x00, 0x00, 0x30, 0x00, 0x00, 0x00, 0x08, 0x00, 0x00, 0x00, 0x00, 0x00, 0x00, 0x09, 0x3c, 0x00, 0x00, 0x00, 0x2c, 0xfd, 0xff, 0xff, 0x08, 0x00, 0x00, 0x00, 0x10, 0x00, 0x00, 0x00, 0x01, 0x00, 0x00, 0x00, 0x00, 0x00, 0x00, 0x00, 0x00, 0x00, 0x00, 0x00, 0x01, 0x00, 0x00, 0x00, 0xf9, 0x11, 0xf7, 0x3b, 0x12, 0x00, 0x00, 0x00, 0x74, 0x66, 0x6c, 0x2e, 0x70, 0x73, 0x65, 0x75, 0x64, 0x6f, 0x5f, 0x71, 0x63, 0x6f, 0x6e, 0x73, 0x74, 0x35, 0x00, 0x00, 0x04, 0x00, 0x00, 0x00, 0x01, 0x00, 0x00, 0x00, 0x03, 0x00, 0x00, 0x00, 0x03, 0x00, 0x00, 0x00, 0x10, 0x00, 0x00, 0x00, 0x1a, 0xfe, 0xff, 0xff, 0x00, 0x00, 0x00, 0x01, 0x14, 0x00, 0x00, 0x00, 0x34, 0x00, 0x00, 0x00, 0x07, 0x00, 0x00, 0x00, 0x00, 0x00, 0x00, 0x02, 0x40, 0x00, 0x00, 0x00, 0x94, 0xfd, 0xff, 0xff, 0x08, 0x00, 0x00, 0x00, 0x14, 0x00, 0x00, 0x00, 0x01, 0x00, 0x00, 0x00, 0x00, 0x00, 0x00, 0x00, 0x00, 0x00, 0x00, 0x00, 0x00, 0x00, 0x00, 0x00, 0x01, 0x00, 0x00, 0x00, 0x03, 0x1f, 0x58, 0x39, 0x12, 0x00, 0x00, 0x00, 0x74, 0x66, 0x6c, 0x2e, 0x70, 0x73, 0x65, 0x75, 0x64, 0x6f, 0x5f, 0x71, 0x63, 0x6f, 0x6e, 0x73, 0x74, 0x34, 0x00, 0x00, 0x01, 0x00, 0x00, 0x00, 0x10, 0x00, 0x00, 0x00, 0x7a, 0xfe, 0xff, 0xff, 0x00, 0x00, 0x00, 0x01, 0x14, 0x00, 0x00, 0x00, 0x30, 0x00, 0x00, 0x00, 0x06, 0x00, 0x00, 0x00, 0x00, 0x00, 0x00, 0x09, 0x3c, 0x00, 0x00, 0x00, 0xf4, 0xfd, 0xff, 0xff, 0x08, 0x00, 0x00, 0x00, 0x10, 0x00, 0x00, 0x00, 0x01, 0x00, 0x00, 0x00, 0x00, 0x00, 0x00, 0x00, 0x00, 0x00, 0x00, 0x00, 0x01, 0x00, 0x00, 0x00, 0x03, 0xc5, 0x8e, 0x3b, 0x12, 0x00, 0x00, 0x00, 0x74, 0x66, 0x6c, 0x2e, 0x70, 0x73, 0x65, 0x75, 0x64, 0x6f, 0x5f, 0x71, 0x63, 0x6f, 0x6e, 0x73, 0x74, 0x33, 0x00, 0x00, 0x04, 0x00, 0x00, 0x00, 0x20, 0x00, 0x00, 0x00, 0x03, 0x00, 0x00, 0x00, 0x03, 0x00, 0x00, 0x00, 0x10, 0x00, 0x00, 0x00, 0xe2, 0xfe, 0xff, 0xff, 0x00, 0x00, 0x00, 0x01, 0x14, 0x00, 0x00, 0x00, 0x34, 0x00, 0x00, 0x00, 0x05, 0x00, 0x00, 0x00, 0x00, 0x00, 0x00, 0x02, 0x40, 0x00, 0x00, 0x00, 0x5c, 0xfe, 0xff, 0xff, 0x08, 0x00, 0x00, 0x00, 0x14, 0x00, 0x00, 0x00, 0x01, 0x00, 0x00, 0x00, 0x00, 0x00, 0x00, 0x00, 0x00, 0x00, 0x00, 0x00, 0x00, 0x00, 0x00, 0x00, 0x01, 0x00, 0x00, 0x00, 0xd0, 0x83, 0x35, 0x39, 0x12, 0x00, 0x00, 0x00, 0x74, 0x66, 0x6c, 0x2e, 0x70, 0x73, 0x65, 0x75, 0x64, 0x6f, 0x5f, 0x71, 0x63, 0x6f, 0x6e, 0x73, 0x74, 0x32, 0x00, 0x00, 0x01, 0x00, 0x00, 0x00, 0x20, 0x00, 0x00, 0x00, 0x42, 0xff, 0xff, 0xff, 0x00, 0x00, 0x00, 0x01, 0x14, 0x00, 0x00, 0x00, 0x30, 0x00, 0x00, 0x00, 0x04, 0x00, 0x00, 0x00, 0x00, 0x00, 0x00, 0x09, 0x3c, 0x00, 0x00, 0x00, 0xbc, 0xfe, 0xff, 0xff, 0x08, 0x00, 0x00, 0x00, 0x10, 0x00, 0x00, 0x00, 0x01, 0x00, 0x00, 0x00, 0x00, 0x00, 0x00, 0x00, 0x00, 0x00, 0x00, 0x00, 0x01, 0x00, 0x00, 0x00, 0x2f, 0x21, 0xd6, 0x3b, 0x12, 0x00, 0x00, 0x00, 0x74, 0x66, 0x6c, 0x2e, 0x70, 0x73, 0x65, 0x75, 0x64, 0x6f, 0x5f, 0x71, 0x63, 0x6f, 0x6e, 0x73, 0x74, 0x31, 0x00, 0x00, 0x02, 0x00, 0x00, 0x00, 0x04, 0x00, 0x00, 0x00, 0x20, 0x00, 0x00, 0x00, 0xa2, 0xff, 0xff, 0xff, 0x00, 0x00, 0x00, 0x01, 0x14, 0x00, 0x00, 0x00, 0x30, 0x00, 0x00, 0x00, 0x03, 0x00, 0x00, 0x00, 0x00, 0x00, 0x00, 0x02, 0x3c, 0x00, 0x00, 0x00, 0x1c, 0xff, 0xff, 0xff, 0x08, 0x00, 0x00, 0x00, 0x10, 0x00, 0x00, 0x00, 0x01, 0x00, 0x00, 0x00, 0x00, 0x00, 0x00, 0x00, 0x00, 0x00, 0x00, 0x00, 0x01, 0x00, 0x00, 0x00, 0x37, 0x09, 0x4e, 0x39, 0x11, 0x00, 0x00, 0x00, 0x74, 0x66, 0x6c, 0x2e, 0x70, 0x73, 0x65, 0x75, 0x64, 0x6f, 0x5f, 0x71, 0x63, 0x6f, 0x6e, 0x73, 0x74, 0x00, 0x00, 0x00, 0x01, 0x00, 0x00, 0x00, 0x04, 0x00, 0x00, 0x00, 0x00, 0x00, 0x16, 0x00, 0x1c, 0x00, 0x18, 0x00, 0x17, 0x00, 0x10, 0x00, 0x0c, 0x00, 0x08, 0x00, 0x00, 0x00, 0x00, 0x00, 0x00, 0x00, 0x07, 0x00, 0x16, 0x00, 0x00, 0x00, 0x00, 0x00, 0x00, 0x01, 0x18, 0x00, 0x00, 0x00, 0x18, 0x00, 0x00, 0x00, 0x02, 0x00, 0x00, 0x00, 0x00, 0x00, 0x00, 0x02, 0x20, 0x00, 0x00, 0x00, 0x04, 0x00, 0x04, 0x00, 0x04, 0x00, 0x00, 0x00, 0x0e, 0x00, 0x00, 0x00, 0x61, 0x72, 0x69, 0x74, 0x68, 0x2e, 0x63, 0x6f, 0x6e, 0x73, 0x74, 0x61, 0x6e, 0x74, 0x00, 0x00, 0x01, 0x00, 0x00, 0x00, 0x02, 0x00, 0x00, 0x00, 0x00, 0x00, 0x16, 0x00, 0x20, 0x00, 0x1c, 0x00, 0x1b, 0x00, 0x14, 0x00, 0x10, 0x00, 0x0c, 0x00, 0x00, 0x00, 0x00, 0x00, 0x08, 0x00, 0x07, 0x00, 0x16, 0x00, 0x00, 0x00, 0x00, 0x00, 0x00, 0x01, 0x18, 0x00, 0x00, 0x00, 0x34, 0x00, 0x00, 0x00, 0x50, 0x00, 0x00, 0x00, 0x01, 0x00, 0x00, 0x00, 0x00, 0x00, 0x00, 0x09, 0x6c, 0x00, 0x00, 0x00, 0x04, 0x00, 0x00, 0x00, 0xff, 0xff, 0xff, 0xff, 0x60, 0x00, 0x00, 0x00, 0x60, 0x00, 0x00, 0x00, 0x01, 0x00, 0x00, 0x00, 0x0c, 0x00, 0x0c, 0x00, 0x00, 0x00, 0x00, 0x00, 0x08, 0x00, 0x04, 0x00, 0x0c, 0x00, 0x00, 0x00, 0x08, 0x00, 0x00, 0x00, 0x10, 0x00, 0x00, 0x00, 0x01, 0x00, 0x00, 0x00, 0x80, 0xff, 0xff, 0xff, 0xff, 0xff, 0xff, 0xff, 0x01, 0x00, 0x00, 0x00, 0x81, 0x80, 0x80, 0x3b, 0x21, 0x00, 0x00, 0x00, 0x73, 0x65, 0x72, 0x76, 0x69, 0x6e, 0x67, 0x5f, 0x64, 0x65, 0x66, 0x61, 0x75, 0x6c, 0x74, 0x5f, 0x6b, 0x65, 0x72, 0x61, 0x73, 0x5f, 0x74, 0x65, 0x6e, 0x73, 0x6f, 0x72, 0x5f, 0x32, 0x39, 0x3a, 0x30, 0x00, 0x00, 0x00, 0x04, 0x00, 0x00, 0x00, 0x01, 0x00, 0x00, 0x00, 0x60, 0x00, 0x00, 0x00, 0x60, 0x00, 0x00, 0x00, 0x01, 0x00, 0x00, 0x00, 0x06, 0x00, 0x00, 0x00, 0x80, 0x00, 0x00, 0x00, 0x60, 0x00, 0x00, 0x00, 0x54, 0x00, 0x00, 0x00, 0x38, 0x00, 0x00, 0x00, 0x18, 0x00, 0x00, 0x00, 0x04, 0x00, 0x00, 0x00, 0xa4, 0xff, 0xff, 0xff, 0x19, 0x00, 0x00, 0x00, 0x02, 0x00, 0x00, 0x00, 0x00, 0x00, 0x00, 0x19, 0xb4, 0xff, 0xff, 0xff, 0x09, 0x00, 0x00, 0x00, 0x04, 0x00, 0x00, 0x00, 0x00, 0x00, 0x00, 0x09, 0x0c, 0x00, 0x0e, 0x00, 0x0d, 0x00, 0x00, 0x00, 0x08, 0x00, 0x04, 0x00, 0x0c, 0x00, 0x00, 0x00, 0x28, 0x00, 0x00, 0x00, 0x02, 0x00, 0x00, 0x00, 0x00, 0x28, 0x0a, 0x00, 0x08, 0x00, 0x00, 0x00, 0x00, 0x00, 0x04, 0x00, 0x0a, 0x00, 0x00, 0x00, 0x02, 0x00, 0x00, 0x00, 0xf0, 0xff, 0xff, 0xff, 0x04, 0x00, 0x00, 0x00, 0x03, 0x00, 0x00, 0x00, 0x00, 0x00, 0x00, 0x04, 0x0c, 0x00, 0x10, 0x00, 0x0f, 0x00, 0x00, 0x00, 0x08, 0x00, 0x04, 0x00, 0x0c, 0x00, 0x00, 0x00, 0x03, 0x00, 0x00, 0x00, 0x03, 0x00, 0x00, 0x00, 0x00, 0x00, 0x00, 0x03
};

const unsigned int B6101_GhostNet_model_len = 15152;
