const unsigned char B6114_MCUNet_model[] = {
0x20, 0x00, 0x00, 0x00, 0x54, 0x46, 0x4c, 0x33, 0x00, 0x00, 0x00, 0x00, 0x14, 0x00, 0x20, 0x00, 0x1c, 0x00, 0x18, 0x00, 0x14, 0x00, 0x10, 0x00, 0x0c, 0x00, 0x00, 0x00, 0x08, 0x00, 0x04, 0x00, 0x14, 0x00, 0x00, 0x00, 0x1c, 0x00, 0x00, 0x00, 0x98, 0x00, 0x00, 0x00, 0x18, 0x01, 0x00, 0x00, 0xc8, 0x0c, 0x00, 0x00, 0xd8, 0x0c, 0x00, 0x00, 0xc4, 0x1f, 0x00, 0x00, 0x03, 0x00, 0x00, 0x00, 0x01, 0x00, 0x00, 0x00, 0x10, 0x00, 0x00, 0x00, 0x00, 0x00, 0x0a, 0x00, 0x10, 0x00, 0x0c, 0x00, 0x08, 0x00, 0x04, 0x00, 0x0a, 0x00, 0x00, 0x00, 0x0c, 0x00, 0x00, 0x00, 0x1c, 0x00, 0x00, 0x00, 0x3c, 0x00, 0x00, 0x00, 0x0f, 0x00, 0x00, 0x00, 0x73, 0x65, 0x72, 0x76, 0x69, 0x6e, 0x67, 0x5f, 0x64, 0x65, 0x66, 0x61, 0x75, 0x6c, 0x74, 0x00, 0x01, 0x00, 0x00, 0x00, 0x04, 0x00, 0x00, 0x00, 0x68, 0xff, 0xff, 0xff, 0x1b, 0x00, 0x00, 0x00, 0x04, 0x00, 0x00, 0x00, 0x08, 0x00, 0x00, 0x00, 0x6f, 0x75, 0x74, 0x70, 0x75, 0x74, 0x5f, 0x30, 0x00, 0x00, 0x00, 0x00, 0x01, 0x00, 0x00, 0x00, 0x04, 0x00, 0x00, 0x00, 0x06, 0xf3, 0xff, 0xff, 0x04, 0x00, 0x00, 0x00, 0x0c, 0x00, 0x00, 0x00, 0x6b, 0x65, 0x72, 0x61, 0x73, 0x5f, 0x74, 0x65, 0x6e, 0x73, 0x6f, 0x72, 0x00, 0x00, 0x00, 0x00, 0x03, 0x00, 0x00, 0x00, 0x5c, 0x00, 0x00, 0x00, 0x2c, 0x00, 0x00, 0x00, 0x04, 0x00, 0x00, 0x00, 0xb8, 0xff, 0xff, 0xff, 0x1f, 0x00, 0x00, 0x00, 0x04, 0x00, 0x00, 0x00, 0x13, 0x00, 0x00, 0x00, 0x43, 0x4f, 0x4e, 0x56, 0x45, 0x52, 0x53, 0x49, 0x4f, 0x4e, 0x5f, 0x4d, 0x45, 0x54, 0x41, 0x44, 0x41, 0x54, 0x41, 0x00, 0xdc, 0xff, 0xff, 0xff, 0x1e, 0x00, 0x00, 0x00, 0x04, 0x00, 0x00, 0x00, 0x13, 0x00, 0x00, 0x00, 0x6d, 0x69, 0x6e, 0x5f, 0x72, 0x75, 0x6e, 0x74, 0x69, 0x6d, 0x65, 0x5f, 0x76, 0x65, 0x72, 0x73, 0x69, 0x6f, 0x6e, 0x00, 0x08, 0x00, 0x0c, 0x00, 0x08, 0x00, 0x04, 0x00, 0x08, 0x00, 0x00, 0x00, 0x1d, 0x00, 0x00, 0x00, 0x04, 0x00, 0x00, 0x00, 0x13, 0x00, 0x00, 0x00, 0x6d, 0x69, 0x6e, 0x5f, 0x72, 0x75, 0x6e, 0x74, 0x69, 0x6d, 0x65, 0x5f, 0x76, 0x65, 0x72, 0x73, 0x69, 0x6f, 0x6e, 0x00, 0x20, 0x00, 0x00, 0x00, 0xac, 0x0b, 0x00, 0x00, 0xa4, 0x0b, 0x00, 0x00, 0x8c, 0x0b, 0x00, 0x00, 0x6c, 0x0b, 0x00, 0x00, 0xdc, 0x0a, 0x00, 0x00, 0x4c, 0x0a, 0x00, 0x00, 0x3c, 0x07, 0x00, 0x00, 0xcc, 0x06, 0x00, 0x00, 0xe4, 0x05, 0x00, 0x00, 0x74, 0x05, 0x00, 0x00, 0xe4, 0x03, 0x00, 0x00, 0x94, 0x03, 0x00, 0x00, 0xf4, 0x02, 0x00, 0x00, 0xa4, 0x02, 0x00, 0x00, 0x14, 0x02, 0x00, 0x00, 0xe4, 0x01, 0x00, 0x00, 0x8c, 0x01, 0x00, 0x00, 0x5c, 0x01, 0x00, 0x00, 0x04, 0x01, 0x00, 0x00, 0xfc, 0x00, 0x00, 0x00, 0xf4, 0x00, 0x00, 0x00, 0xec, 0x00, 0x00, 0x00, 0xe4, 0x00, 0x00, 0x00, 0xdc, 0x00, 0x00, 0x00, 0xd4, 0x00, 0x00, 0x00, 0xcc, 0x00, 0x00, 0x00, 0xc4, 0x00, 0x00, 0x00, 0xbc, 0x00, 0x00, 0x00, 0xb4, 0x00, 0x00, 0x00, 0x94, 0x00, 0x00, 0x00, 0x74, 0x00, 0x00, 0x00, 0x04, 0x00, 0x00, 0x00, 0x2a, 0xf4, 0xff, 0xff, 0x04, 0x00, 0x00, 0x00, 0x60, 0x00, 0x00, 0x00, 0x0c, 0x00, 0x00, 0x00, 0x08, 0x00, 0x0e, 0x00, 0x08, 0x00, 0x04, 0x00, 0x08, 0x00, 0x00, 0x00, 0x10, 0x00, 0x00, 0x00, 0x28, 0x00, 0x00, 0x00, 0x00, 0x00, 0x06, 0x00, 0x08, 0x00, 0x04, 0x00, 0x06, 0x00, 0x00, 0x00, 0x04, 0x00, 0x00, 0x00, 0x01, 0x00, 0x00, 0x00, 0xeb, 0x03, 0x00, 0x00, 0x0c, 0x00, 0x18, 0x00, 0x14, 0x00, 0x10, 0x00, 0x0c, 0x00, 0x04, 0x00, 0x0c, 0x00, 0x00, 0x00, 0x41, 0x0d, 0x90, 0xfa, 0xed, 0xac, 0x86, 0x87, 0x02, 0x00, 0x00, 0x00, 0x02, 0x00, 0x00, 0x00, 0x04, 0x00, 0x00, 0x00, 0x06, 0x00, 0x00, 0x00, 0x32, 0x2e, 0x31, 0x39, 0x2e, 0x30, 0x00, 0x00, 0x96, 0xf4, 0xff, 0xff, 0x04, 0x00, 0x00, 0x00, 0x10, 0x00, 0x00, 0x00, 0x00, 0x00, 0x00, 0x00, 0x00, 0x00, 0x00, 0x00, 0x00, 0x00, 0x00, 0x00, 0x00, 0x00, 0x00, 0x00, 0xb2, 0xf4, 0xff, 0xff, 0x04, 0x00, 0x00, 0x00, 0x10, 0x00, 0x00, 0x00, 0x31, 0x2e, 0x31, 0x34, 0x2e, 0x30, 0x00, 0x00, 0x00, 0x00, 0x00, 0x00, 0x00, 0x00, 0x00, 0x00, 0x48, 0xe3, 0xff, 0xff, 0x4c, 0xe3, 0xff, 0xff, 0x50, 0xe3, 0xff, 0xff, 0x54, 0xe3, 0xff, 0xff, 0x58, 0xe3, 0xff, 0xff, 0x5c, 0xe3, 0xff, 0xff, 0x60, 0xe3, 0xff, 0xff, 0x64, 0xe3, 0xff, 0xff, 0x68, 0xe3, 0xff, 0xff, 0x6c, 0xe3, 0xff, 0xff, 0xf6, 0xf4, 0xff, 0xff, 0x04, 0x00, 0x00, 0x00, 0x48, 0x00, 0x00, 0x00, 0xac, 0x97, 0xa0, 0x81, 0xbb, 0xbf, 0x26, 0xcb, 0xbc, 0x13, 0x19, 0xff, 0xf2, 0xcb, 0xdb, 0xe3, 0x2e, 0x12, 0x13, 0x01, 0x4c, 0x49, 0x55, 0x40, 0xfa, 0x4e, 0x0f, 0x12, 0x1a, 0xf3, 0xd6, 0x34, 0x1f, 0xe4, 0x29, 0x34, 0x2b, 0xfe, 0x0e, 0x34, 0xe8, 0x0f, 0x3a, 0x35, 0x01, 0x1b, 0xfe, 0x02, 0x08, 0x02, 0x2d, 0xff, 0x2a, 0x15, 0x2e, 0x0c, 0x35, 0x26, 0x36, 0xe3, 0x11, 0x1b, 0xe6, 0x24, 0xcc, 0x2b, 0xf7, 0x31, 0xcd, 0xec, 0xc3, 0x0e, 0x4a, 0xf5, 0xff, 0xff, 0x04, 0x00, 0x00, 0x00, 0x20, 0x00, 0x00, 0x00, 0xb4, 0x30, 0x00, 0x00, 0x16, 0x0b, 0x00, 0x00, 0x68, 0xdb, 0xff, 0xff, 0xbb, 0xf3, 0xff, 0xff, 0x65, 0xef, 0xff, 0xff, 0xb6, 0xf9, 0xff, 0xff, 0xf1, 0xef, 0xff, 0xff, 0x54, 0x07, 0x00, 0x00, 0x76, 0xf5, 0xff, 0xff, 0x04, 0x00, 0x00, 0x00, 0x48, 0x00, 0x00, 0x00, 0x54, 0xa2, 0x1e, 0xf1, 0x0d, 0xe7, 0xf2, 0xaf, 0x58, 0xa6, 0x1e, 0x18, 0xfc, 0x13, 0xf2, 0xbb, 0x45, 0xaa, 0x04, 0x10, 0xfc, 0x11, 0xff, 0xbc, 0x31, 0xda, 0x00, 0x04, 0x08, 0x0d, 0xf9, 0xa0, 0x4b, 0xe5, 0x20, 0x09, 0x11, 0x05, 0xe2, 0xb5, 0x2d, 0xd0, 0xf3, 0x15, 0xf3, 0x1e, 0xf8, 0x93, 0x1f, 0xcf, 0xf0, 0x24, 0x0f, 0xfe, 0xe4, 0x83, 0x2f, 0xad, 0xe5, 0x15, 0x03, 0x01, 0xe2, 0x81, 0x37, 0xc4, 0xe9, 0x0a, 0x24, 0x02, 0xe9, 0x81, 0xca, 0xf5, 0xff, 0xff, 0x04, 0x00, 0x00, 0x00, 0x20, 0x00, 0x00, 0x00, 0x7f, 0x00, 0x00, 0x00, 0x5f, 0xfd, 0xff, 0xff, 0x72, 0xfa, 0xff, 0xff, 0xd4, 0xf8, 0xff, 0xff, 0xd1, 0xf8, 0xff, 0xff, 0xf7, 0xfb, 0xff, 0xff, 0x06, 0x08, 0x00, 0x00, 0x25, 0xfd, 0xff, 0xff, 0xf6, 0xf5, 0xff, 0xff, 0x04, 0x00, 0x00, 0x00, 0x80, 0x00, 0x00, 0x00, 0x04, 0x37, 0x3a, 0x1f, 0x16, 0xf5, 0xf5, 0x31, 0xef, 0xec, 0x7f, 0xf1, 0xe1, 0x07, 0xf7, 0x01, 0xe4, 0x14, 0x04, 0xf7, 0xf3, 0xf6, 0x08, 0xb4, 0x27, 0xfd, 0xfc, 0xec, 0xd9, 0xf2, 0x22, 0x15, 0x46, 0xfd, 0xe0, 0xf0, 0xf3, 0x18, 0x17, 0xe9, 0x01, 0xf9, 0xea, 0xad, 0xbf, 0xdc, 0x51, 0xf5, 0x34, 0xf8, 0xe7, 0x13, 0xfb, 0xed, 0xe2, 0xec, 0x13, 0x35, 0x22, 0xfe, 0x21, 0x16, 0xfe, 0x2e, 0xf4, 0x02, 0xe2, 0x20, 0x07, 0x00, 0xfd, 0xcf, 0xf8, 0x33, 0xe9, 0x19, 0x09, 0x1f, 0x06, 0xef, 0x03, 0x14, 0x3a, 0x0e, 0xdf, 0x0a, 0xec, 0xd8, 0x22, 0x37, 0x0a, 0xf9, 0xf9, 0xea, 0xdf, 0x33, 0xd5, 0x1e, 0x13, 0x24, 0x26, 0x16, 0xd6, 0x15, 0xc8, 0x26, 0x27, 0x28, 0xfc, 0x08, 0xe5, 0x1c, 0x0e, 0xf9, 0x1c, 0xe6, 0x1e, 0xe9, 0xe8, 0xd9, 0xe5, 0xee, 0x39, 0x14, 0xea, 0x12, 0x12, 0xc1, 0x82, 0xf6, 0xff, 0xff, 0x04, 0x00, 0x00, 0x00, 0x40, 0x00, 0x00, 0x00, 0xba, 0xfd, 0xff, 0xff, 0xd5, 0x00, 0x00, 0x00, 0x11, 0x00, 0x00, 0x00, 0x1d, 0x00, 0x00, 0x00, 0x60, 0x02, 0x00, 0x00, 0x41, 0x02, 0x00, 0x00, 0xd6, 0xfd, 0xff, 0xff, 0x1a, 0xff, 0xff, 0xff, 0x9d, 0xfe, 0xff, 0xff, 0xb8, 0xfc, 0xff, 0xff, 0xe9, 0xfe, 0xff, 0xff, 0xfd, 0xff, 0xff, 0xff, 0x6f, 0xff, 0xff, 0xff, 0xe7, 0xfc, 0xff, 0xff, 0x84, 0xfc, 0xff, 0xff, 0xca, 0xff, 0xff, 0xff, 0xce, 0xf6, 0xff, 0xff, 0x04, 0x00, 0x00, 0x00, 0x90, 0x00, 0x00, 0x00, 0x27, 0x92, 0x4d, 0x18, 0x28, 0x43, 0x1a, 0x2a, 0x15, 0x0f, 0xf7, 0xf0, 0xfd, 0xff, 0xe8, 0x27, 0x17, 0xfb, 0x52, 0x2c, 0x28, 0x16, 0x1d, 0x16, 0x2f, 0x16, 0xd8, 0xea, 0xdd, 0x18, 0xdc, 0x19, 0x1c, 0x96, 0x2d, 0x3f, 0x23, 0x45, 0x05, 0x19, 0x17, 0x32, 0xda, 0xd7, 0xe9, 0x11, 0xea, 0x44, 0x18, 0x04, 0x39, 0x0f, 0x3f, 0x0f, 0xed, 0x18, 0x0c, 0x21, 0x01, 0xe5, 0xea, 0x21, 0xea, 0x36, 0x25, 0x3a, 0x4c, 0x28, 0x45, 0xf0, 0x06, 0x01, 0x2b, 0x26, 0xe8, 0xdc, 0xef, 0x17, 0xdb, 0x1c, 0x25, 0x1c, 0x36, 0x2b, 0x1d, 0x2e, 0x1c, 0x23, 0x06, 0x1a, 0xe8, 0xdf, 0xe4, 0x12, 0xe3, 0x3e, 0x05, 0x88, 0x4b, 0x33, 0x27, 0x59, 0xe5, 0x2b, 0x1d, 0xf7, 0x18, 0xe8, 0x0d, 0x14, 0xed, 0x4d, 0x2a, 0xe9, 0x5d, 0x23, 0x1a, 0x42, 0x18, 0x06, 0x28, 0xfd, 0x12, 0xeb, 0xdc, 0xff, 0xe7, 0x2d, 0x13, 0x81, 0x40, 0x2f, 0x2c, 0x4e, 0x0d, 0x1a, 0xf4, 0x08, 0xf6, 0xd2, 0xe0, 0x2d, 0xd0, 0x38, 0x6a, 0xf7, 0xff, 0xff, 0x04, 0x00, 0x00, 0x00, 0x40, 0x00, 0x00, 0x00, 0x51, 0xfc, 0xff, 0xff, 0x5d, 0x01, 0x00, 0x00, 0xfb, 0xff, 0xff, 0xff, 0x30, 0x00, 0x00, 0x00, 0xd5, 0xff, 0xff, 0xff, 0x93, 0xff, 0xff, 0xff, 0x6d, 0xfc, 0xff, 0xff, 0x3d, 0xfe, 0xff, 0xff, 0x06, 0xfa, 0xff, 0xff, 0x9a, 0xfe, 0xff, 0xff, 0x38, 0x04, 0x00, 0x00, 0x8f, 0x01, 0x00, 0x00, 0x44, 0x06, 0x00, 0x00, 0x96, 0xfc, 0xff, 0xff, 0x55, 0x04, 0x00, 0x00, 0x76, 0xfe, 0xff, 0xff, 0xb6, 0xf7, 0xff, 0xff, 0x04, 0x00, 0x00, 0x00, 0x80, 0x01, 0x00, 0x00, 0xf6, 0xf3, 0xe2, 0x13, 0x0f, 0x63, 0xeb, 0x0b, 0xe5, 0xde, 0x0a, 0x11, 0x56, 0xdb, 0xfa, 0x01, 0xe4, 0xe5, 0x51, 0x07, 0xfb, 0x0e, 0x12, 0xbb, 0x4f, 0xe6, 0xfc, 0x34, 0xfe, 0xd6, 0xda, 0x42, 0x07, 0xd0, 0xe9, 0x35, 0x25, 0x3d, 0x37, 0xf4, 0xf0, 0xf5, 0x28, 0x27, 0x2d, 0xf1, 0xbe, 0xf1, 0x1e, 0x48, 0xde, 0xf0, 0x33, 0x1c, 0x20, 0x0a, 0xd2, 0xd0, 0x19, 0xf4, 0x18, 0x19, 0xef, 0x22, 0x2f, 0x47, 0xf4, 0xf9, 0xf8, 0x28, 0xcb, 0x2c, 0xdb, 0x0f, 0xf1, 0xe7, 0x23, 0x16, 0x3b, 0xf1, 0x39, 0xe8, 0xee, 0xf9, 0x1d, 0xfe, 0x22, 0x09, 0xfa, 0xd6, 0x03, 0xef, 0xe9, 0x0a, 0xe5, 0x34, 0xf5, 0x04, 0x0a, 0x1b, 0x18, 0x21, 0xfc, 0x2c, 0x1f, 0x11, 0xe7, 0xe4, 0xf6, 0x0f, 0x19, 0xf7, 0x20, 0xec, 0x2e, 0x68, 0x7f, 0x4d, 0x41, 0x19, 0x0e, 0x11, 0x34, 0xc6, 0xec, 0x2c, 0x96, 0xfd, 0x05, 0x06, 0xf0, 0x2a, 0x3e, 0x31, 0x09, 0x08, 0xbd, 0xd8, 0x32, 0x07, 0x36, 0x0b, 0x21, 0xff, 0x0f, 0x22, 0x0c, 0x06, 0xfe, 0x32, 0x12, 0x15, 0x09, 0x16, 0xe8, 0x11, 0xde, 0x23, 0x26, 0x13, 0x1a, 0xe0, 0x19, 0x28, 0x28, 0xfe, 0xf6, 0x2f, 0xe6, 0x24, 0xe4, 0xf6, 0xde, 0x07, 0xf9, 0x1e, 0x2d, 0x15, 0xe0, 0xfb, 0x15, 0x0a, 0x04, 0x1a, 0x2c, 0xfc, 0xcf, 0x04, 0xf1, 0x0d, 0xd0, 0x29, 0xec, 0x41, 0xe0, 0xec, 0xf1, 0x27, 0xd5, 0xc9, 0xbd, 0xe6, 0x40, 0xea, 0x01, 0xe2, 0x43, 0xe5, 0x2a, 0x05, 0xe6, 0xe0, 0x0b, 0x32, 0x14, 0x0a, 0x30, 0x17, 0xea, 0xe6, 0x00, 0x20, 0xeb, 0x25, 0x0e, 0x4d, 0xe7, 0xf6, 0xc1, 0xe7, 0x00, 0x26, 0x10, 0x17, 0x18, 0xf1, 0xf0, 0xf9, 0x06, 0xe6, 0xff, 0xee, 0xf0, 0xf2, 0xfc, 0x15, 0x1d, 0x21, 0x25, 0x1c, 0xf4, 0x0a, 0x0c, 0x24, 0xed, 0x25, 0x01, 0x1b, 0x04, 0xf6, 0x0a, 0x34, 0x27, 0xe5, 0x2b, 0x25, 0xf5, 0xd9, 0xf6, 0xf1, 0x23, 0xcc, 0xd1, 0xd7, 0xe2, 0x05, 0x20, 0xe9, 0x1d, 0xef, 0xea, 0x09, 0x18, 0x0e, 0x35, 0xf1, 0xef, 0xe2, 0x22, 0x19, 0x1a, 0x19, 0xe7, 0x15, 0x0c, 0x25, 0x09, 0xdc, 0xe2, 0xf0, 0xf9, 0x02, 0xfa, 0x07, 0xcd, 0xfe, 0x5a, 0xed, 0x1d, 0xc2, 0x35, 0xe1, 0xf1, 0xf5, 0xc5, 0xd9, 0x2b, 0xc5, 0xe7, 0x25, 0x04, 0xff, 0xd7, 0x1e, 0x34, 0xf9, 0xed, 0xfb, 0x06, 0xeb, 0xec, 0xc8, 0xe9, 0x1e, 0x24, 0xea, 0x05, 0x08, 0x37, 0x08, 0x0d, 0xd9, 0x06, 0x1a, 0x1d, 0x07, 0xff, 0xbc, 0x44, 0xd1, 0xf8, 0x0f, 0x19, 0x1b, 0xf8, 0x14, 0x20, 0x2e, 0x12, 0x2b, 0xfb, 0x2c, 0x14, 0x06, 0x10, 0x27, 0x04, 0x0f, 0xc2, 0x40, 0xf7, 0xdd, 0xf9, 0x13, 0xc1, 0xfe, 0xeb, 0x0b, 0x42, 0x2e, 0x51, 0xb2, 0x5f, 0x3d, 0x42, 0xf9, 0xff, 0xff, 0x04, 0x00, 0x00, 0x00, 0x60, 0x00, 0x00, 0x00, 0x95, 0x00, 0x00, 0x00, 0xa3, 0x00, 0x00, 0x00, 0x96, 0x00, 0x00, 0x00, 0x01, 0x01, 0x00, 0x00, 0x92, 0x00, 0x00, 0x00, 0x37, 0x00, 0x00, 0x00, 0xbf, 0xff, 0xff, 0xff, 0x08, 0x01, 0x00, 0x00, 0xae, 0x00, 0x00, 0x00, 0xc2, 0xff, 0xff, 0xff, 0x24, 0x00, 0x00, 0x00, 0x33, 0xff, 0xff, 0xff, 0x0d, 0x01, 0x00, 0x00, 0xf9, 0xfe, 0xff, 0xff, 0x35, 0x00, 0x00, 0x00, 0x4c, 0xfe, 0xff, 0xff, 0x9d, 0x00, 0x00, 0x00, 0xba, 0x00, 0x00, 0x00, 0x3a, 0xff, 0xff, 0xff, 0xb9, 0xff, 0xff, 0xff, 0xc8, 0xff, 0xff, 0xff, 0xff, 0xff, 0xff, 0xff, 0x77, 0xfe, 0xff, 0xff, 0x50, 0x01, 0x00, 0x00, 0xae, 0xf9, 0xff, 0xff, 0x04, 0x00, 0x00, 0x00, 0xd8, 0x00, 0x00, 0x00, 0x35, 0xb9, 0x2b, 0x05, 0xd5, 0x1d, 0x03, 0x0f, 0xc0, 0xf9, 0xf2, 0xfe, 0x27, 0x09, 0xff, 0xe1, 0x0c, 0xe3, 0x14, 0x35, 0x17, 0xc3, 0xe4, 0x33, 0x02, 0xc3, 0xf7, 0x29, 0xae, 0x17, 0xf2, 0xf1, 0xc9, 0xf6, 0xe4, 0xd6, 0x47, 0xee, 0x0a, 0xd4, 0xf5, 0xc9, 0x0b, 0x47, 0x1d, 0xa7, 0xf5, 0x1f, 0x36, 0xd8, 0x31, 0xea, 0xc4, 0x1a, 0x16, 0xf8, 0xc4, 0x06, 0xfe, 0xf1, 0x3f, 0xff, 0xf6, 0xc8, 0xd5, 0xdb, 0x0b, 0x2d, 0x10, 0xc0, 0xd5, 0x46, 0x15, 0xc1, 0xe0, 0x13, 0xbd, 0x09, 0x1b, 0xe9, 0xd4, 0xf5, 0x04, 0x1d, 0x3d, 0x20, 0x01, 0xed, 0xfd, 0xc1, 0x16, 0x58, 0x03, 0xbc, 0x14, 0x5b, 0xd8, 0xc4, 0xcf, 0x45, 0xa5, 0xf6, 0xfb, 0xd4, 0xee, 0xf8, 0xd7, 0x14, 0x3c, 0x14, 0x00, 0xf7, 0x1e, 0xc1, 0xf5, 0x59, 0x23, 0xa2, 0x2c, 0x49, 0x15, 0xc5, 0x1d, 0x29, 0xcb, 0xdc, 0x18, 0xf5, 0xde, 0xd1, 0xe2, 0x24, 0x1d, 0x2c, 0xf2, 0xc4, 0xf8, 0xe4, 0x03, 0x53, 0x17, 0xae, 0x1d, 0x56, 0x5f, 0xc5, 0x29, 0x05, 0xe0, 0xff, 0xf4, 0x32, 0xd0, 0x06, 0x06, 0x35, 0x20, 0x33, 0x2f, 0xee, 0x1f, 0xe2, 0x1a, 0x42, 0xe3, 0xa6, 0xe0, 0x60, 0x41, 0xc2, 0x1e, 0xf4, 0xbe, 0xee, 0x10, 0x0a, 0xe2, 0x02, 0xf4, 0x27, 0x2e, 0x29, 0x13, 0xc6, 0x17, 0xe4, 0x0f, 0x51, 0xf4, 0x9b, 0xe4, 0x41, 0x7f, 0xc9, 0x57, 0xe9, 0xde, 0xe5, 0x17, 0x3c, 0xdf, 0xea, 0x03, 0x36, 0x42, 0x1a, 0x2e, 0xd5, 0x08, 0x02, 0xfa, 0x3d, 0xfd, 0xa2, 0xcf, 0x6e, 0x92, 0xfa, 0xff, 0xff, 0x04, 0x00, 0x00, 0x00, 0x60, 0x00, 0x00, 0x00, 0x1b, 0x00, 0x00, 0x00, 0x7b, 0x00, 0x00, 0x00, 0x58, 0xff, 0xff, 0xff, 0xea, 0xff, 0xff, 0xff, 0xc3, 0xff, 0xff, 0xff, 0x1c, 0xff, 0xff, 0xff, 0x17, 0x00, 0x00, 0x00, 0x34, 0x00, 0x00, 0x00, 0x7a, 0x00, 0x00, 0x00, 0x0d, 0x00, 0x00, 0x00, 0x3f, 0x00, 0x00, 0x00, 0x60, 0xff, 0xff, 0xff, 0xa5, 0xff, 0xff, 0xff, 0xaf, 0xff, 0xff, 0xff, 0x35, 0xff, 0xff, 0xff, 0xcd, 0x00, 0x00, 0x00, 0xbe, 0x00, 0x00, 0x00, 0xd2, 0xff, 0xff, 0xff, 0xee, 0xff, 0xff, 0xff, 0x75, 0xff, 0xff, 0xff, 0xe7, 0xff, 0xff, 0xff, 0x8f, 0xff, 0xff, 0xff, 0x8b, 0x00, 0x00, 0x00, 0x70, 0xff, 0xff, 0xff, 0xfe, 0xfa, 0xff, 0xff, 0x04, 0x00, 0x00, 0x00, 0x00, 0x03, 0x00, 0x00, 0xd4, 0xec, 0xdc, 0xee, 0x17, 0x2d, 0xe7, 0xe3, 0x22, 0x25, 0xf9, 0xbe, 0x16, 0xd2, 0x20, 0xec, 0x08, 0x29, 0xef, 0x23, 0xcc, 0xf6, 0x11, 0x1b, 0xf0, 0x1a, 0xed, 0x00, 0xe7, 0xed, 0x15, 0xc9, 0xf1, 0xfa, 0xf9, 0x0e, 0xe9, 0xf9, 0x00, 0xfe, 0xf9, 0xf3, 0x12, 0x0a, 0x18, 0xfa, 0x20, 0xbe, 0xcb, 0xe5, 0xb6, 0xfb, 0x04, 0x05, 0xe5, 0xe5, 0x32, 0x1f, 0x0a, 0xb0, 0x02, 0xdf, 0xf8, 0x07, 0x02, 0x2a, 0xfd, 0x21, 0xec, 0xe0, 0x03, 0x03, 0xfc, 0x15, 0xec, 0x11, 0xc6, 0x10, 0x02, 0xc2, 0xfe, 0xfa, 0x07, 0x09, 0xe0, 0xeb, 0x03, 0xfd, 0x04, 0xe7, 0xff, 0x02, 0x12, 0xf6, 0xf7, 0x81, 0xf7, 0x14, 0xe6, 0x0e, 0xda, 0x02, 0x1e, 0xf7, 0xf1, 0xf8, 0xfe, 0xfb, 0xfb, 0xfc, 0x00, 0xe4, 0x03, 0x08, 0x04, 0x02, 0x1f, 0x11, 0xe8, 0xa7, 0x05, 0x04, 0xe6, 0x0b, 0xf7, 0x05, 0xea, 0x0d, 0x06, 0x20, 0x52, 0x0e, 0x27, 0x0a, 0x1a, 0x13, 0x12, 0x0a, 0x04, 0xc1, 0xed, 0x1a, 0x0c, 0x00, 0xf3, 0x20, 0xf0, 0x1c, 0x01, 0x0f, 0xf1, 0xa8, 0xfb, 0x19, 0xef, 0xfa, 0xfe, 0x0e, 0xfa, 0xf8, 0x08, 0xef, 0x0c, 0x07, 0x0f, 0xef, 0x10, 0xa4, 0x0e, 0x38, 0xe7, 0x01, 0xeb, 0x0e, 0x13, 0x0f, 0x08, 0xf5, 0xe9, 0xe3, 0x01, 0xff, 0x10, 0xfd, 0x15, 0x17, 0x0f, 0xe6, 0xf3, 0x07, 0xf9, 0x05, 0x0a, 0x44, 0xe8, 0xfe, 0xeb, 0x00, 0x0d, 0x04, 0x07, 0xe6, 0xfa, 0x07, 0x0a, 0x16, 0xf5, 0x0d, 0x06, 0x0b, 0xef, 0xd6, 0xfb, 0x08, 0x03, 0x0b, 0xf4, 0x15, 0xf6, 0x20, 0xec, 0x1a, 0xea, 0xb2, 0xfe, 0xf5, 0x05, 0x0b, 0x00, 0x0f, 0x0b, 0x06, 0xfd, 0xdd, 0xf7, 0x09, 0x1a, 0x0a, 0x2b, 0xa7, 0xdc, 0xe2, 0xc1, 0xde, 0xfc, 0x01, 0xe9, 0xda, 0x36, 0x23, 0xfb, 0xcd, 0x17, 0xc8, 0x01, 0x0a, 0xf3, 0x0b, 0x05, 0x18, 0xf1, 0xd8, 0x0b, 0xe6, 0x17, 0x43, 0xdb, 0xfa, 0x03, 0x10, 0x04, 0x14, 0x0c, 0x07, 0xfc, 0xec, 0x0b, 0x05, 0x0d, 0xf7, 0x17, 0xf9, 0x13, 0xd8, 0x0f, 0xef, 0x05, 0x0a, 0xb3, 0xde, 0xc0, 0xfb, 0x04, 0x26, 0xf2, 0xd7, 0x4c, 0x13, 0x09, 0xc3, 0xcf, 0xc0, 0xea, 0x3a, 0x15, 0x08, 0xd9, 0x31, 0xfa, 0xdf, 0x22, 0xbf, 0x00, 0x07, 0x11, 0x0b, 0x1c, 0x18, 0xe0, 0x04, 0xf1, 0x03, 0x31, 0x0e, 0x16, 0x19, 0x07, 0xe0, 0xf2, 0x10, 0x27, 0xcd, 0x11, 0x28, 0xee, 0x0e, 0xf8, 0x1e, 0xfc, 0xfc, 0x04, 0xed, 0xfe, 0xa1, 0xf8, 0x0f, 0xe1, 0x1f, 0x07, 0xff, 0x1f, 0x0b, 0xfa, 0xf5, 0xef, 0x0c, 0x08, 0xfb, 0x1d, 0xa4, 0xf8, 0x0d, 0xd7, 0x11, 0x10, 0xe7, 0xd0, 0xfb, 0x00, 0x24, 0x4e, 0xef, 0x1c, 0xfc, 0xf6, 0xf1, 0xf5, 0x24, 0xf8, 0xca, 0xbe, 0x0d, 0x0e, 0x1b, 0x0c, 0x4b, 0xfa, 0x13, 0xe9, 0xe3, 0x0d, 0xfb, 0x11, 0x0a, 0xef, 0xf2, 0x0a, 0x07, 0x0f, 0x02, 0x0f, 0x02, 0xf4, 0xe4, 0x1a, 0xf5, 0xee, 0xfc, 0xda, 0x2c, 0x07, 0x19, 0xf8, 0xf5, 0xfa, 0xad, 0xe7, 0xf1, 0xfd, 0x09, 0xf7, 0x04, 0xee, 0x0c, 0x10, 0x0f, 0x1a, 0x1e, 0x17, 0x02, 0x20, 0xb1, 0xdd, 0x25, 0xd7, 0xf4, 0x07, 0x09, 0xfd, 0xbd, 0xe3, 0xf1, 0xeb, 0xf0, 0xdf, 0x14, 0xf5, 0x00, 0xea, 0xdd, 0xf5, 0x10, 0x00, 0xf4, 0x09, 0xc4, 0x00, 0x02, 0x1d, 0xee, 0x27, 0x20, 0x01, 0x06, 0x04, 0x04, 0x0d, 0x04, 0xb7, 0xfe, 0x18, 0xdb, 0xcb, 0xe7, 0xfa, 0xff, 0x06, 0x32, 0xe1, 0x0b, 0xce, 0xe5, 0xd1, 0xe4, 0x0d, 0x06, 0xf5, 0xe8, 0x2f, 0x26, 0xf8, 0xa3, 0x01, 0x9d, 0x0b, 0x35, 0x11, 0x10, 0x03, 0x38, 0xc7, 0xed, 0x22, 0x06, 0xe7, 0x1d, 0xf1, 0x22, 0x13, 0xfd, 0x16, 0xb1, 0x03, 0x19, 0xf7, 0xee, 0xfd, 0xe0, 0xe1, 0x40, 0x06, 0xd9, 0xf6, 0x39, 0xf6, 0xf9, 0xf0, 0xe2, 0x13, 0x1b, 0x03, 0xf6, 0x00, 0xea, 0xfe, 0x06, 0x03, 0xe3, 0x0a, 0xee, 0xfe, 0xe6, 0xfe, 0x0a, 0x1c, 0xea, 0x0e, 0xb1, 0x05, 0x02, 0x01, 0x09, 0xa4, 0xd5, 0xae, 0xe1, 0x0f, 0xf6, 0xd2, 0xf7, 0x31, 0x06, 0x06, 0xac, 0xd7, 0xb8, 0x05, 0x25, 0x07, 0x23, 0xf9, 0x34, 0xd3, 0xed, 0x08, 0xb5, 0x08, 0x1b, 0xe1, 0x05, 0xfa, 0xf5, 0xd8, 0x20, 0xe5, 0x03, 0x20, 0xf0, 0x0e, 0x14, 0xf0, 0x23, 0x01, 0xfd, 0x0d, 0xac, 0xfe, 0x1f, 0x06, 0x03, 0xf7, 0x18, 0x01, 0x02, 0xf8, 0x08, 0xf6, 0xba, 0xfc, 0xef, 0x05, 0x1c, 0xf1, 0x02, 0x0d, 0xf9, 0xfb, 0xf0, 0xf5, 0x03, 0x15, 0xf5, 0xf5, 0xa7, 0xe9, 0x03, 0xe8, 0x14, 0x20, 0xde, 0xf7, 0xb3, 0xfd, 0x36, 0x0f, 0xcf, 0xd4, 0xc5, 0x0d, 0x5d, 0x09, 0xcf, 0xf1, 0x2f, 0x11, 0xdf, 0x31, 0xf6, 0xbd, 0xe7, 0xce, 0x07, 0x07, 0xfc, 0xfb, 0xd1, 0x50, 0x1a, 0xff, 0xc9, 0xf6, 0xc9, 0xdb, 0x29, 0xfe, 0x19, 0xcb, 0x30, 0xe3, 0xdb, 0x02, 0xaa, 0xcb, 0xd5, 0xb0, 0xe8, 0xf9, 0x22, 0xda, 0xe8, 0x4e, 0x09, 0x06, 0xb8, 0xdb, 0xc3, 0x05, 0x38, 0xf7, 0x10, 0xef, 0x1d, 0xea, 0xdf, 0x13, 0xb9, 0x04, 0x1c, 0x17, 0xe5, 0x38, 0x25, 0xed, 0xfd, 0xfb, 0x09, 0xfc, 0x1b, 0xa3, 0x03, 0x2d, 0xee, 0xe3, 0xf9, 0x0e, 0xe4, 0x0d, 0x3c, 0xde, 0x17, 0xe8, 0x14, 0xdc, 0x27, 0xea, 0x14, 0x05, 0xc1, 0xf3, 0x16, 0xf7, 0xe6, 0xe7, 0x13, 0xef, 0xed, 0xe7, 0xec, 0x0d, 0xf6, 0x09, 0xf9, 0x1d, 0x9f, 0xf4, 0x05, 0xf3, 0xeb, 0x01, 0x0c, 0xfe, 0xff, 0xe4, 0x1a, 0x1e, 0x13, 0x25, 0x19, 0x0e, 0x05, 0x05, 0x1d, 0x23, 0xd3, 0xce, 0x26, 0xf0, 0x0e, 0x0a, 0xfe, 0xff, 0xff, 0x04, 0x00, 0x00, 0x00, 0x80, 0x00, 0x00, 0x00, 0xf9, 0xff, 0xff, 0xff, 0x07, 0x00, 0x00, 0x00, 0x0a, 0x00, 0x00, 0x00, 0x28, 0x00, 0x00, 0x00, 0xf9, 0xff, 0xff, 0xff, 0xef, 0xff, 0xff, 0xff, 0x11, 0x00, 0x00, 0x00, 0x2b, 0x00, 0x00, 0x00, 0x1f, 0x00, 0x00, 0x00, 0xfd, 0xff, 0xff, 0xff, 0xfd, 0xff, 0xff, 0xff, 0x29, 0x00, 0x00, 0x00, 0x28, 0x00, 0x00, 0x00, 0xd5, 0xff, 0xff, 0xff, 0xf3, 0xff, 0xff, 0xff, 0x12, 0x00, 0x00, 0x00, 0x16, 0x00, 0x00, 0x00, 0x0b, 0x00, 0x00, 0x00, 0x06, 0x00, 0x00, 0x00, 0x22, 0xff, 0xff, 0xff, 0x11, 0x00, 0x00, 0x00, 0x27, 0x00, 0x00, 0x00, 0x3e, 0x00, 0x00, 0x00, 0x42, 0x00, 0x00, 0x00, 0x2b, 0x00, 0x00, 0x00, 0xf6, 0xff, 0xff, 0xff, 0x35, 0x00, 0x00, 0x00, 0x26, 0x00, 0x00, 0x00, 0x0c, 0x00, 0x00, 0x00, 0x2c, 0xff, 0xff, 0xff, 0x00, 0x00, 0x00, 0x00, 0xdb, 0xff, 0xff, 0xff, 0x96, 0xfe, 0xff, 0xff, 0x04, 0x00, 0x00, 0x00, 0x80, 0x00, 0x00, 0x00, 0x0e, 0xd5, 0x39, 0xc4, 0xd7, 0xd9, 0xdf, 0xc7, 0xca, 0xdb, 0x34, 0xb7, 0x29, 0x05, 0xf2, 0xcb, 0xc4, 0xf8, 0xed, 0x01, 0x2c, 0x2e, 0xea, 0x25, 0xcf, 0xdf, 0x3c, 0x57, 0x43, 0xef, 0xe0, 0xee, 0x8c, 0x00, 0x96, 0x0d, 0x09, 0xf7, 0x06, 0x10, 0x0c, 0xff, 0x99, 0x24, 0x8a, 0x1b, 0x1c, 0xd0, 0x2d, 0x25, 0x06, 0x21, 0xa8, 0x11, 0x16, 0x81, 0xec, 0x1b, 0xfc, 0xb7, 0xae, 0x21, 0x0c, 0x01, 0x16, 0xc3, 0x18, 0xc7, 0xf2, 0x40, 0xba, 0xdc, 0xf2, 0xb7, 0x14, 0x0c, 0xf0, 0x34, 0xe5, 0x18, 0xf5, 0xe8, 0xc7, 0x2e, 0x05, 0xae, 0x27, 0xee, 0x00, 0xf2, 0xe6, 0x1c, 0x0f, 0x3c, 0xc9, 0x3a, 0x05, 0x0b, 0x08, 0x25, 0x07, 0x1a, 0x2a, 0xf0, 0x00, 0x1b, 0xfa, 0xed, 0xdc, 0x08, 0x33, 0xed, 0x07, 0x40, 0x2c, 0xca, 0x0e, 0x39, 0xec, 0xc6, 0xda, 0x27, 0x31, 0xef, 0xf0, 0xbc, 0x44, 0x09, 0x22, 0xff, 0xff, 0xff, 0x04, 0x00, 0x00, 0x00, 0x10, 0x00, 0x00, 0x00, 0x14, 0x04, 0x00, 0x00, 0xfa, 0x0a, 0x00, 0x00, 0xba, 0xff, 0xff, 0xff, 0xaf, 0xf1, 0xff, 0xff, 0x3e, 0xff, 0xff, 0xff, 0x04, 0x00, 0x00, 0x00, 0x08, 0x00, 0x00, 0x00, 0x01, 0x00, 0x00, 0x00, 0x02, 0x00, 0x00, 0x00, 0xcc, 0xed, 0xff, 0xff, 0xd0, 0xed, 0xff, 0xff, 0x0f, 0x00, 0x00, 0x00, 0x4d, 0x4c, 0x49, 0x52, 0x20, 0x43, 0x6f, 0x6e, 0x76, 0x65, 0x72, 0x74, 0x65, 0x64, 0x2e, 0x00, 0x01, 0x00, 0x00, 0x00, 0x14, 0x00, 0x00, 0x00, 0x00, 0x00, 0x0e, 0x00, 0x18, 0x00, 0x14, 0x00, 0x10, 0x00, 0x0c, 0x00, 0x08, 0x00, 0x04, 0x00, 0x0e, 0x00, 0x00, 0x00, 0x14, 0x00, 0x00, 0x00, 0x1c, 0x00, 0x00, 0x00, 0xe8, 0x02, 0x00, 0x00, 0xec, 0x02, 0x00, 0x00, 0xf0, 0x02, 0x00, 0x00, 0x04, 0x00, 0x00, 0x00, 0x6d, 0x61, 0x69, 0x6e, 0x00, 0x00, 0x00, 0x00, 0x0a, 0x00, 0x00, 0x00, 0x80, 0x02, 0x00, 0x00, 0x20, 0x02, 0x00, 0x00, 0xcc, 0x01, 0x00, 0x00, 0x88, 0x01, 0x00, 0x00, 0x44, 0x01, 0x00, 0x00, 0x00, 0x01, 0x00, 0x00, 0xbc, 0x00, 0x00, 0x00, 0x88, 0x00, 0x00, 0x00, 0x50, 0x00, 0x00, 0x00, 0x14, 0x00, 0x00, 0x00, 0x00, 0x00, 0x0e, 0x00, 0x1a, 0x00, 0x14, 0x00, 0x10, 0x00, 0x0c, 0x00, 0x0b, 0x00, 0x04, 0x00, 0x0e, 0x00, 0x00, 0x00, 0x1c, 0x00, 0x00, 0x00, 0x00, 0x00, 0x00, 0x09, 0x1c, 0x00, 0x00, 0x00, 0x20, 0x00, 0x00, 0x00, 0x04, 0x00, 0x00, 0x00, 0x00, 0x00, 0x06, 0x00, 0x08, 0x00, 0x04, 0x00, 0x06, 0x00, 0x00, 0x00, 0x00, 0x00, 0x80, 0x3f, 0x01, 0x00, 0x00, 0x00, 0x1b, 0x00, 0x00, 0x00, 0x01, 0x00, 0x00, 0x00, 0x1a, 0x00, 0x00, 0x00, 0x5a, 0xfe, 0xff, 0xff, 0x14, 0x00, 0x00, 0x00, 0x00, 0x00, 0x00, 0x08, 0x10, 0x00, 0x00, 0x00, 0x14, 0x00, 0x00, 0x00, 0x03, 0x00, 0x00, 0x00, 0xb0, 0xee, 0xff, 0xff, 0x01, 0x00, 0x00, 0x00, 0x1a, 0x00, 0x00, 0x00, 0x03, 0x00, 0x00, 0x00, 0x19, 0x00, 0x00, 0x00, 0x03, 0x00, 0x00, 0x00, 0x02, 0x00, 0x00, 0x00, 0x8e, 0xfe, 0xff, 0xff, 0x14, 0x00, 0x00, 0x00, 0x00, 0x00, 0x00, 0x1b, 0x10, 0x00, 0x00, 0x00, 0x14, 0x00, 0x00, 0x00, 0x02, 0x00, 0x00, 0x00, 0xe4, 0xee, 0xff, 0xff, 0x01, 0x00, 0x00, 0x00, 0x19, 0x00, 0x00, 0x00, 0x02, 0x00, 0x00, 0x00, 0x18, 0x00, 0x00, 0x00, 0x01, 0x00, 0x00, 0x00, 0x62, 0xfe, 0xff, 0xff, 0x10, 0x00, 0x00, 0x00, 0x00, 0x00, 0x00, 0x01, 0x1c, 0x00, 0x00, 0x00, 0x20, 0x00, 0x00, 0x00, 0x54, 0xfe, 0xff, 0xff, 0x00, 0x00, 0x00, 0x01, 0x01, 0x00, 0x00, 0x00, 0x01, 0x00, 0x00, 0x00, 0x00, 0x00, 0x00, 0x01, 0x01, 0x00, 0x00, 0x00, 0x18, 0x00, 0x00, 0x00, 0x03, 0x00, 0x00, 0x00, 0x17, 0x00, 0x00, 0x00, 0x05, 0x00, 0x00, 0x00, 0x04, 0x00, 0x00, 0x00, 0xfe, 0xfe, 0xff, 0xff, 0x14, 0x00, 0x00, 0x00, 0x00, 0x00, 0x00, 0x02, 0x1c, 0x00, 0x00, 0x00, 0x20, 0x00, 0x00, 0x00, 0x01, 0x00, 0x00, 0x00, 0xf0, 0xfe, 0xff, 0xff, 0x01, 0x00, 0x00, 0x00, 0x01, 0x00, 0x00, 0x00, 0x01, 0x00, 0x00, 0x00, 0x01, 0x00, 0x00, 0x00, 0x17, 0x00, 0x00, 0x00, 0x03, 0x00, 0x00, 0x00, 0x16, 0x00, 0x00, 0x00, 0x07, 0x00, 0x00, 0x00, 0x06, 0x00, 0x00, 0x00, 0xe2, 0xfe, 0xff, 0xff, 0x10, 0x00, 0x00, 0x00, 0x00, 0x00, 0x00, 0x01, 0x1c, 0x00, 0x00, 0x00, 0x20, 0x00, 0x00, 0x00, 0xd4, 0xfe, 0xff, 0xff, 0x00, 0x00, 0x00, 0x01, 0x01, 0x00, 0x00, 0x00, 0x01, 0x00, 0x00, 0x00, 0x00, 0x00, 0x00, 0x01, 0x01, 0x00, 0x00, 0x00, 0x16, 0x00, 0x00, 0x00, 0x03, 0x00, 0x00, 0x00, 0x15, 0x00, 0x00, 0x00, 0x09, 0x00, 0x00, 0x00, 0x08, 0x00, 0x00, 0x00, 0x7e, 0xff, 0xff, 0xff, 0x14, 0x00, 0x00, 0x00, 0x00, 0x00, 0x00, 0x02, 0x1c, 0x00, 0x00, 0x00, 0x20, 0x00, 0x00, 0x00, 0x01, 0x00, 0x00, 0x00, 0x70, 0xff, 0xff, 0xff, 0x01, 0x00, 0x00, 0x00, 0x02, 0x00, 0x00, 0x00, 0x02, 0x00, 0x00, 0x00, 0x01, 0x00, 0x00, 0x00, 0x15, 0x00, 0x00, 0x00, 0x03, 0x00, 0x00, 0x00, 0x14, 0x00, 0x00, 0x00, 0x0b, 0x00, 0x00, 0x00, 0x0a, 0x00, 0x00, 0x00, 0x62, 0xff, 0xff, 0xff, 0x10, 0x00, 0x00, 0x00, 0x00, 0x00, 0x00, 0x01, 0x1c, 0x00, 0x00, 0x00, 0x20, 0x00, 0x00, 0x00, 0x54, 0xff, 0xff, 0xff, 0x00, 0x00, 0x00, 0x01, 0x01, 0x00, 0x00, 0x00, 0x01, 0x00, 0x00, 0x00, 0x00, 0x00, 0x00, 0x01, 0x01, 0x00, 0x00, 0x00, 0x14, 0x00, 0x00, 0x00, 0x03, 0x00, 0x00, 0x00, 0x13, 0x00, 0x00, 0x00, 0x0d, 0x00, 0x00, 0x00, 0x0c, 0x00, 0x00, 0x00, 0x00, 0x00, 0x0e, 0x00, 0x18, 0x00, 0x14, 0x00, 0x10, 0x00, 0x0c, 0x00, 0x0b, 0x00, 0x04, 0x00, 0x0e, 0x00, 0x00, 0x00, 0x20, 0x00, 0x00, 0x00, 0x00, 0x00, 0x00, 0x02, 0x28, 0x00, 0x00, 0x00, 0x2c, 0x00, 0x00, 0x00, 0x01, 0x00, 0x00, 0x00, 0x0c, 0x00, 0x10, 0x00, 0x00, 0x00, 0x0c, 0x00, 0x08, 0x00, 0x04, 0x00, 0x0c, 0x00, 0x00, 0x00, 0x01, 0x00, 0x00, 0x00, 0x01, 0x00, 0x00, 0x00, 0x01, 0x00, 0x00, 0x00, 0x01, 0x00, 0x00, 0x00, 0x13, 0x00, 0x00, 0x00, 0x03, 0x00, 0x00, 0x00, 0x12, 0x00, 0x00, 0x00, 0x0f, 0x00, 0x00, 0x00, 0x0e, 0x00, 0x00, 0x00, 0x00, 0x00, 0x0e, 0x00, 0x14, 0x00, 0x00, 0x00, 0x10, 0x00, 0x0c, 0x00, 0x0b, 0x00, 0x04, 0x00, 0x0e, 0x00, 0x00, 0x00, 0x1c, 0x00, 0x00, 0x00, 0x00, 0x00, 0x00, 0x01, 0x28, 0x00, 0x00, 0x00, 0x2c, 0x00, 0x00, 0x00, 0x0c, 0x00, 0x14, 0x00, 0x13, 0x00, 0x0c, 0x00, 0x08, 0x00, 0x07, 0x00, 0x0c, 0x00, 0x00, 0x00, 0x00, 0x00, 0x00, 0x01, 0x02, 0x00, 0x00, 0x00, 0x02, 0x00, 0x00, 0x00, 0x00, 0x00, 0x00, 0x01, 0x01, 0x00, 0x00, 0x00, 0x12, 0x00, 0x00, 0x00, 0x03, 0x00, 0x00, 0x00, 0x00, 0x00, 0x00, 0x00, 0x11, 0x00, 0x00, 0x00, 0x10, 0x00, 0x00, 0x00, 0x01, 0x00, 0x00, 0x00, 0x1b, 0x00, 0x00, 0x00, 0x01, 0x00, 0x00, 0x00, 0x00, 0x00, 0x00, 0x00, 0x1c, 0x00, 0x00, 0x00, 0x34, 0x0f, 0x00, 0x00, 0xd8, 0x0e, 0x00, 0x00, 0x60, 0x0e, 0x00, 0x00, 0xfc, 0x0d, 0x00, 0x00, 0x98, 0x0d, 0x00, 0x00, 0x2c, 0x0d, 0x00, 0x00, 0xc8, 0x0c, 0x00, 0x00, 0x5c, 0x0c, 0x00, 0x00, 0xf8, 0x0b, 0x00, 0x00, 0x8c, 0x0b, 0x00, 0x00, 0x28, 0x0b, 0x00, 0x00, 0xbc, 0x0a, 0x00, 0x00, 0x58, 0x0a, 0x00, 0x00, 0xec, 0x09, 0x00, 0x00, 0x88, 0x09, 0x00, 0x00, 0x1c, 0x09, 0x00, 0x00, 0xb8, 0x08, 0x00, 0x00, 0x4c, 0x08, 0x00, 0x00, 0x60, 0x07, 0x00, 0x00, 0x74, 0x06, 0x00, 0x00, 0x80, 0x05, 0x00, 0x00, 0x8c, 0x04, 0x00, 0x00, 0x98, 0x03, 0x00, 0x00, 0xa4, 0x02, 0x00, 0x00, 0xb0, 0x01, 0x00, 0x00, 0x1c, 0x01, 0x00, 0x00, 0x80, 0x00, 0x00, 0x00, 0x04, 0x00, 0x00, 0x00, 0x52, 0xf1, 0xff, 0xff, 0x00, 0x00, 0x00, 0x01, 0x18, 0x00, 0x00, 0x00, 0x20, 0x00, 0x00, 0x00, 0x3c, 0x00, 0x00, 0x00, 0x1c, 0x00, 0x00, 0x00, 0x00, 0x00, 0x00, 0x09, 0x50, 0x00, 0x00, 0x00, 0x02, 0x00, 0x00, 0x00, 0xff, 0xff, 0xff, 0xff, 0x04, 0x00, 0x00, 0x00, 0x34, 0xf1, 0xff, 0xff, 0x08, 0x00, 0x00, 0x00, 0x10, 0x00, 0x00, 0x00, 0x01, 0x00, 0x00, 0x00, 0x80, 0xff, 0xff, 0xff, 0xff, 0xff, 0xff, 0xff, 0x01, 0x00, 0x00, 0x00, 0x00, 0x00, 0x80, 0x3b, 0x1b, 0x00, 0x00, 0x00, 0x53, 0x74, 0x61, 0x74, 0x65, 0x66, 0x75, 0x6c, 0x50, 0x61, 0x72, 0x74, 0x69, 0x74, 0x69, 0x6f, 0x6e, 0x65, 0x64, 0x43, 0x61, 0x6c, 0x6c, 0x5f, 0x31, 0x3a, 0x30, 0x00, 0x02, 0x00, 0x00, 0x00, 0x01, 0x00, 0x00, 0x00, 0x04, 0x00, 0x00, 0x00, 0xca, 0xf1, 0xff, 0xff, 0x00, 0x00, 0x00, 0x01, 0x18, 0x00, 0x00, 0x00, 0x20, 0x00, 0x00, 0x00, 0x3c, 0x00, 0x00, 0x00, 0x1b, 0x00, 0x00, 0x00, 0x00, 0x00, 0x00, 0x09, 0x70, 0x00, 0x00, 0x00, 0x02, 0x00, 0x00, 0x00, 0xff, 0xff, 0xff, 0xff, 0x04, 0x00, 0x00, 0x00, 0xac, 0xf1, 0xff, 0xff, 0x08, 0x00, 0x00, 0x00, 0x10, 0x00, 0x00, 0x00, 0x01, 0x00, 0x00, 0x00, 0x23, 0x00, 0x00, 0x00, 0x00, 0x00, 0x00, 0x00, 0x01, 0x00, 0x00, 0x00, 0xe9, 0x58, 0x7f, 0x3d, 0x38, 0x00, 0x00, 0x00, 0x66, 0x75, 0x6e, 0x63, 0x74, 0x69, 0x6f, 0x6e, 0x61, 0x6c, 0x5f, 0x31, 0x2f, 0x64, 0x65, 0x6e, 0x73, 0x65, 0x5f, 0x31, 0x2f, 0x4d, 0x61, 0x74, 0x4d, 0x75, 0x6c, 0x3b, 0x66, 0x75, 0x6e, 0x63, 0x74, 0x69, 0x6f, 0x6e, 0x61, 0x6c, 0x5f, 0x31, 0x2f, 0x64, 0x65, 0x6e, 0x73, 0x65, 0x5f, 0x31, 0x2f, 0x42, 0x69, 0x61, 0x73, 0x41, 0x64, 0x64, 0x00, 0x00, 0x00, 0x00, 0x02, 0x00, 0x00, 0x00, 0x01, 0x00, 0x00, 0x00, 0x04, 0x00, 0x00, 0x00, 0x62, 0xf2, 0xff, 0xff, 0x00, 0x00, 0x00, 0x01, 0x18, 0x00, 0x00, 0x00, 0x20, 0x00, 0x00, 0x00, 0x40, 0x00, 0x00, 0x00, 0x1a, 0x00, 0x00, 0x00, 0x00, 0x00, 0x00, 0x09, 0x68, 0x00, 0x00, 0x00, 0x02, 0x00, 0x00, 0x00, 0xff, 0xff, 0xff, 0xff, 0x20, 0x00, 0x00, 0x00, 0x44, 0xf2, 0xff, 0xff, 0x08, 0x00, 0x00, 0x00, 0x14, 0x00, 0x00, 0x00, 0x01, 0x00, 0x00, 0x00, 0x80, 0xff, 0xff, 0xff, 0xff, 0xff, 0xff, 0xff, 0x00, 0x00, 0x00, 0x00, 0x01, 0x00, 0x00, 0x00, 0x8b, 0xf3, 0x17, 0x3c, 0x2c, 0x00, 0x00, 0x00, 0x66, 0x75, 0x6e, 0x63, 0x74, 0x69, 0x6f, 0x6e, 0x61, 0x6c, 0x5f, 0x31, 0x2f, 0x67, 0x6c, 0x6f, 0x62, 0x61, 0x6c, 0x5f, 0x61, 0x76, 0x65, 0x72, 0x61, 0x67, 0x65, 0x5f, 0x70, 0x6f, 0x6f, 0x6c, 0x69, 0x6e, 0x67, 0x32, 0x64, 0x5f, 0x31, 0x2f, 0x4d, 0x65, 0x61, 0x6e, 0x00, 0x00, 0x00, 0x00, 0x02, 0x00, 0x00, 0x00, 0x01, 0x00, 0x00, 0x00, 0x20, 0x00, 0x00, 0x00, 0xf2, 0xf2, 0xff, 0xff, 0x00, 0x00, 0x00, 0x01, 0x18, 0x00, 0x00, 0x00, 0x28, 0x00, 0x00, 0x00, 0x44, 0x00, 0x00, 0x00, 0x19, 0x00, 0x00, 0x00, 0x00, 0x00, 0x00, 0x09, 0xc0, 0x00, 0x00, 0x00, 0x04, 0x00, 0x00, 0x00, 0xff, 0xff, 0xff, 0xff, 0x18, 0x00, 0x00, 0x00, 0x18, 0x00, 0x00, 0x00, 0x20, 0x00, 0x00, 0x00, 0xdc, 0xf2, 0xff, 0xff, 0x08, 0x00, 0x00, 0x00, 0x10, 0x00, 0x00, 0x00, 0x01, 0x00, 0x00, 0x00, 0x80, 0xff, 0xff, 0xff, 0xff, 0xff, 0xff, 0xff, 0x01, 0x00, 0x00, 0x00, 0x11, 0x96, 0x9d, 0x3d, 0x80, 0x00, 0x00, 0x00, 0x66, 0x75, 0x6e, 0x63, 0x74, 0x69, 0x6f, 0x6e, 0x61, 0x6c, 0x5f, 0x31, 0x2f, 0x63, 0x6f, 0x6e, 0x76, 0x32, 0x64, 0x5f, 0x33, 0x5f, 0x31, 0x2f, 0x52, 0x65, 0x6c, 0x75, 0x3b, 0x66, 0x75, 0x6e, 0x63, 0x74, 0x69, 0x6f, 0x6e, 0x61, 0x6c, 0x5f, 0x31, 0x2f, 0x63, 0x6f, 0x6e, 0x76, 0x32, 0x64, 0x5f, 0x33, 0x5f, 0x31, 0x2f, 0x42, 0x69, 0x61, 0x73, 0x41, 0x64, 0x64, 0x3b, 0x66, 0x75, 0x6e, 0x63, 0x74, 0x69, 0x6f, 0x6e, 0x61, 0x6c, 0x5f, 0x31, 0x2f, 0x63, 0x6f, 0x6e, 0x76, 0x32, 0x64, 0x5f, 0x33, 0x5f, 0x31, 0x2f, 0x63, 0x6f, 0x6e, 0x76, 0x6f, 0x6c, 0x75, 0x74, 0x69, 0x6f, 0x6e, 0x3b, 0x66, 0x75, 0x6e, 0x63, 0x74, 0x69, 0x6f, 0x6e, 0x61, 0x6c, 0x5f, 0x31, 0x2f, 0x63, 0x6f, 0x6e, 0x76, 0x32, 0x64, 0x5f, 0x33, 0x5f, 0x31, 0x2f, 0x53, 0x71, 0x75, 0x65, 0x65, 0x7a, 0x65, 0x00, 0x00, 0x00, 0x00, 0x04, 0x00, 0x00, 0x00, 0x01, 0x00, 0x00, 0x00, 0x18, 0x00, 0x00, 0x00, 0x18, 0x00, 0x00, 0x00, 0x20, 0x00, 0x00, 0x00, 0xe2, 0xf3, 0xff, 0xff, 0x00, 0x00, 0x00, 0x01, 0x18, 0x00, 0x00, 0x00, 0x28, 0x00, 0x00, 0x00, 0x48, 0x00, 0x00, 0x00, 0x18, 0x00, 0x00, 0x00, 0x00, 0x00, 0x00, 0x09, 0xc0, 0x00, 0x00, 0x00, 0x04, 0x00, 0x00, 0x00, 0xff, 0xff, 0xff, 0xff, 0x18, 0x00, 0x00, 0x00, 0x18, 0x00, 0x00, 0x00, 0x18, 0x00, 0x00, 0x00, 0xcc, 0xf3, 0xff, 0xff, 0x08, 0x00, 0x00, 0x00, 0x14, 0x00, 0x00, 0x00, 0x01, 0x00, 0x00, 0x00, 0x05, 0x00, 0x00, 0x00, 0x00, 0x00, 0x00, 0x00, 0x00, 0x00, 0x00, 0x00, 0x01, 0x00, 0x00, 0x00, 0x65, 0xad, 0x24, 0x3e, 0x7f, 0x00, 0x00, 0x00, 0x66, 0x75, 0x6e, 0x63, 0x74, 0x69, 0x6f, 0x6e, 0x61, 0x6c, 0x5f, 0x31, 0x2f, 0x64, 0x65, 0x70, 0x74, 0x68, 0x77, 0x69, 0x73, 0x65, 0x5f, 0x63, 0x6f, 0x6e, 0x76, 0x32, 0x64, 0x5f, 0x32, 0x5f, 0x31, 0x2f, 0x42, 0x69, 0x61, 0x73, 0x41, 0x64, 0x64, 0x3b, 0x66, 0x75, 0x6e, 0x63, 0x74, 0x69, 0x6f, 0x6e, 0x61, 0x6c, 0x5f, 0x31, 0x2f, 0x64, 0x65, 0x70, 0x74, 0x68, 0x77, 0x69, 0x73, 0x65, 0x5f, 0x63, 0x6f, 0x6e, 0x76, 0x32, 0x64, 0x5f, 0x32, 0x5f, 0x31, 0x2f, 0x64, 0x65, 0x70, 0x74, 0x68, 0x77, 0x69, 0x73, 0x65, 0x3b, 0x66, 0x75, 0x6e, 0x63, 0x74, 0x69, 0x6f, 0x6e, 0x61, 0x6c, 0x5f, 0x31, 0x2f, 0x64, 0x65, 0x70, 0x74, 0x68, 0x77, 0x69, 0x73, 0x65, 0x5f, 0x63, 0x6f, 0x6e, 0x76, 0x32, 0x64, 0x5f, 0x32, 0x5f, 0x31, 0x2f, 0x53, 0x71, 0x75, 0x65, 0x65, 0x7a, 0x65, 0x00, 0x04, 0x00, 0x00, 0x00, 0x01, 0x00, 0x00, 0x00, 0x18, 0x00, 0x00, 0x00, 0x18, 0x00, 0x00, 0x00, 0x18, 0x00, 0x00, 0x00, 0xd2, 0xf4, 0xff, 0xff, 0x00, 0x00, 0x00, 0x01, 0x18, 0x00, 0x00, 0x00, 0x28, 0x00, 0x00, 0x00, 0x44, 0x00, 0x00, 0x00, 0x17, 0x00, 0x00, 0x00, 0x00, 0x00, 0x00, 0x09, 0xc0, 0x00, 0x00, 0x00, 0x04, 0x00, 0x00, 0x00, 0xff, 0xff, 0xff, 0xff, 0x18, 0x00, 0x00, 0x00, 0x18, 0x00, 0x00, 0x00, 0x18, 0x00, 0x00, 0x00, 0xbc, 0xf4, 0xff, 0xff, 0x08, 0x00, 0x00, 0x00, 0x10, 0x00, 0x00, 0x00, 0x01, 0x00, 0x00, 0x00, 0x80, 0xff, 0xff, 0xff, 0xff, 0xff, 0xff, 0xff, 0x01, 0x00, 0x00, 0x00, 0xbd, 0xac, 0x88, 0x3d, 0x80, 0x00, 0x00, 0x00, 0x66, 0x75, 0x6e, 0x63, 0x74, 0x69, 0x6f, 0x6e, 0x61, 0x6c, 0x5f, 0x31, 0x2f, 0x63, 0x6f, 0x6e, 0x76, 0x32, 0x64, 0x5f, 0x32, 0x5f, 0x31, 0x2f, 0x52, 0x65, 0x6c, 0x75, 0x3b, 0x66, 0x75, 0x6e, 0x63, 0x74, 0x69, 0x6f, 0x6e, 0x61, 0x6c, 0x5f, 0x31, 0x2f, 0x63, 0x6f, 0x6e, 0x76, 0x32, 0x64, 0x5f, 0x32, 0x5f, 0x31, 0x2f, 0x42, 0x69, 0x61, 0x73, 0x41, 0x64, 0x64, 0x3b, 0x66, 0x75, 0x6e, 0x63, 0x74, 0x69, 0x6f, 0x6e, 0x61, 0x6c, 0x5f, 0x31, 0x2f, 0x63, 0x6f, 0x6e, 0x76, 0x32, 0x64, 0x5f, 0x32, 0x5f, 0x31, 0x2f, 0x63, 0x6f, 0x6e, 0x76, 0x6f, 0x6c, 0x75, 0x74, 0x69, 0x6f, 0x6e, 0x3b, 0x66, 0x75, 0x6e, 0x63, 0x74, 0x69, 0x6f, 0x6e, 0x61, 0x6c, 0x5f, 0x31, 0x2f, 0x63, 0x6f, 0x6e, 0x76, 0x32, 0x64, 0x5f, 0x32, 0x5f, 0x31, 0x2f, 0x53, 0x71, 0x75, 0x65, 0x65, 0x7a, 0x65, 0x00, 0x00, 0x00, 0x00, 0x04, 0x00, 0x00, 0x00, 0x01, 0x00, 0x00, 0x00, 0x18, 0x00, 0x00, 0x00, 0x18, 0x00, 0x00, 0x00, 0x18, 0x00, 0x00, 0x00, 0xc2, 0xf5, 0xff, 0xff, 0x00, 0x00, 0x00, 0x01, 0x18, 0x00, 0x00, 0x00, 0x28, 0x00, 0x00, 0x00, 0x48, 0x00, 0x00, 0x00, 0x16, 0x00, 0x00, 0x00, 0x00, 0x00, 0x00, 0x09, 0xc0, 0x00, 0x00, 0x00, 0x04, 0x00, 0x00, 0x00, 0xff, 0xff, 0xff, 0xff, 0x18, 0x00, 0x00, 0x00, 0x18, 0x00, 0x00, 0x00, 0x10, 0x00, 0x00, 0x00, 0xac, 0xf5, 0xff, 0xff, 0x08, 0x00, 0x00, 0x00, 0x14, 0x00, 0x00, 0x00, 0x01, 0x00, 0x00, 0x00, 0xff, 0xff, 0xff, 0xff, 0xff, 0xff, 0xff, 0xff, 0x00, 0x00, 0x00, 0x00, 0x01, 0x00, 0x00, 0x00, 0x15, 0x1f, 0x60, 0x3d, 0x7f, 0x00, 0x00, 0x00, 0x66, 0x75, 0x6e, 0x63, 0x74, 0x69, 0x6f, 0x6e, 0x61, 0x6c, 0x5f, 0x31, 0x2f, 0x64, 0x65, 0x70, 0x74, 0x68, 0x77, 0x69, 0x73, 0x65, 0x5f, 0x63, 0x6f, 0x6e, 0x76, 0x32, 0x64, 0x5f, 0x31, 0x5f, 0x32, 0x2f, 0x42, 0x69, 0x61, 0x73, 0x41, 0x64, 0x64, 0x3b, 0x66, 0x75, 0x6e, 0x63, 0x74, 0x69, 0x6f, 0x6e, 0x61, 0x6c, 0x5f, 0x31, 0x2f, 0x64, 0x65, 0x70, 0x74, 0x68, 0x77, 0x69, 0x73, 0x65, 0x5f, 0x63, 0x6f, 0x6e, 0x76, 0x32, 0x64, 0x5f, 0x31, 0x5f, 0x32, 0x2f, 0x64, 0x65, 0x70, 0x74, 0x68, 0x77, 0x69, 0x73, 0x65, 0x3b, 0x66, 0x75, 0x6e, 0x63, 0x74, 0x69, 0x6f, 0x6e, 0x61, 0x6c, 0x5f, 0x31, 0x2f, 0x64, 0x65, 0x70, 0x74, 0x68, 0x77, 0x69, 0x73, 0x65, 0x5f, 0x63, 0x6f, 0x6e, 0x76, 0x32, 0x64, 0x5f, 0x31, 0x5f, 0x32, 0x2f, 0x53, 0x71, 0x75, 0x65, 0x65, 0x7a, 0x65, 0x00, 0x04, 0x00, 0x00, 0x00, 0x01, 0x00, 0x00, 0x00, 0x18, 0x00, 0x00, 0x00, 0x18, 0x00, 0x00, 0x00, 0x10, 0x00, 0x00, 0x00, 0xb2, 0xf6, 0xff, 0xff, 0x00, 0x00, 0x00, 0x01, 0x18, 0x00, 0x00, 0x00, 0x28, 0x00, 0x00, 0x00, 0x44, 0x00, 0x00, 0x00, 0x15, 0x00, 0x00, 0x00, 0x00, 0x00, 0x00, 0x09, 0xc0, 0x00, 0x00, 0x00, 0x04, 0x00, 0x00, 0x00, 0xff, 0xff, 0xff, 0xff, 0x2f, 0x00, 0x00, 0x00, 0x2f, 0x00, 0x00, 0x00, 0x10, 0x00, 0x00, 0x00, 0x9c, 0xf6, 0xff, 0xff, 0x08, 0x00, 0x00, 0x00, 0x10, 0x00, 0x00, 0x00, 0x01, 0x00, 0x00, 0x00, 0x80, 0xff, 0xff, 0xff, 0xff, 0xff, 0xff, 0xff, 0x01, 0x00, 0x00, 0x00, 0xc3, 0x34, 0x63, 0x3c, 0x80, 0x00, 0x00, 0x00, 0x66, 0x75, 0x6e, 0x63, 0x74, 0x69, 0x6f, 0x6e, 0x61, 0x6c, 0x5f, 0x31, 0x2f, 0x63, 0x6f, 0x6e, 0x76, 0x32, 0x64, 0x5f, 0x31, 0x5f, 0x32, 0x2f, 0x52, 0x65, 0x6c, 0x75, 0x3b, 0x66, 0x75, 0x6e, 0x63, 0x74, 0x69, 0x6f, 0x6e, 0x61, 0x6c, 0x5f, 0x31, 0x2f, 0x63, 0x6f, 0x6e, 0x76, 0x32, 0x64, 0x5f, 0x31, 0x5f, 0x32, 0x2f, 0x42, 0x69, 0x61, 0x73, 0x41, 0x64, 0x64, 0x3b, 0x66, 0x75, 0x6e, 0x63, 0x74, 0x69, 0x6f, 0x6e, 0x61, 0x6c, 0x5f, 0x31, 0x2f, 0x63, 0x6f, 0x6e, 0x76, 0x32, 0x64, 0x5f, 0x31, 0x5f, 0x32, 0x2f, 0x63, 0x6f, 0x6e, 0x76, 0x6f, 0x6c, 0x75, 0x74, 0x69, 0x6f, 0x6e, 0x3b, 0x66, 0x75, 0x6e, 0x63, 0x74, 0x69, 0x6f, 0x6e, 0x61, 0x6c, 0x5f, 0x31, 0x2f, 0x63, 0x6f, 0x6e, 0x76, 0x32, 0x64, 0x5f, 0x31, 0x5f, 0x32, 0x2f, 0x53, 0x71, 0x75, 0x65, 0x65, 0x7a, 0x65, 0x00, 0x00, 0x00, 0x00, 0x04, 0x00, 0x00, 0x00, 0x01, 0x00, 0x00, 0x00, 0x2f, 0x00, 0x00, 0x00, 0x2f, 0x00, 0x00, 0x00, 0x10, 0x00, 0x00, 0x00, 0xa2, 0xf7, 0xff, 0xff, 0x00, 0x00, 0x00, 0x01, 0x18, 0x00, 0x00, 0x00, 0x28, 0x00, 0x00, 0x00, 0x44, 0x00, 0x00, 0x00, 0x14, 0x00, 0x00, 0x00, 0x00, 0x00, 0x00, 0x09, 0xb8, 0x00, 0x00, 0x00, 0x04, 0x00, 0x00, 0x00, 0xff, 0xff, 0xff, 0xff, 0x2f, 0x00, 0x00, 0x00, 0x2f, 0x00, 0x00, 0x00, 0x08, 0x00, 0x00, 0x00, 0x8c, 0xf7, 0xff, 0xff, 0x08, 0x00, 0x00, 0x00, 0x10, 0x00, 0x00, 0x00, 0x01, 0x00, 0x00, 0x00, 0xf1, 0xff, 0xff, 0xff, 0xff, 0xff, 0xff, 0xff, 0x01, 0x00, 0x00, 0x00, 0x5a, 0x36, 0x65, 0x3c, 0x79, 0x00, 0x00, 0x00, 0x66, 0x75, 0x6e, 0x63, 0x74, 0x69, 0x6f, 0x6e, 0x61, 0x6c, 0x5f, 0x31, 0x2f, 0x64, 0x65, 0x70, 0x74, 0x68, 0x77, 0x69, 0x73, 0x65, 0x5f, 0x63, 0x6f, 0x6e, 0x76, 0x32, 0x64, 0x5f, 0x31, 0x2f, 0x42, 0x69, 0x61, 0x73, 0x41, 0x64, 0x64, 0x3b, 0x66, 0x75, 0x6e, 0x63, 0x74, 0x69, 0x6f, 0x6e, 0x61, 0x6c, 0x5f, 0x31, 0x2f, 0x64, 0x65, 0x70, 0x74, 0x68, 0x77, 0x69, 0x73, 0x65, 0x5f, 0x63, 0x6f, 0x6e, 0x76, 0x32, 0x64, 0x5f, 0x31, 0x2f, 0x64, 0x65, 0x70, 0x74, 0x68, 0x77, 0x69, 0x73, 0x65, 0x3b, 0x66, 0x75, 0x6e, 0x63, 0x74, 0x69, 0x6f, 0x6e, 0x61, 0x6c, 0x5f, 0x31, 0x2f, 0x64, 0x65, 0x70, 0x74, 0x68, 0x77, 0x69, 0x73, 0x65, 0x5f, 0x63, 0x6f, 0x6e, 0x76, 0x32, 0x64, 0x5f, 0x31, 0x2f, 0x53, 0x71, 0x75, 0x65, 0x65, 0x7a, 0x65, 0x00, 0x00, 0x00, 0x04, 0x00, 0x00, 0x00, 0x01, 0x00, 0x00, 0x00, 0x2f, 0x00, 0x00, 0x00, 0x2f, 0x00, 0x00, 0x00, 0x08, 0x00, 0x00, 0x00, 0x8a, 0xf8, 0xff, 0xff, 0x00, 0x00, 0x00, 0x01, 0x18, 0x00, 0x00, 0x00, 0x28, 0x00, 0x00, 0x00, 0x44, 0x00, 0x00, 0x00, 0x13, 0x00, 0x00, 0x00, 0x00, 0x00, 0x00, 0x09, 0xb8, 0x00, 0x00, 0x00, 0x04, 0x00, 0x00, 0x00, 0xff, 0xff, 0xff, 0xff, 0x2f, 0x00, 0x00, 0x00, 0x2f, 0x00, 0x00, 0x00, 0x08, 0x00, 0x00, 0x00, 0x74, 0xf8, 0xff, 0xff, 0x08, 0x00, 0x00, 0x00, 0x10, 0x00, 0x00, 0x00, 0x01, 0x00, 0x00, 0x00, 0x80, 0xff, 0xff, 0xff, 0xff, 0xff, 0xff, 0xff, 0x01, 0x00, 0x00, 0x00, 0xd0, 0x81, 0x0e, 0x3c, 0x79, 0x00, 0x00, 0x00, 0x66, 0x75, 0x6e, 0x63, 0x74, 0x69, 0x6f, 0x6e, 0x61, 0x6c, 0x5f, 0x31, 0x2f, 0x63, 0x6f, 0x6e, 0x76, 0x32, 0x64, 0x5f, 0x31, 0x2f, 0x52, 0x65, 0x6c, 0x75, 0x3b, 0x66, 0x75, 0x6e, 0x63, 0x74, 0x69, 0x6f, 0x6e, 0x61, 0x6c, 0x5f, 0x31, 0x2f, 0x63, 0x6f, 0x6e, 0x76, 0x32, 0x64, 0x5f, 0x31, 0x2f, 0x42, 0x69, 0x61, 0x73, 0x41, 0x64, 0x64, 0x3b, 0x66, 0x75, 0x6e, 0x63, 0x74, 0x69, 0x6f, 0x6e, 0x61, 0x6c, 0x5f, 0x31, 0x2f, 0x63, 0x6f, 0x6e, 0x76, 0x32, 0x64, 0x5f, 0x31, 0x2f, 0x63, 0x6f, 0x6e, 0x76, 0x6f, 0x6c, 0x75, 0x74, 0x69, 0x6f, 0x6e, 0x3b, 0x66, 0x75, 0x6e, 0x63, 0x74, 0x69, 0x6f, 0x6e, 0x61, 0x6c, 0x5f, 0x31, 0x2f, 0x63, 0x6f, 0x6e, 0x76, 0x32, 0x64, 0x5f, 0x31, 0x2f, 0x53, 0x71, 0x75, 0x65, 0x65, 0x7a, 0x65, 0x31, 0x00, 0x00, 0x00, 0x04, 0x00, 0x00, 0x00, 0x01, 0x00, 0x00, 0x00, 0x2f, 0x00, 0x00, 0x00, 0x2f, 0x00, 0x00, 0x00, 0x08, 0x00, 0x00, 0x00, 0xca, 0xf9, 0xff, 0xff, 0x00, 0x00, 0x00, 0x01, 0x14, 0x00, 0x00, 0x00, 0x30, 0x00, 0x00, 0x00, 0x12, 0x00, 0x00, 0x00, 0x00, 0x00, 0x00, 0x09, 0x3c, 0x00, 0x00, 0x00, 0x44, 0xf9, 0xff, 0xff, 0x08, 0x00, 0x00, 0x00, 0x10, 0x00, 0x00, 0x00, 0x01, 0x00, 0x00, 0x00, 0x00, 0x00, 0x00, 0x00, 0x00, 0x00, 0x00, 0x00, 0x01, 0x00, 0x00, 0x00, 0x82, 0xd5, 0xc4, 0x3b, 0x13, 0x00, 0x00, 0x00, 0x74, 0x66, 0x6c, 0x2e, 0x70, 0x73, 0x65, 0x75, 0x64, 0x6f, 0x5f, 0x71, 0x63, 0x6f, 0x6e, 0x73, 0x74, 0x31, 0x35, 0x00, 0x04, 0x00, 0x00, 0x00, 0x08, 0x00, 0x00, 0x00, 0x03, 0x00, 0x00, 0x00, 0x03, 0x00, 0x00, 0x00, 0x01, 0x00, 0x00, 0x00, 0x32, 0xfa, 0xff, 0xff, 0x00, 0x00, 0x00, 0x01, 0x14, 0x00, 0x00, 0x00, 0x34, 0x00, 0x00, 0x00, 0x11, 0x00, 0x00, 0x00, 0x00, 0x00, 0x00, 0x02, 0x40, 0x00, 0x00, 0x00, 0xac, 0xf9, 0xff, 0xff, 0x08, 0x00, 0x00, 0x00, 0x14, 0x00, 0x00, 0x00, 0x01, 0x00, 0x00, 0x00, 0x00, 0x00, 0x00, 0x00, 0x00, 0x00, 0x00, 0x00, 0x00, 0x00, 0x00, 0x00, 0x01, 0x00, 0x00, 0x00, 0x1e, 0x9b, 0xc5, 0x37, 0x13, 0x00, 0x00, 0x00, 0x74, 0x66, 0x6c, 0x2e, 0x70, 0x73, 0x65, 0x75, 0x64, 0x6f, 0x5f, 0x71, 0x63, 0x6f, 0x6e, 0x73, 0x74, 0x31, 0x34, 0x00, 0x01, 0x00, 0x00, 0x00, 0x08, 0x00, 0x00, 0x00, 0x92, 0xfa, 0xff, 0xff, 0x00, 0x00, 0x00, 0x01, 0x14, 0x00, 0x00, 0x00, 0x30, 0x00, 0x00, 0x00, 0x10, 0x00, 0x00, 0x00, 0x00, 0x00, 0x00, 0x09, 0x3c, 0x00, 0x00, 0x00, 0x0c, 0xfa, 0xff, 0xff, 0x08, 0x00, 0x00, 0x00, 0x10, 0x00, 0x00, 0x00, 0x01, 0x00, 0x00, 0x00, 0x00, 0x00, 0x00, 0x00, 0x00, 0x00, 0x00, 0x00, 0x01, 0x00, 0x00, 0x00, 0xce, 0x3a, 0x2a, 0x3c, 0x13, 0x00, 0x00, 0x00, 0x74, 0x66, 0x6c, 0x2e, 0x70, 0x73, 0x65, 0x75, 0x64, 0x6f, 0x5f, 0x71, 0x63, 0x6f, 0x6e, 0x73, 0x74, 0x31, 0x33, 0x00, 0x04, 0x00, 0x00, 0x00, 0x01, 0x00, 0x00, 0x00, 0x03, 0x00, 0x00, 0x00, 0x03, 0x00, 0x00, 0x00, 0x08, 0x00, 0x00, 0x00, 0xfa, 0xfa, 0xff, 0xff, 0x00, 0x00, 0x00, 0x01, 0x14, 0x00, 0x00, 0x00, 0x34, 0x00, 0x00, 0x00, 0x0f, 0x00, 0x00, 0x00, 0x00, 0x00, 0x00, 0x02, 0x40, 0x00, 0x00, 0x00, 0x74, 0xfa, 0xff, 0xff, 0x08, 0x00, 0x00, 0x00, 0x14, 0x00, 0x00, 0x00, 0x01, 0x00, 0x00, 0x00, 0x00, 0x00, 0x00, 0x00, 0x00, 0x00, 0x00, 0x00, 0x00, 0x00, 0x00, 0x00, 0x01, 0x00, 0x00, 0x00, 0xe0, 0x85, 0xbd, 0x38, 0x13, 0x00, 0x00, 0x00, 0x74, 0x66, 0x6c, 0x2e, 0x70, 0x73, 0x65, 0x75, 0x64, 0x6f, 0x5f, 0x71, 0x63, 0x6f, 0x6e, 0x73, 0x74, 0x31, 0x32, 0x00, 0x01, 0x00, 0x00, 0x00, 0x08, 0x00, 0x00, 0x00, 0x5a, 0xfb, 0xff, 0xff, 0x00, 0x00, 0x00, 0x01, 0x14, 0x00, 0x00, 0x00, 0x30, 0x00, 0x00, 0x00, 0x0e, 0x00, 0x00, 0x00, 0x00, 0x00, 0x00, 0x09, 0x3c, 0x00, 0x00, 0x00, 0xd4, 0xfa, 0xff, 0xff, 0x08, 0x00, 0x00, 0x00, 0x10, 0x00, 0x00, 0x00, 0x01, 0x00, 0x00, 0x00, 0x00, 0x00, 0x00, 0x00, 0x00, 0x00, 0x00, 0x00, 0x01, 0x00, 0x00, 0x00, 0x53, 0xcb, 0x64, 0x3c, 0x13, 0x00, 0x00, 0x00, 0x74, 0x66, 0x6c, 0x2e, 0x70, 0x73, 0x65, 0x75, 0x64, 0x6f, 0x5f, 0x71, 0x63, 0x6f, 0x6e, 0x73, 0x74, 0x31, 0x31, 0x00, 0x04, 0x00, 0x00, 0x00, 0x10, 0x00, 0x00, 0x00, 0x01, 0x00, 0x00, 0x00, 0x01, 0x00, 0x00, 0x00, 0x08, 0x00, 0x00, 0x00, 0xc2, 0xfb, 0xff, 0xff, 0x00, 0x00, 0x00, 0x01, 0x14, 0x00, 0x00, 0x00, 0x34, 0x00, 0x00, 0x00, 0x0d, 0x00, 0x00, 0x00, 0x00, 0x00, 0x00, 0x02, 0x40, 0x00, 0x00, 0x00, 0x3c, 0xfb, 0xff, 0xff, 0x08, 0x00, 0x00, 0x00, 0x14, 0x00, 0x00, 0x00, 0x01, 0x00, 0x00, 0x00, 0x00, 0x00, 0x00, 0x00, 0x00, 0x00, 0x00, 0x00, 0x00, 0x00, 0x00, 0x00, 0x01, 0x00, 0x00, 0x00, 0x75, 0xda, 0x4c, 0x39, 0x13, 0x00, 0x00, 0x00, 0x74, 0x66, 0x6c, 0x2e, 0x70, 0x73, 0x65, 0x75, 0x64, 0x6f, 0x5f, 0x71, 0x63, 0x6f, 0x6e, 0x73, 0x74, 0x31, 0x30, 0x00, 0x01, 0x00, 0x00, 0x00, 0x10, 0x00, 0x00, 0x00, 0x22, 0xfc, 0xff, 0xff, 0x00, 0x00, 0x00, 0x01, 0x14, 0x00, 0x00, 0x00, 0x30, 0x00, 0x00, 0x00, 0x0c, 0x00, 0x00, 0x00, 0x00, 0x00, 0x00, 0x09, 0x3c, 0x00, 0x00, 0x00, 0x9c, 0xfb, 0xff, 0xff, 0x08, 0x00, 0x00, 0x00, 0x10, 0x00, 0x00, 0x00, 0x01, 0x00, 0x00, 0x00, 0x00, 0x00, 0x00, 0x00, 0x00, 0x00, 0x00, 0x00, 0x01, 0x00, 0x00, 0x00, 0xbc, 0x80, 0x10, 0x3c, 0x12, 0x00, 0x00, 0x00, 0x74, 0x66, 0x6c, 0x2e, 0x70, 0x73, 0x65, 0x75, 0x64, 0x6f, 0x5f, 0x71, 0x63, 0x6f, 0x6e, 0x73, 0x74, 0x39, 0x00, 0x00, 0x04, 0x00, 0x00, 0x00, 0x01, 0x00, 0x00, 0x00, 0x03, 0x00, 0x00, 0x00, 0x03, 0x00, 0x00, 0x00, 0x10, 0x00, 0x00, 0x00, 0x8a, 0xfc, 0xff, 0xff, 0x00, 0x00, 0x00, 0x01, 0x14, 0x00, 0x00, 0x00, 0x34, 0x00, 0x00, 0x00, 0x0b, 0x00, 0x00, 0x00, 0x00, 0x00, 0x00, 0x02, 0x40, 0x00, 0x00, 0x00, 0x04, 0xfc, 0xff, 0xff, 0x08, 0x00, 0x00, 0x00, 0x14, 0x00, 0x00, 0x00, 0x01, 0x00, 0x00, 0x00, 0x00, 0x00, 0x00, 0x00, 0x00, 0x00, 0x00, 0x00, 0x00, 0x00, 0x00, 0x00, 0x01, 0x00, 0x00, 0x00, 0xef, 0x3f, 0x00, 0x39, 0x12, 0x00, 0x00, 0x00, 0x74, 0x66, 0x6c, 0x2e, 0x70, 0x73, 0x65, 0x75, 0x64, 0x6f, 0x5f, 0x71, 0x63, 0x6f, 0x6e, 0x73, 0x74, 0x38, 0x00, 0x00, 0x01, 0x00, 0x00, 0x00, 0x10, 0x00, 0x00, 0x00, 0xea, 0xfc, 0xff, 0xff, 0x00, 0x00, 0x00, 0x01, 0x14, 0x00, 0x00, 0x00, 0x30, 0x00, 0x00, 0x00, 0x0a, 0x00, 0x00, 0x00, 0x00, 0x00, 0x00, 0x09, 0x3c, 0x00, 0x00, 0x00, 0x64, 0xfc, 0xff, 0xff, 0x08, 0x00, 0x00, 0x00, 0x10, 0x00, 0x00, 0x00, 0x01, 0x00, 0x00, 0x00, 0x00, 0x00, 0x00, 0x00, 0x00, 0x00, 0x00, 0x00, 0x01, 0x00, 0x00, 0x00, 0xe1, 0x4d, 0x2a, 0x3c, 0x12, 0x00, 0x00, 0x00, 0x74, 0x66, 0x6c, 0x2e, 0x70, 0x73, 0x65, 0x75, 0x64, 0x6f, 0x5f, 0x71, 0x63, 0x6f, 0x6e, 0x73, 0x74, 0x37, 0x00, 0x00, 0x04, 0x00, 0x00, 0x00, 0x18, 0x00, 0x00, 0x00, 0x01, 0x00, 0x00, 0x00, 0x01, 0x00, 0x00, 0x00, 0x10, 0x00, 0x00, 0x00, 0x52, 0xfd, 0xff, 0xff, 0x00, 0x00, 0x00, 0x01, 0x14, 0x00, 0x00, 0x00, 0x34, 0x00, 0x00, 0x00, 0x09, 0x00, 0x00, 0x00, 0x00, 0x00, 0x00, 0x02, 0x40, 0x00, 0x00, 0x00, 0xcc, 0xfc, 0xff, 0xff, 0x08, 0x00, 0x00, 0x00, 0x14, 0x00, 0x00, 0x00, 0x01, 0x00, 0x00, 0x00, 0x00, 0x00, 0x00, 0x00, 0x00, 0x00, 0x00, 0x00, 0x00, 0x00, 0x00, 0x00, 0x01, 0x00, 0x00, 0x00, 0xd2, 0x18, 0x15, 0x3a, 0x12, 0x00, 0x00, 0x00, 0x74, 0x66, 0x6c, 0x2e, 0x70, 0x73, 0x65, 0x75, 0x64, 0x6f, 0x5f, 0x71, 0x63, 0x6f, 0x6e, 0x73, 0x74, 0x36, 0x00, 0x00, 0x01, 0x00, 0x00, 0x00, 0x18, 0x00, 0x00, 0x00, 0xb2, 0xfd, 0xff, 0xff, 0x00, 0x00, 0x00, 0x01, 0x14, 0x00, 0x00, 0x00, 0x30, 0x00, 0x00, 0x00, 0x08, 0x00, 0x00, 0x00, 0x00, 0x00, 0x00, 0x09, 0x3c, 0x00, 0x00, 0x00, 0x2c, 0xfd, 0xff, 0xff, 0x08, 0x00, 0x00, 0x00, 0x10, 0x00, 0x00, 0x00, 0x01, 0x00, 0x00, 0x00, 0x00, 0x00, 0x00, 0x00, 0x00, 0x00, 0x00, 0x00, 0x01, 0x00, 0x00, 0x00, 0x37, 0x31, 0xe4, 0x3b, 0x12, 0x00, 0x00, 0x00, 0x74, 0x66, 0x6c, 0x2e, 0x70, 0x73, 0x65, 0x75, 0x64, 0x6f, 0x5f, 0x71, 0x63, 0x6f, 0x6e, 0x73, 0x74, 0x35, 0x00, 0x00, 0x04, 0x00, 0x00, 0x00, 0x01, 0x00, 0x00, 0x00, 0x03, 0x00, 0x00, 0x00, 0x03, 0x00, 0x00, 0x00, 0x18, 0x00, 0x00, 0x00, 0x1a, 0xfe, 0xff, 0xff, 0x00, 0x00, 0x00, 0x01, 0x14, 0x00, 0x00, 0x00, 0x34, 0x00, 0x00, 0x00, 0x07, 0x00, 0x00, 0x00, 0x00, 0x00, 0x00, 0x02, 0x40, 0x00, 0x00, 0x00, 0x94, 0xfd, 0xff, 0xff, 0x08, 0x00, 0x00, 0x00, 0x14, 0x00, 0x00, 0x00, 0x01, 0x00, 0x00, 0x00, 0x00, 0x00, 0x00, 0x00, 0x00, 0x00, 0x00, 0x00, 0x00, 0x00, 0x00, 0x00, 0x01, 0x00, 0x00, 0x00, 0x3e, 0xa8, 0xf3, 0x39, 0x12, 0x00, 0x00, 0x00, 0x74, 0x66, 0x6c, 0x2e, 0x70, 0x73, 0x65, 0x75, 0x64, 0x6f, 0x5f, 0x71, 0x63, 0x6f, 0x6e, 0x73, 0x74, 0x34, 0x00, 0x00, 0x01, 0x00, 0x00, 0x00, 0x18, 0x00, 0x00, 0x00, 0x7a, 0xfe, 0xff, 0xff, 0x00, 0x00, 0x00, 0x01, 0x14, 0x00, 0x00, 0x00, 0x30, 0x00, 0x00, 0x00, 0x06, 0x00, 0x00, 0x00, 0x00, 0x00, 0x00, 0x09, 0x3c, 0x00, 0x00, 0x00, 0xf4, 0xfd, 0xff, 0xff, 0x08, 0x00, 0x00, 0x00, 0x10, 0x00, 0x00, 0x00, 0x01, 0x00, 0x00, 0x00, 0x00, 0x00, 0x00, 0x00, 0x00, 0x00, 0x00, 0x00, 0x01, 0x00, 0x00, 0x00, 0x31, 0x08, 0x47, 0x3c, 0x12, 0x00, 0x00, 0x00, 0x74, 0x66, 0x6c, 0x2e, 0x70, 0x73, 0x65, 0x75, 0x64, 0x6f, 0x5f, 0x71, 0x63, 0x6f, 0x6e, 0x73, 0x74, 0x33, 0x00, 0x00, 0x04, 0x00, 0x00, 0x00, 0x20, 0x00, 0x00, 0x00, 0x01, 0x00, 0x00, 0x00, 0x01, 0x00, 0x00, 0x00, 0x18, 0x00, 0x00, 0x00, 0xe2, 0xfe, 0xff, 0xff, 0x00, 0x00, 0x00, 0x01, 0x14, 0x00, 0x00, 0x00, 0x34, 0x00, 0x00, 0x00, 0x05, 0x00, 0x00, 0x00, 0x00, 0x00, 0x00, 0x02, 0x40, 0x00, 0x00, 0x00, 0x5c, 0xfe, 0xff, 0xff, 0x08, 0x00, 0x00, 0x00, 0x14, 0x00, 0x00, 0x00, 0x01, 0x00, 0x00, 0x00, 0x00, 0x00, 0x00, 0x00, 0x00, 0x00, 0x00, 0x00, 0x00, 0x00, 0x00, 0x00, 0x01, 0x00, 0x00, 0x00, 0x0e, 0x08, 0x00, 0x3b, 0x12, 0x00, 0x00, 0x00, 0x74, 0x66, 0x6c, 0x2e, 0x70, 0x73, 0x65, 0x75, 0x64, 0x6f, 0x5f, 0x71, 0x63, 0x6f, 0x6e, 0x73, 0x74, 0x32, 0x00, 0x00, 0x01, 0x00, 0x00, 0x00, 0x20, 0x00, 0x00, 0x00, 0x42, 0xff, 0xff, 0xff, 0x00, 0x00, 0x00, 0x01, 0x14, 0x00, 0x00, 0x00, 0x30, 0x00, 0x00, 0x00, 0x04, 0x00, 0x00, 0x00, 0x00, 0x00, 0x00, 0x09, 0x3c, 0x00, 0x00, 0x00, 0xbc, 0xfe, 0xff, 0xff, 0x08, 0x00, 0x00, 0x00, 0x10, 0x00, 0x00, 0x00, 0x01, 0x00, 0x00, 0x00, 0x00, 0x00, 0x00, 0x00, 0x00, 0x00, 0x00, 0x00, 0x01, 0x00, 0x00, 0x00, 0x3d, 0xc2, 0x14, 0x3c, 0x12, 0x00, 0x00, 0x00, 0x74, 0x66, 0x6c, 0x2e, 0x70, 0x73, 0x65, 0x75, 0x64, 0x6f, 0x5f, 0x71, 0x63, 0x6f, 0x6e, 0x73, 0x74, 0x31, 0x00, 0x00, 0x02, 0x00, 0x00, 0x00, 0x04, 0x00, 0x00, 0x00, 0x20, 0x00, 0x00, 0x00, 0xa2, 0xff, 0xff, 0xff, 0x00, 0x00, 0x00, 0x01, 0x14, 0x00, 0x00, 0x00, 0x30, 0x00, 0x00, 0x00, 0x03, 0x00, 0x00, 0x00, 0x00, 0x00, 0x00, 0x02, 0x3c, 0x00, 0x00, 0x00, 0x1c, 0xff, 0xff, 0xff, 0x08, 0x00, 0x00, 0x00, 0x10, 0x00, 0x00, 0x00, 0x01, 0x00, 0x00, 0x00, 0x00, 0x00, 0x00, 0x00, 0x00, 0x00, 0x00, 0x00, 0x01, 0x00, 0x00, 0x00, 0x2e, 0x98, 0xb0, 0x38, 0x11, 0x00, 0x00, 0x00, 0x74, 0x66, 0x6c, 0x2e, 0x70, 0x73, 0x65, 0x75, 0x64, 0x6f, 0x5f, 0x71, 0x63, 0x6f, 0x6e, 0x73, 0x74, 0x00, 0x00, 0x00, 0x01, 0x00, 0x00, 0x00, 0x04, 0x00, 0x00, 0x00, 0x00, 0x00, 0x16, 0x00, 0x1c, 0x00, 0x18, 0x00, 0x17, 0x00, 0x10, 0x00, 0x0c, 0x00, 0x08, 0x00, 0x00, 0x00, 0x00, 0x00, 0x00, 0x00, 0x07, 0x00, 0x16, 0x00, 0x00, 0x00, 0x00, 0x00, 0x00, 0x01, 0x18, 0x00, 0x00, 0x00, 0x18, 0x00, 0x00, 0x00, 0x02, 0x00, 0x00, 0x00, 0x00, 0x00, 0x00, 0x02, 0x20, 0x00, 0x00, 0x00, 0x04, 0x00, 0x04, 0x00, 0x04, 0x00, 0x00, 0x00, 0x0e, 0x00, 0x00, 0x00, 0x61, 0x72, 0x69, 0x74, 0x68, 0x2e, 0x63, 0x6f, 0x6e, 0x73, 0x74, 0x61, 0x6e, 0x74, 0x00, 0x00, 0x01, 0x00, 0x00, 0x00, 0x02, 0x00, 0x00, 0x00, 0x00, 0x00, 0x16, 0x00, 0x20, 0x00, 0x1c, 0x00, 0x1b, 0x00, 0x14, 0x00, 0x10, 0x00, 0x0c, 0x00, 0x00, 0x00, 0x00, 0x00, 0x08, 0x00, 0x07, 0x00, 0x16, 0x00, 0x00, 0x00, 0x00, 0x00, 0x00, 0x01, 0x18, 0x00, 0x00, 0x00, 0x34, 0x00, 0x00, 0x00, 0x54, 0x00, 0x00, 0x00, 0x01, 0x00, 0x00, 0x00, 0x00, 0x00, 0x00, 0x09, 0x6c, 0x00, 0x00, 0x00, 0x04, 0x00, 0x00, 0x00, 0xff, 0xff, 0xff, 0xff, 0x60, 0x00, 0x00, 0x00, 0x60, 0x00, 0x00, 0x00, 0x01, 0x00, 0x00, 0x00, 0x0c, 0x00, 0x0c, 0x00, 0x00, 0x00, 0x00, 0x00, 0x08, 0x00, 0x04, 0x00, 0x0c, 0x00, 0x00, 0x00, 0x08, 0x00, 0x00, 0x00, 0x14, 0x00, 0x00, 0x00, 0x01, 0x00, 0x00, 0x00, 0x80, 0xff, 0xff, 0xff, 0xff, 0xff, 0xff, 0xff, 0x00, 0x00, 0x00, 0x00, 0x01, 0x00, 0x00, 0x00, 0x81, 0x80, 0x80, 0x3b, 0x1e, 0x00, 0x00, 0x00, 0x73, 0x65, 0x72, 0x76, 0x69, 0x6e, 0x67, 0x5f, 0x64, 0x65, 0x66, 0x61, 0x75, 0x6c, 0x74, 0x5f, 0x6b, 0x65, 0x72, 0x61, 0x73, 0x5f, 0x74, 0x65, 0x6e, 0x73, 0x6f, 0x72, 0x3a, 0x30, 0x00, 0x00, 0x04, 0x00, 0x00, 0x00, 0x01, 0x00, 0x00, 0x00, 0x60, 0x00, 0x00, 0x00, 0x60, 0x00, 0x00, 0x00, 0x01, 0x00, 0x00, 0x00, 0x05, 0x00, 0x00, 0x00, 0x60, 0x00, 0x00, 0x00, 0x40, 0x00, 0x00, 0x00, 0x2c, 0x00, 0x00, 0x00, 0x18, 0x00, 0x00, 0x00, 0x04, 0x00, 0x00, 0x00, 0xc0, 0xff, 0xff, 0xff, 0x19, 0x00, 0x00, 0x00, 0x02, 0x00, 0x00, 0x00, 0x00, 0x00, 0x00, 0x19, 0xd0, 0xff, 0xff, 0xff, 0x09, 0x00, 0x00, 0x00, 0x04, 0x00, 0x00, 0x00, 0x00, 0x00, 0x00, 0x09, 0xe0, 0xff, 0xff, 0xff, 0x28, 0x00, 0x00, 0x00, 0x02, 0x00, 0x00, 0x00, 0x00, 0x00, 0x00, 0x28, 0xf0, 0xff, 0xff, 0xff, 0x04, 0x00, 0x00, 0x00, 0x03, 0x00, 0x00, 0x00, 0x00, 0x00, 0x00, 0x04, 0x0c, 0x00, 0x10, 0x00, 0x0f, 0x00, 0x00, 0x00, 0x08, 0x00, 0x04, 0x00, 0x0c, 0x00, 0x00, 0x00, 0x03, 0x00, 0x00, 0x00, 0x03, 0x00, 0x00, 0x00, 0x00, 0x00, 0x00, 0x03
};

const unsigned int B6114_MCUNet_model_len = 8304;
