const unsigned char B6164_MicroNet_model[] = {
0x20, 0x00, 0x00, 0x00, 0x54, 0x46, 0x4c, 0x33, 0x00, 0x00, 0x00, 0x00, 0x14, 0x00, 0x20, 0x00, 0x1c, 0x00, 0x18, 0x00, 0x14, 0x00, 0x10, 0x00, 0x0c, 0x00, 0x00, 0x00, 0x08, 0x00, 0x04, 0x00, 0x14, 0x00, 0x00, 0x00, 0x1c, 0x00, 0x00, 0x00, 0x98, 0x00, 0x00, 0x00, 0x18, 0x01, 0x00, 0x00, 0xc8, 0x0c, 0x00, 0x00, 0xd8, 0x0c, 0x00, 0x00, 0xc4, 0x1f, 0x00, 0x00, 0x03, 0x00, 0x00, 0x00, 0x01, 0x00, 0x00, 0x00, 0x10, 0x00, 0x00, 0x00, 0x00, 0x00, 0x0a, 0x00, 0x10, 0x00, 0x0c, 0x00, 0x08, 0x00, 0x04, 0x00, 0x0a, 0x00, 0x00, 0x00, 0x0c, 0x00, 0x00, 0x00, 0x1c, 0x00, 0x00, 0x00, 0x3c, 0x00, 0x00, 0x00, 0x0f, 0x00, 0x00, 0x00, 0x73, 0x65, 0x72, 0x76, 0x69, 0x6e, 0x67, 0x5f, 0x64, 0x65, 0x66, 0x61, 0x75, 0x6c, 0x74, 0x00, 0x01, 0x00, 0x00, 0x00, 0x04, 0x00, 0x00, 0x00, 0x68, 0xff, 0xff, 0xff, 0x1b, 0x00, 0x00, 0x00, 0x04, 0x00, 0x00, 0x00, 0x08, 0x00, 0x00, 0x00, 0x6f, 0x75, 0x74, 0x70, 0x75, 0x74, 0x5f, 0x30, 0x00, 0x00, 0x00, 0x00, 0x01, 0x00, 0x00, 0x00, 0x04, 0x00, 0x00, 0x00, 0x06, 0xf3, 0xff, 0xff, 0x04, 0x00, 0x00, 0x00, 0x0c, 0x00, 0x00, 0x00, 0x6b, 0x65, 0x72, 0x61, 0x73, 0x5f, 0x74, 0x65, 0x6e, 0x73, 0x6f, 0x72, 0x00, 0x00, 0x00, 0x00, 0x03, 0x00, 0x00, 0x00, 0x5c, 0x00, 0x00, 0x00, 0x2c, 0x00, 0x00, 0x00, 0x04, 0x00, 0x00, 0x00, 0xb8, 0xff, 0xff, 0xff, 0x1f, 0x00, 0x00, 0x00, 0x04, 0x00, 0x00, 0x00, 0x13, 0x00, 0x00, 0x00, 0x43, 0x4f, 0x4e, 0x56, 0x45, 0x52, 0x53, 0x49, 0x4f, 0x4e, 0x5f, 0x4d, 0x45, 0x54, 0x41, 0x44, 0x41, 0x54, 0x41, 0x00, 0xdc, 0xff, 0xff, 0xff, 0x1e, 0x00, 0x00, 0x00, 0x04, 0x00, 0x00, 0x00, 0x13, 0x00, 0x00, 0x00, 0x6d, 0x69, 0x6e, 0x5f, 0x72, 0x75, 0x6e, 0x74, 0x69, 0x6d, 0x65, 0x5f, 0x76, 0x65, 0x72, 0x73, 0x69, 0x6f, 0x6e, 0x00, 0x08, 0x00, 0x0c, 0x00, 0x08, 0x00, 0x04, 0x00, 0x08, 0x00, 0x00, 0x00, 0x1d, 0x00, 0x00, 0x00, 0x04, 0x00, 0x00, 0x00, 0x13, 0x00, 0x00, 0x00, 0x6d, 0x69, 0x6e, 0x5f, 0x72, 0x75, 0x6e, 0x74, 0x69, 0x6d, 0x65, 0x5f, 0x76, 0x65, 0x72, 0x73, 0x69, 0x6f, 0x6e, 0x00, 0x20, 0x00, 0x00, 0x00, 0xac, 0x0b, 0x00, 0x00, 0xa4, 0x0b, 0x00, 0x00, 0x8c, 0x0b, 0x00, 0x00, 0x6c, 0x0b, 0x00, 0x00, 0xdc, 0x0a, 0x00, 0x00, 0x4c, 0x0a, 0x00, 0x00, 0x3c, 0x07, 0x00, 0x00, 0xcc, 0x06, 0x00, 0x00, 0xe4, 0x05, 0x00, 0x00, 0x74, 0x05, 0x00, 0x00, 0xe4, 0x03, 0x00, 0x00, 0x94, 0x03, 0x00, 0x00, 0xf4, 0x02, 0x00, 0x00, 0xa4, 0x02, 0x00, 0x00, 0x14, 0x02, 0x00, 0x00, 0xe4, 0x01, 0x00, 0x00, 0x8c, 0x01, 0x00, 0x00, 0x5c, 0x01, 0x00, 0x00, 0x04, 0x01, 0x00, 0x00, 0xfc, 0x00, 0x00, 0x00, 0xf4, 0x00, 0x00, 0x00, 0xec, 0x00, 0x00, 0x00, 0xe4, 0x00, 0x00, 0x00, 0xdc, 0x00, 0x00, 0x00, 0xd4, 0x00, 0x00, 0x00, 0xcc, 0x00, 0x00, 0x00, 0xc4, 0x00, 0x00, 0x00, 0xbc, 0x00, 0x00, 0x00, 0xb4, 0x00, 0x00, 0x00, 0x94, 0x00, 0x00, 0x00, 0x74, 0x00, 0x00, 0x00, 0x04, 0x00, 0x00, 0x00, 0x2a, 0xf4, 0xff, 0xff, 0x04, 0x00, 0x00, 0x00, 0x60, 0x00, 0x00, 0x00, 0x0c, 0x00, 0x00, 0x00, 0x08, 0x00, 0x0e, 0x00, 0x08, 0x00, 0x04, 0x00, 0x08, 0x00, 0x00, 0x00, 0x10, 0x00, 0x00, 0x00, 0x28, 0x00, 0x00, 0x00, 0x00, 0x00, 0x06, 0x00, 0x08, 0x00, 0x04, 0x00, 0x06, 0x00, 0x00, 0x00, 0x04, 0x00, 0x00, 0x00, 0x01, 0x00, 0x00, 0x00, 0xeb, 0x03, 0x00, 0x00, 0x0c, 0x00, 0x18, 0x00, 0x14, 0x00, 0x10, 0x00, 0x0c, 0x00, 0x04, 0x00, 0x0c, 0x00, 0x00, 0x00, 0xd4, 0x0c, 0x84, 0x2d, 0x2e, 0x5e, 0x6d, 0x22, 0x02, 0x00, 0x00, 0x00, 0x02, 0x00, 0x00, 0x00, 0x04, 0x00, 0x00, 0x00, 0x06, 0x00, 0x00, 0x00, 0x32, 0x2e, 0x31, 0x39, 0x2e, 0x30, 0x00, 0x00, 0x96, 0xf4, 0xff, 0xff, 0x04, 0x00, 0x00, 0x00, 0x10, 0x00, 0x00, 0x00, 0x00, 0x00, 0x00, 0x00, 0x00, 0x00, 0x00, 0x00, 0x00, 0x00, 0x00, 0x00, 0x00, 0x00, 0x00, 0x00, 0xb2, 0xf4, 0xff, 0xff, 0x04, 0x00, 0x00, 0x00, 0x10, 0x00, 0x00, 0x00, 0x31, 0x2e, 0x31, 0x34, 0x2e, 0x30, 0x00, 0x00, 0x00, 0x00, 0x00, 0x00, 0x00, 0x00, 0x00, 0x00, 0x48, 0xe3, 0xff, 0xff, 0x4c, 0xe3, 0xff, 0xff, 0x50, 0xe3, 0xff, 0xff, 0x54, 0xe3, 0xff, 0xff, 0x58, 0xe3, 0xff, 0xff, 0x5c, 0xe3, 0xff, 0xff, 0x60, 0xe3, 0xff, 0xff, 0x64, 0xe3, 0xff, 0xff, 0x68, 0xe3, 0xff, 0xff, 0x6c, 0xe3, 0xff, 0xff, 0xf6, 0xf4, 0xff, 0xff, 0x04, 0x00, 0x00, 0x00, 0x48, 0x00, 0x00, 0x00, 0x2b, 0xcc, 0xd9, 0xc5, 0xc6, 0x05, 0x2b, 0x0d, 0xfc, 0xf4, 0x22, 0x06, 0xc7, 0xc3, 0xe1, 0xc4, 0x49, 0x34, 0x40, 0x2c, 0x7f, 0x6d, 0x61, 0x68, 0xfe, 0x5c, 0x2f, 0xff, 0x19, 0xe5, 0xc6, 0x45, 0x2b, 0xd4, 0x39, 0x46, 0x5e, 0xf9, 0x0c, 0x60, 0xe4, 0x17, 0x63, 0x48, 0x02, 0x08, 0xec, 0x18, 0x23, 0x10, 0x64, 0x17, 0x44, 0x45, 0x50, 0x0b, 0x3d, 0x5e, 0x5b, 0xe2, 0x56, 0x46, 0xf4, 0x4e, 0xa6, 0x3e, 0x00, 0x45, 0xae, 0xfe, 0xb2, 0x0a, 0x4a, 0xf5, 0xff, 0xff, 0x04, 0x00, 0x00, 0x00, 0x20, 0x00, 0x00, 0x00, 0x70, 0x4d, 0x00, 0x00, 0xff, 0x1c, 0x00, 0x00, 0x3a, 0xe5, 0xff, 0xff, 0x11, 0xee, 0xff, 0xff, 0x23, 0xd7, 0xff, 0xff, 0x38, 0xfd, 0xff, 0xff, 0xb4, 0xee, 0xff, 0xff, 0x38, 0x05, 0x00, 0x00, 0x76, 0xf5, 0xff, 0xff, 0x04, 0x00, 0x00, 0x00, 0x48, 0x00, 0x00, 0x00, 0x36, 0xfa, 0x1c, 0x08, 0x03, 0xfc, 0xf3, 0xc1, 0x2d, 0xb8, 0x12, 0x0c, 0x07, 0x0f, 0xee, 0x9e, 0x23, 0xfb, 0x00, 0x04, 0xf3, 0x1b, 0x07, 0xc5, 0x21, 0xe3, 0x00, 0x13, 0x0e, 0x02, 0xf7, 0x97, 0x1e, 0xc1, 0x0e, 0x05, 0x27, 0xfd, 0xe1, 0x96, 0x18, 0xcc, 0xf4, 0x06, 0x03, 0x14, 0xf4, 0x91, 0x1d, 0xf3, 0xfa, 0x22, 0xf7, 0x12, 0xf1, 0xbf, 0x1d, 0xaf, 0xef, 0x06, 0x0b, 0x0f, 0xdd, 0x81, 0x31, 0xd9, 0xf1, 0xfe, 0x0a, 0x0c, 0xed, 0xb7, 0xca, 0xf5, 0xff, 0xff, 0x04, 0x00, 0x00, 0x00, 0x20, 0x00, 0x00, 0x00, 0x0e, 0x02, 0x00, 0x00, 0x6f, 0xfe, 0xff, 0xff, 0x51, 0xfd, 0xff, 0xff, 0x04, 0xfd, 0xff, 0xff, 0x40, 0xfa, 0xff, 0xff, 0x86, 0x00, 0x00, 0x00, 0xca, 0x04, 0x00, 0x00, 0x80, 0xfe, 0xff, 0xff, 0xf6, 0xf5, 0xff, 0xff, 0x04, 0x00, 0x00, 0x00, 0x80, 0x00, 0x00, 0x00, 0x0b, 0x33, 0x33, 0x1e, 0x18, 0xf8, 0xf4, 0x43, 0xf8, 0xfa, 0x1e, 0xf9, 0xe4, 0x16, 0xf4, 0x39, 0x02, 0x14, 0x1a, 0x04, 0xfe, 0x0c, 0xff, 0xae, 0x11, 0xf6, 0xf6, 0xd5, 0xae, 0x9b, 0x7f, 0x06, 0x36, 0xe6, 0xac, 0xbd, 0xa9, 0x11, 0x43, 0x04, 0x01, 0xf8, 0xe7, 0xcf, 0xd9, 0xa6, 0x75, 0xdb, 0x1c, 0xda, 0xe1, 0x13, 0xfe, 0xe8, 0xe3, 0xe1, 0x18, 0x25, 0xfe, 0x02, 0x1d, 0x1b, 0xfd, 0x32, 0xfb, 0x03, 0xe3, 0x16, 0x02, 0x04, 0xfa, 0xbf, 0x27, 0x1b, 0x9a, 0x28, 0x33, 0x1d, 0xf3, 0xb1, 0xc6, 0x15, 0x67, 0x18, 0xfb, 0x11, 0xd7, 0x84, 0x1a, 0x44, 0xf7, 0xf2, 0xf7, 0xea, 0xe0, 0x70, 0xbc, 0x3a, 0xff, 0x1b, 0x21, 0x10, 0xdd, 0x53, 0xb6, 0x24, 0x1a, 0x28, 0xfd, 0x06, 0xe5, 0x17, 0xfb, 0xf3, 0xf4, 0xda, 0x1d, 0xea, 0xe6, 0xd4, 0xf2, 0xe3, 0x14, 0x17, 0xcc, 0x14, 0x1a, 0xa7, 0x82, 0xf6, 0xff, 0xff, 0x04, 0x00, 0x00, 0x00, 0x40, 0x00, 0x00, 0x00, 0x7d, 0xff, 0xff, 0xff, 0xe7, 0x01, 0x00, 0x00, 0x97, 0xff, 0xff, 0xff, 0x48, 0x00, 0x00, 0x00, 0x84, 0x02, 0x00, 0x00, 0xe6, 0xff, 0xff, 0xff, 0xa4, 0xfd, 0xff, 0xff, 0x27, 0x00, 0x00, 0x00, 0xe5, 0x00, 0x00, 0x00, 0x0b, 0xff, 0xff, 0xff, 0x66, 0xfd, 0xff, 0xff, 0xc9, 0x00, 0x00, 0x00, 0x51, 0xfe, 0xff, 0xff, 0x19, 0xfe, 0xff, 0xff, 0xb6, 0xff, 0xff, 0xff, 0xc7, 0x00, 0x00, 0x00, 0xce, 0xf6, 0xff, 0xff, 0x04, 0x00, 0x00, 0x00, 0x90, 0x00, 0x00, 0x00, 0x13, 0x0e, 0x37, 0x26, 0x2a, 0x4b, 0x1f, 0x19, 0xf9, 0x0d, 0x0e, 0x04, 0x05, 0xff, 0x0a, 0x3c, 0x13, 0x0d, 0x35, 0x45, 0x2a, 0x42, 0x1c, 0x10, 0x23, 0x1a, 0xd5, 0xf6, 0xd8, 0x0f, 0xf1, 0x2c, 0x0c, 0x18, 0x1d, 0x2f, 0x36, 0x46, 0x17, 0x14, 0x09, 0x30, 0xe7, 0xe9, 0xe8, 0x1c, 0xfa, 0x25, 0x0c, 0x12, 0x0f, 0x1f, 0x2c, 0x14, 0xf9, 0x09, 0xfc, 0x08, 0x3a, 0xe0, 0xf8, 0x1e, 0x0b, 0x6e, 0x2d, 0x1f, 0x23, 0x44, 0x2a, 0x13, 0x0a, 0x01, 0x29, 0x11, 0xed, 0xd1, 0xe7, 0x14, 0xe7, 0x5d, 0x27, 0x34, 0x13, 0x3a, 0x10, 0x38, 0x26, 0x1c, 0x08, 0xf7, 0x02, 0xcb, 0xe0, 0x22, 0xe9, 0x4e, 0xe6, 0x14, 0x27, 0x3f, 0x60, 0x44, 0xf3, 0x19, 0x02, 0xd5, 0x2e, 0xe9, 0x1e, 0x18, 0x00, 0x7f, 0x19, 0xfe, 0x37, 0x5a, 0x62, 0x60, 0x15, 0x05, 0x1f, 0xe2, 0x01, 0xd4, 0xd0, 0x04, 0xe7, 0x52, 0x00, 0x19, 0x1d, 0x3a, 0x54, 0x50, 0x19, 0x11, 0xf7, 0xeb, 0xff, 0xab, 0xda, 0x48, 0xd8, 0x2f, 0x6a, 0xf7, 0xff, 0xff, 0x04, 0x00, 0x00, 0x00, 0x40, 0x00, 0x00, 0x00, 0xe5, 0xfd, 0xff, 0xff, 0x14, 0x00, 0x00, 0x00, 0x6a, 0xff, 0xff, 0xff, 0xfd, 0xfe, 0xff, 0xff, 0xb5, 0xfd, 0xff, 0xff, 0x64, 0xfe, 0xff, 0xff, 0xa7, 0xfc, 0xff, 0xff, 0x75, 0xff, 0xff, 0xff, 0xa6, 0xfe, 0xff, 0xff, 0xba, 0xfe, 0xff, 0xff, 0x14, 0x01, 0x00, 0x00, 0x5c, 0x00, 0x00, 0x00, 0x55, 0x02, 0x00, 0x00, 0xd3, 0xfd, 0xff, 0xff, 0x99, 0x01, 0x00, 0x00, 0xd4, 0xff, 0xff, 0xff, 0xb6, 0xf7, 0xff, 0xff, 0x04, 0x00, 0x00, 0x00, 0x80, 0x01, 0x00, 0x00, 0xe7, 0x07, 0xff, 0xe9, 0xe9, 0xfd, 0xff, 0x0e, 0xfe, 0xc9, 0xe6, 0xec, 0x32, 0xca, 0x05, 0xf1, 0x00, 0xe6, 0x2d, 0xf3, 0x06, 0xfc, 0x04, 0xe4, 0x27, 0xfc, 0x06, 0x0b, 0xfb, 0xf2, 0xec, 0x32, 0x19, 0xff, 0xf0, 0x15, 0x1c, 0x13, 0x26, 0x12, 0x10, 0xe8, 0x20, 0x2f, 0x08, 0x14, 0xe8, 0xee, 0x14, 0x07, 0xe1, 0x0e, 0x16, 0x37, 0xea, 0xfe, 0xe5, 0xd4, 0x22, 0x12, 0x18, 0x21, 0xf8, 0xff, 0x0d, 0x02, 0x0d, 0x15, 0x0e, 0x2d, 0xf8, 0x15, 0xf5, 0x01, 0x1d, 0x17, 0x1f, 0x0a, 0x16, 0xfd, 0x1c, 0x07, 0xfb, 0xce, 0x17, 0xe7, 0x12, 0xfa, 0xfa, 0x10, 0xfa, 0x06, 0x01, 0xea, 0x01, 0x15, 0xfa, 0x02, 0x0b, 0x30, 0x11, 0x34, 0xfe, 0x16, 0x14, 0x01, 0xb4, 0xf6, 0xf6, 0x06, 0x03, 0x00, 0x0a, 0xf9, 0x22, 0x51, 0x68, 0x42, 0x15, 0x00, 0x36, 0xe4, 0x19, 0x01, 0xde, 0x2d, 0xe4, 0x6e, 0x00, 0x08, 0xff, 0x32, 0x18, 0x33, 0x0f, 0x0b, 0xeb, 0xc0, 0x36, 0x20, 0x15, 0x16, 0x09, 0xf3, 0x0b, 0x0c, 0xf4, 0x19, 0xfb, 0x32, 0x01, 0x0c, 0xfe, 0x1a, 0xfe, 0x09, 0xe8, 0x19, 0x15, 0xf9, 0x0b, 0xfc, 0x05, 0x1c, 0x10, 0x14, 0xeb, 0x17, 0xf4, 0x15, 0xed, 0xf7, 0xe8, 0x08, 0xf8, 0x12, 0x1d, 0x24, 0xee, 0xfc, 0x11, 0x02, 0xd0, 0xfc, 0x0c, 0xfd, 0xca, 0x0b, 0xe0, 0x21, 0xf0, 0x2d, 0x02, 0x05, 0xaf, 0xed, 0x0f, 0xfb, 0xf9, 0xd8, 0xb5, 0x03, 0x34, 0x08, 0x1b, 0xfc, 0x61, 0xf8, 0x15, 0x09, 0xee, 0xed, 0x09, 0x0e, 0xfa, 0x01, 0x16, 0xf5, 0xf5, 0xed, 0xf7, 0x1a, 0xf4, 0x04, 0x26, 0x4b, 0xe3, 0xdc, 0x81, 0xd1, 0xe0, 0x40, 0x00, 0x1b, 0x14, 0xc5, 0xdd, 0x18, 0x08, 0xd0, 0xfd, 0x07, 0x13, 0x1a, 0x28, 0x13, 0xfe, 0x07, 0x04, 0xd6, 0xe4, 0x14, 0xf2, 0x24, 0xee, 0x4d, 0x00, 0xff, 0x05, 0xf4, 0xf1, 0x18, 0x13, 0xfd, 0x16, 0x15, 0xc6, 0xe1, 0xfd, 0xed, 0xfa, 0x07, 0xe6, 0xae, 0xe3, 0x16, 0x25, 0x12, 0x28, 0xba, 0xec, 0x54, 0xf2, 0x28, 0x16, 0xf2, 0x21, 0x0c, 0x17, 0x0b, 0x07, 0x16, 0xc3, 0x0c, 0x00, 0x1e, 0xff, 0xcf, 0xe9, 0xf6, 0xf8, 0x00, 0xfe, 0xf2, 0xe2, 0xfe, 0x24, 0xdb, 0x1c, 0xe4, 0x21, 0xe7, 0xfb, 0x1c, 0xf6, 0xf9, 0x00, 0xda, 0x03, 0x20, 0xf9, 0xfe, 0xf0, 0x20, 0x2a, 0x12, 0xe1, 0xf6, 0x0a, 0x04, 0xee, 0xe7, 0xed, 0x18, 0x14, 0xfe, 0xfb, 0x0f, 0xda, 0xfa, 0x0e, 0xd9, 0xeb, 0x0f, 0xfc, 0xef, 0x29, 0xf7, 0x3a, 0xd8, 0x14, 0xda, 0xdc, 0x0e, 0xf4, 0x0a, 0x17, 0x0f, 0x30, 0x07, 0xfb, 0x31, 0x35, 0x34, 0x1c, 0x11, 0x19, 0x02, 0xdc, 0x0f, 0x02, 0xde, 0xff, 0xd8, 0xf6, 0x0b, 0x03, 0x16, 0x19, 0xfc, 0x1e, 0xc9, 0x19, 0x2d, 0x42, 0xf9, 0xff, 0xff, 0x04, 0x00, 0x00, 0x00, 0x60, 0x00, 0x00, 0x00, 0xbc, 0x00, 0x00, 0x00, 0x70, 0x00, 0x00, 0x00, 0x20, 0x00, 0x00, 0x00, 0xa4, 0xff, 0xff, 0xff, 0x12, 0x00, 0x00, 0x00, 0x4d, 0x00, 0x00, 0x00, 0xcf, 0xff, 0xff, 0xff, 0x64, 0x00, 0x00, 0x00, 0x1e, 0x00, 0x00, 0x00, 0x7d, 0xff, 0xff, 0xff, 0x1d, 0x00, 0x00, 0x00, 0x25, 0x00, 0x00, 0x00, 0x40, 0x00, 0x00, 0x00, 0xac, 0xff, 0xff, 0xff, 0xa0, 0x01, 0x00, 0x00, 0x18, 0x00, 0x00, 0x00, 0xc6, 0xff, 0xff, 0xff, 0x9f, 0xff, 0xff, 0xff, 0xd7, 0xff, 0xff, 0xff, 0x1f, 0x00, 0x00, 0x00, 0x31, 0x00, 0x00, 0x00, 0x5c, 0x00, 0x00, 0x00, 0x56, 0x00, 0x00, 0x00, 0xa4, 0x00, 0x00, 0x00, 0xae, 0xf9, 0xff, 0xff, 0x04, 0x00, 0x00, 0x00, 0xd8, 0x00, 0x00, 0x00, 0xe7, 0xca, 0xfc, 0x0e, 0x24, 0x27, 0xfb, 0x19, 0xea, 0xc9, 0xf4, 0xf1, 0x5b, 0xec, 0xfe, 0xef, 0x1b, 0x43, 0x23, 0xf7, 0xd8, 0x3f, 0x06, 0xf8, 0xbc, 0xc4, 0xf3, 0x42, 0xc2, 0x2f, 0xfb, 0xea, 0xd0, 0xdd, 0xec, 0xd2, 0x7f, 0xde, 0x0b, 0xfe, 0x16, 0x22, 0x21, 0xde, 0x0a, 0x25, 0xe8, 0x05, 0xbf, 0xe7, 0x1c, 0xff, 0xca, 0xfd, 0x47, 0x14, 0xdd, 0x04, 0x19, 0xd9, 0x6f, 0xf6, 0x0d, 0xd7, 0x3a, 0x49, 0x1e, 0xe3, 0x04, 0x13, 0xc0, 0xfc, 0xe4, 0xcd, 0xca, 0x22, 0xdf, 0x5b, 0x46, 0xec, 0xa6, 0xec, 0xf9, 0x32, 0x4e, 0x0d, 0xdf, 0x09, 0x0c, 0x12, 0x05, 0xef, 0x15, 0x44, 0xec, 0x47, 0xad, 0xb0, 0x06, 0x37, 0xcc, 0x4e, 0xf7, 0xcc, 0xed, 0xfc, 0xd8, 0x25, 0x56, 0x06, 0xd1, 0x1f, 0x2a, 0xf4, 0xf3, 0xb7, 0x35, 0x3d, 0x03, 0x4a, 0xab, 0xd2, 0x1e, 0x1e, 0xd5, 0xe5, 0x2b, 0x03, 0xda, 0xf1, 0xf0, 0x2c, 0x53, 0x22, 0xd7, 0xd4, 0x29, 0x27, 0xf0, 0xf3, 0x3a, 0x34, 0xd2, 0x1e, 0x0c, 0xd9, 0xbc, 0xf5, 0x25, 0x3a, 0xea, 0x22, 0xb4, 0x0b, 0x00, 0x09, 0x5a, 0x17, 0x27, 0x28, 0x12, 0x1f, 0x0c, 0xd1, 0xde, 0x3d, 0xbe, 0x5b, 0xe1, 0xbb, 0xd5, 0xee, 0xed, 0x29, 0x14, 0x0a, 0xc9, 0x07, 0xf2, 0x00, 0x69, 0x17, 0x10, 0xf1, 0x23, 0x5f, 0x08, 0x98, 0xe6, 0x41, 0xb3, 0x3b, 0xda, 0xe5, 0x12, 0xf8, 0xcd, 0xe4, 0x19, 0x2f, 0xd7, 0x12, 0x03, 0x01, 0x7b, 0x08, 0x2c, 0xf7, 0x2a, 0x2e, 0xe7, 0xcd, 0x05, 0x38, 0xa5, 0x22, 0x92, 0xfa, 0xff, 0xff, 0x04, 0x00, 0x00, 0x00, 0x60, 0x00, 0x00, 0x00, 0x1b, 0x00, 0x00, 0x00, 0xd5, 0xff, 0xff, 0xff, 0x01, 0x00, 0x00, 0x00, 0x2f, 0x00, 0x00, 0x00, 0x00, 0x00, 0x00, 0x00, 0xc3, 0xff, 0xff, 0xff, 0x01, 0x00, 0x00, 0x00, 0xc2, 0xff, 0xff, 0xff, 0x28, 0x00, 0x00, 0x00, 0x1f, 0x00, 0x00, 0x00, 0xc3, 0xff, 0xff, 0xff, 0x39, 0x00, 0x00, 0x00, 0xdf, 0xff, 0xff, 0xff, 0xdd, 0xff, 0xff, 0xff, 0xfb, 0xff, 0xff, 0xff, 0x32, 0x00, 0x00, 0x00, 0xa8, 0xff, 0xff, 0xff, 0x04, 0x00, 0x00, 0x00, 0x63, 0xff, 0xff, 0xff, 0xf4, 0xff, 0xff, 0xff, 0x0c, 0x00, 0x00, 0x00, 0x9d, 0xff, 0xff, 0xff, 0x2e, 0x00, 0x00, 0x00, 0xf2, 0xff, 0xff, 0xff, 0xfe, 0xfa, 0xff, 0xff, 0x04, 0x00, 0x00, 0x00, 0x00, 0x03, 0x00, 0x00, 0xe4, 0xff, 0xfc, 0x04, 0x19, 0x08, 0xd2, 0x0a, 0x1e, 0x38, 0x0b, 0x82, 0x1e, 0xc2, 0x23, 0xe4, 0xf4, 0x34, 0x0e, 0x21, 0xb8, 0xf0, 0x2d, 0x15, 0xf3, 0x12, 0x04, 0xfc, 0xe2, 0xb0, 0x08, 0xc6, 0xf8, 0xfb, 0xfd, 0x15, 0xa6, 0xfb, 0x03, 0x1d, 0x0a, 0xec, 0x03, 0x29, 0x21, 0x02, 0x19, 0xde, 0x03, 0xe2, 0x27, 0xec, 0x2f, 0x00, 0xd3, 0x09, 0x45, 0x0e, 0x0b, 0xa8, 0xf2, 0xef, 0x1d, 0xf1, 0xf9, 0x1a, 0x2f, 0xf6, 0xbc, 0xf4, 0x1a, 0x10, 0x14, 0x0b, 0x07, 0x09, 0xef, 0x0f, 0xfd, 0x1d, 0x06, 0x1c, 0x24, 0xcb, 0xc7, 0xdc, 0xd0, 0xe6, 0x24, 0xe9, 0xe5, 0x0b, 0xff, 0xd6, 0xf2, 0xc8, 0x16, 0x26, 0xfe, 0xed, 0x02, 0xfd, 0x01, 0x2b, 0x05, 0x17, 0x18, 0xed, 0x22, 0x0d, 0xfe, 0xf0, 0x14, 0xf5, 0x22, 0x1c, 0x09, 0x34, 0xee, 0xc2, 0xea, 0x00, 0xf7, 0x09, 0xfc, 0x11, 0xf0, 0xfb, 0x08, 0x29, 0x15, 0x1c, 0x19, 0x0b, 0xda, 0x0d, 0xb1, 0xf7, 0xd7, 0xfd, 0x23, 0x11, 0x08, 0xcb, 0xf3, 0x0e, 0x0b, 0x22, 0xf5, 0xaf, 0xf5, 0xbb, 0xfb, 0x10, 0xf1, 0x12, 0xab, 0x1b, 0x03, 0x1b, 0x0a, 0xe5, 0x04, 0x34, 0x18, 0xb7, 0x13, 0x98, 0x33, 0x27, 0xfb, 0xe6, 0xf7, 0x27, 0x17, 0x09, 0x05, 0x0e, 0xf4, 0xeb, 0xc0, 0xff, 0x10, 0x04, 0x1b, 0x0b, 0x08, 0x2e, 0xeb, 0x2c, 0xef, 0xf5, 0x10, 0x60, 0xde, 0xef, 0x08, 0x16, 0x0d, 0x05, 0xf9, 0xf2, 0xf5, 0xfa, 0x10, 0x0e, 0x16, 0x13, 0x13, 0xf9, 0x00, 0x11, 0xd9, 0x14, 0x0d, 0x0e, 0x1e, 0x03, 0xff, 0x24, 0xe0, 0xd0, 0xed, 0xbf, 0xfd, 0xf3, 0x05, 0x1a, 0xb6, 0x13, 0x0f, 0x0c, 0x03, 0xdd, 0xea, 0x3d, 0x2b, 0xe5, 0x21, 0xa8, 0x2d, 0xef, 0x2f, 0xe6, 0x1a, 0x0d, 0xbe, 0xc2, 0x4f, 0x2f, 0xf6, 0x11, 0x05, 0xfa, 0x47, 0x4c, 0xcf, 0xc1, 0x05, 0xdf, 0x02, 0xfa, 0x4e, 0x03, 0x1e, 0x64, 0xd4, 0xf0, 0x15, 0x2a, 0x0d, 0x0f, 0xfb, 0x0f, 0xf6, 0xf5, 0x17, 0x05, 0x10, 0x18, 0x12, 0xf2, 0x18, 0x22, 0xf2, 0x04, 0x00, 0x10, 0x2a, 0xe6, 0x34, 0xf7, 0x22, 0x30, 0xb9, 0xc3, 0x49, 0x35, 0x00, 0x0c, 0xed, 0x07, 0x44, 0x55, 0xdd, 0xd6, 0xea, 0xfe, 0xf9, 0xef, 0x55, 0x02, 0x04, 0x2f, 0x1b, 0xfc, 0x0e, 0x05, 0xf7, 0x1b, 0xf9, 0xf2, 0x1d, 0xec, 0x19, 0x1e, 0x0c, 0xe6, 0xf0, 0xfe, 0x21, 0x18, 0x18, 0x27, 0xfb, 0xf3, 0x2f, 0x02, 0x21, 0x09, 0x0b, 0xb9, 0xfe, 0xa8, 0xf4, 0x07, 0xe3, 0x24, 0xaf, 0x01, 0x12, 0x15, 0xff, 0xe7, 0xec, 0x44, 0x14, 0xd0, 0x1b, 0xb8, 0xeb, 0x15, 0xe2, 0x10, 0x24, 0xe0, 0xe4, 0x0f, 0x10, 0x2b, 0x20, 0x8c, 0x17, 0xf0, 0x1c, 0xe3, 0xde, 0x22, 0x0c, 0x07, 0xcd, 0x19, 0x1d, 0x12, 0x15, 0x20, 0xf9, 0xeb, 0xec, 0xb4, 0x09, 0xe0, 0x05, 0x14, 0xf6, 0x11, 0xc9, 0xff, 0xee, 0x1d, 0x09, 0x0c, 0xd9, 0x25, 0x17, 0xba, 0xf3, 0x86, 0xd1, 0x1a, 0x24, 0x13, 0xfc, 0xaf, 0xf2, 0xc3, 0xf0, 0xf3, 0x02, 0x14, 0xb0, 0x08, 0xf7, 0x16, 0x13, 0x05, 0x09, 0x49, 0x14, 0x02, 0x12, 0xe3, 0xf5, 0x4d, 0x01, 0xee, 0xf0, 0xf2, 0xff, 0xf7, 0xe2, 0xf1, 0xf0, 0xf8, 0xe0, 0x15, 0x0c, 0x36, 0x0d, 0xe4, 0x04, 0x30, 0xdf, 0x1c, 0xef, 0x0a, 0x26, 0x19, 0x09, 0xf0, 0xf3, 0x11, 0x01, 0x28, 0x08, 0x0d, 0x16, 0xf8, 0x26, 0x05, 0x01, 0xee, 0x16, 0xe2, 0x01, 0x20, 0x06, 0x1a, 0xe8, 0xe3, 0x08, 0xdf, 0x34, 0xd1, 0x44, 0x00, 0xd1, 0x06, 0x36, 0x11, 0xfb, 0xb5, 0xff, 0xc7, 0x36, 0xfe, 0xf6, 0x21, 0x2d, 0xed, 0x9f, 0xf4, 0x30, 0x15, 0xcf, 0x20, 0xe1, 0x18, 0x21, 0x12, 0x08, 0xf0, 0x0f, 0x04, 0x0f, 0x13, 0x12, 0x04, 0xf5, 0xff, 0xca, 0xea, 0xdf, 0x20, 0xe9, 0x22, 0xeb, 0xe7, 0xfe, 0x00, 0x1b, 0xde, 0x25, 0xf1, 0xbb, 0x09, 0x22, 0xfe, 0x15, 0xb0, 0xba, 0xcb, 0x2c, 0xdc, 0xf9, 0x14, 0x27, 0xdf, 0xe2, 0xe7, 0x0f, 0x0d, 0xf7, 0xe0, 0x14, 0xb7, 0x50, 0x02, 0xb7, 0x06, 0x31, 0x0e, 0x09, 0xa4, 0xd8, 0xd2, 0x2f, 0xf3, 0xf6, 0x20, 0x2f, 0xec, 0xaf, 0xe3, 0x23, 0x05, 0x01, 0x3c, 0xf2, 0x02, 0xfb, 0xee, 0xf3, 0x27, 0xe7, 0x00, 0x19, 0xe8, 0x17, 0x14, 0x06, 0xf5, 0x05, 0xf1, 0x1d, 0x01, 0x08, 0x24, 0x0a, 0xe3, 0xf3, 0x12, 0x13, 0x0b, 0xf1, 0xcb, 0xf5, 0xc4, 0xf5, 0xf2, 0x07, 0x21, 0xab, 0x05, 0x07, 0x12, 0x0d, 0xda, 0xea, 0x30, 0x22, 0xba, 0xf2, 0xa0, 0x57, 0xeb, 0x1b, 0xf6, 0x2d, 0x17, 0xde, 0xba, 0x21, 0x40, 0x0b, 0xed, 0xbf, 0x22, 0x77, 0x2d, 0xed, 0xcb, 0xcf, 0x12, 0xf1, 0xce, 0x32, 0xf3, 0xc7, 0x17, 0x03, 0xf6, 0xfc, 0xbe, 0x03, 0xcd, 0x15, 0x0e, 0x04, 0x23, 0xc6, 0x16, 0xda, 0x38, 0xfc, 0x31, 0xdd, 0x0e, 0xf5, 0xd6, 0x14, 0x81, 0x33, 0xe9, 0x2c, 0xf1, 0x1e, 0x31, 0xad, 0xc7, 0x4e, 0x32, 0xff, 0xfc, 0xd0, 0x08, 0x4d, 0x5c, 0xca, 0xd4, 0xf5, 0xf4, 0xf7, 0xed, 0x4e, 0xfa, 0x3d, 0xfb, 0x4a, 0xd2, 0x3b, 0x27, 0x9b, 0xb8, 0x2d, 0x41, 0xe8, 0x12, 0x00, 0x18, 0x46, 0x33, 0xdd, 0xcb, 0xf1, 0xee, 0xe5, 0xfe, 0x38, 0xff, 0xd5, 0x10, 0xfa, 0x22, 0xe1, 0xcd, 0xfc, 0xd2, 0xf6, 0x11, 0xfc, 0x07, 0xa6, 0x1f, 0xf0, 0x0c, 0x06, 0xd7, 0xfb, 0x1d, 0x14, 0xce, 0x14, 0x8f, 0xdb, 0x1c, 0xeb, 0xe7, 0x27, 0x03, 0xff, 0x09, 0xe8, 0x33, 0x19, 0xf5, 0x18, 0x0d, 0x16, 0x28, 0xe3, 0x0c, 0x02, 0x2e, 0xc4, 0x11, 0x0b, 0xfd, 0x0a, 0xfe, 0xff, 0xff, 0x04, 0x00, 0x00, 0x00, 0x80, 0x00, 0x00, 0x00, 0xfe, 0xff, 0xff, 0xff, 0x03, 0x00, 0x00, 0x00, 0x02, 0x00, 0x00, 0x00, 0x8c, 0xff, 0xff, 0xff, 0xdc, 0xff, 0xff, 0xff, 0xd8, 0xff, 0xff, 0xff, 0x0a, 0x00, 0x00, 0x00, 0xec, 0xff, 0xff, 0xff, 0x01, 0x00, 0x00, 0x00, 0x02, 0x00, 0x00, 0x00, 0x0c, 0x00, 0x00, 0x00, 0x02, 0x00, 0x00, 0x00, 0x0b, 0x00, 0x00, 0x00, 0xc8, 0xff, 0xff, 0xff, 0x02, 0x00, 0x00, 0x00, 0xfc, 0xff, 0xff, 0xff, 0x10, 0x00, 0x00, 0x00, 0xfc, 0xff, 0xff, 0xff, 0xee, 0xff, 0xff, 0xff, 0xba, 0xff, 0xff, 0xff, 0xf7, 0xff, 0xff, 0xff, 0xef, 0xff, 0xff, 0xff, 0xe4, 0xff, 0xff, 0xff, 0x0f, 0x00, 0x00, 0x00, 0xd9, 0xff, 0xff, 0xff, 0xf6, 0xff, 0xff, 0xff, 0x1b, 0x00, 0x00, 0x00, 0xf9, 0xff, 0xff, 0xff, 0x08, 0x00, 0x00, 0x00, 0x03, 0x00, 0x00, 0x00, 0x04, 0x00, 0x00, 0x00, 0xdb, 0xff, 0xff, 0xff, 0x96, 0xfe, 0xff, 0xff, 0x04, 0x00, 0x00, 0x00, 0x80, 0x00, 0x00, 0x00, 0xed, 0xdb, 0x24, 0xa7, 0xf4, 0xd1, 0xe7, 0xba, 0xbe, 0xea, 0x60, 0xaf, 0x49, 0x04, 0x08, 0xd5, 0xc1, 0xfa, 0xc3, 0x06, 0x1d, 0xd7, 0x23, 0x00, 0xdb, 0xf3, 0x63, 0xc2, 0x5e, 0x7f, 0xe2, 0xcc, 0xa7, 0xfd, 0x98, 0x51, 0x15, 0xfd, 0x0d, 0x26, 0x16, 0x0f, 0xcc, 0x2e, 0xcf, 0x20, 0x26, 0xb5, 0xff, 0x22, 0x16, 0x31, 0xae, 0xec, 0xa2, 0x8e, 0xf3, 0x1a, 0x13, 0x10, 0xe3, 0xf4, 0x16, 0x02, 0x29, 0xad, 0x1b, 0xe6, 0x22, 0x0e, 0xa6, 0xe6, 0x0a, 0x90, 0xfd, 0x14, 0xdc, 0x48, 0xaf, 0x25, 0xdc, 0xe4, 0xed, 0x28, 0x0f, 0x2c, 0x15, 0xf6, 0x14, 0xc1, 0xb1, 0xec, 0xec, 0xee, 0xc1, 0x4b, 0x0a, 0x1f, 0x17, 0xe2, 0xae, 0x4d, 0x2e, 0xde, 0xea, 0x23, 0xa8, 0xdf, 0x97, 0xd3, 0x3c, 0xf7, 0x44, 0x3b, 0x1d, 0xa4, 0x0f, 0x24, 0x2b, 0xf7, 0xbd, 0x3b, 0x14, 0x53, 0xc0, 0x9c, 0x39, 0xff, 0x22, 0xff, 0xff, 0xff, 0x04, 0x00, 0x00, 0x00, 0x10, 0x00, 0x00, 0x00, 0x6a, 0x01, 0x00, 0x00, 0xa6, 0x06, 0x00, 0x00, 0x67, 0x03, 0x00, 0x00, 0x0f, 0xf4, 0xff, 0xff, 0x3e, 0xff, 0xff, 0xff, 0x04, 0x00, 0x00, 0x00, 0x08, 0x00, 0x00, 0x00, 0x01, 0x00, 0x00, 0x00, 0x02, 0x00, 0x00, 0x00, 0xcc, 0xed, 0xff, 0xff, 0xd0, 0xed, 0xff, 0xff, 0x0f, 0x00, 0x00, 0x00, 0x4d, 0x4c, 0x49, 0x52, 0x20, 0x43, 0x6f, 0x6e, 0x76, 0x65, 0x72, 0x74, 0x65, 0x64, 0x2e, 0x00, 0x01, 0x00, 0x00, 0x00, 0x14, 0x00, 0x00, 0x00, 0x00, 0x00, 0x0e, 0x00, 0x18, 0x00, 0x14, 0x00, 0x10, 0x00, 0x0c, 0x00, 0x08, 0x00, 0x04, 0x00, 0x0e, 0x00, 0x00, 0x00, 0x14, 0x00, 0x00, 0x00, 0x1c, 0x00, 0x00, 0x00, 0xe8, 0x02, 0x00, 0x00, 0xec, 0x02, 0x00, 0x00, 0xf0, 0x02, 0x00, 0x00, 0x04, 0x00, 0x00, 0x00, 0x6d, 0x61, 0x69, 0x6e, 0x00, 0x00, 0x00, 0x00, 0x0a, 0x00, 0x00, 0x00, 0x80, 0x02, 0x00, 0x00, 0x20, 0x02, 0x00, 0x00, 0xcc, 0x01, 0x00, 0x00, 0x88, 0x01, 0x00, 0x00, 0x44, 0x01, 0x00, 0x00, 0x00, 0x01, 0x00, 0x00, 0xbc, 0x00, 0x00, 0x00, 0x88, 0x00, 0x00, 0x00, 0x50, 0x00, 0x00, 0x00, 0x14, 0x00, 0x00, 0x00, 0x00, 0x00, 0x0e, 0x00, 0x1a, 0x00, 0x14, 0x00, 0x10, 0x00, 0x0c, 0x00, 0x0b, 0x00, 0x04, 0x00, 0x0e, 0x00, 0x00, 0x00, 0x1c, 0x00, 0x00, 0x00, 0x00, 0x00, 0x00, 0x09, 0x1c, 0x00, 0x00, 0x00, 0x20, 0x00, 0x00, 0x00, 0x04, 0x00, 0x00, 0x00, 0x00, 0x00, 0x06, 0x00, 0x08, 0x00, 0x04, 0x00, 0x06, 0x00, 0x00, 0x00, 0x00, 0x00, 0x80, 0x3f, 0x01, 0x00, 0x00, 0x00, 0x1b, 0x00, 0x00, 0x00, 0x01, 0x00, 0x00, 0x00, 0x1a, 0x00, 0x00, 0x00, 0x5a, 0xfe, 0xff, 0xff, 0x14, 0x00, 0x00, 0x00, 0x00, 0x00, 0x00, 0x08, 0x10, 0x00, 0x00, 0x00, 0x14, 0x00, 0x00, 0x00, 0x03, 0x00, 0x00, 0x00, 0xb0, 0xee, 0xff, 0xff, 0x01, 0x00, 0x00, 0x00, 0x1a, 0x00, 0x00, 0x00, 0x03, 0x00, 0x00, 0x00, 0x19, 0x00, 0x00, 0x00, 0x03, 0x00, 0x00, 0x00, 0x02, 0x00, 0x00, 0x00, 0x8e, 0xfe, 0xff, 0xff, 0x14, 0x00, 0x00, 0x00, 0x00, 0x00, 0x00, 0x1b, 0x10, 0x00, 0x00, 0x00, 0x14, 0x00, 0x00, 0x00, 0x02, 0x00, 0x00, 0x00, 0xe4, 0xee, 0xff, 0xff, 0x01, 0x00, 0x00, 0x00, 0x19, 0x00, 0x00, 0x00, 0x02, 0x00, 0x00, 0x00, 0x18, 0x00, 0x00, 0x00, 0x01, 0x00, 0x00, 0x00, 0x62, 0xfe, 0xff, 0xff, 0x10, 0x00, 0x00, 0x00, 0x00, 0x00, 0x00, 0x01, 0x1c, 0x00, 0x00, 0x00, 0x20, 0x00, 0x00, 0x00, 0x54, 0xfe, 0xff, 0xff, 0x00, 0x00, 0x00, 0x01, 0x01, 0x00, 0x00, 0x00, 0x01, 0x00, 0x00, 0x00, 0x00, 0x00, 0x00, 0x01, 0x01, 0x00, 0x00, 0x00, 0x18, 0x00, 0x00, 0x00, 0x03, 0x00, 0x00, 0x00, 0x17, 0x00, 0x00, 0x00, 0x05, 0x00, 0x00, 0x00, 0x04, 0x00, 0x00, 0x00, 0xfe, 0xfe, 0xff, 0xff, 0x14, 0x00, 0x00, 0x00, 0x00, 0x00, 0x00, 0x02, 0x1c, 0x00, 0x00, 0x00, 0x20, 0x00, 0x00, 0x00, 0x01, 0x00, 0x00, 0x00, 0xf0, 0xfe, 0xff, 0xff, 0x01, 0x00, 0x00, 0x00, 0x01, 0x00, 0x00, 0x00, 0x01, 0x00, 0x00, 0x00, 0x01, 0x00, 0x00, 0x00, 0x17, 0x00, 0x00, 0x00, 0x03, 0x00, 0x00, 0x00, 0x16, 0x00, 0x00, 0x00, 0x07, 0x00, 0x00, 0x00, 0x06, 0x00, 0x00, 0x00, 0xe2, 0xfe, 0xff, 0xff, 0x10, 0x00, 0x00, 0x00, 0x00, 0x00, 0x00, 0x01, 0x1c, 0x00, 0x00, 0x00, 0x20, 0x00, 0x00, 0x00, 0xd4, 0xfe, 0xff, 0xff, 0x00, 0x00, 0x00, 0x01, 0x01, 0x00, 0x00, 0x00, 0x01, 0x00, 0x00, 0x00, 0x00, 0x00, 0x00, 0x01, 0x01, 0x00, 0x00, 0x00, 0x16, 0x00, 0x00, 0x00, 0x03, 0x00, 0x00, 0x00, 0x15, 0x00, 0x00, 0x00, 0x09, 0x00, 0x00, 0x00, 0x08, 0x00, 0x00, 0x00, 0x7e, 0xff, 0xff, 0xff, 0x14, 0x00, 0x00, 0x00, 0x00, 0x00, 0x00, 0x02, 0x1c, 0x00, 0x00, 0x00, 0x20, 0x00, 0x00, 0x00, 0x01, 0x00, 0x00, 0x00, 0x70, 0xff, 0xff, 0xff, 0x01, 0x00, 0x00, 0x00, 0x02, 0x00, 0x00, 0x00, 0x02, 0x00, 0x00, 0x00, 0x01, 0x00, 0x00, 0x00, 0x15, 0x00, 0x00, 0x00, 0x03, 0x00, 0x00, 0x00, 0x14, 0x00, 0x00, 0x00, 0x0b, 0x00, 0x00, 0x00, 0x0a, 0x00, 0x00, 0x00, 0x62, 0xff, 0xff, 0xff, 0x10, 0x00, 0x00, 0x00, 0x00, 0x00, 0x00, 0x01, 0x1c, 0x00, 0x00, 0x00, 0x20, 0x00, 0x00, 0x00, 0x54, 0xff, 0xff, 0xff, 0x00, 0x00, 0x00, 0x01, 0x01, 0x00, 0x00, 0x00, 0x01, 0x00, 0x00, 0x00, 0x00, 0x00, 0x00, 0x01, 0x01, 0x00, 0x00, 0x00, 0x14, 0x00, 0x00, 0x00, 0x03, 0x00, 0x00, 0x00, 0x13, 0x00, 0x00, 0x00, 0x0d, 0x00, 0x00, 0x00, 0x0c, 0x00, 0x00, 0x00, 0x00, 0x00, 0x0e, 0x00, 0x18, 0x00, 0x14, 0x00, 0x10, 0x00, 0x0c, 0x00, 0x0b, 0x00, 0x04, 0x00, 0x0e, 0x00, 0x00, 0x00, 0x20, 0x00, 0x00, 0x00, 0x00, 0x00, 0x00, 0x02, 0x28, 0x00, 0x00, 0x00, 0x2c, 0x00, 0x00, 0x00, 0x01, 0x00, 0x00, 0x00, 0x0c, 0x00, 0x10, 0x00, 0x00, 0x00, 0x0c, 0x00, 0x08, 0x00, 0x04, 0x00, 0x0c, 0x00, 0x00, 0x00, 0x01, 0x00, 0x00, 0x00, 0x02, 0x00, 0x00, 0x00, 0x02, 0x00, 0x00, 0x00, 0x01, 0x00, 0x00, 0x00, 0x13, 0x00, 0x00, 0x00, 0x03, 0x00, 0x00, 0x00, 0x12, 0x00, 0x00, 0x00, 0x0f, 0x00, 0x00, 0x00, 0x0e, 0x00, 0x00, 0x00, 0x00, 0x00, 0x0e, 0x00, 0x14, 0x00, 0x00, 0x00, 0x10, 0x00, 0x0c, 0x00, 0x0b, 0x00, 0x04, 0x00, 0x0e, 0x00, 0x00, 0x00, 0x1c, 0x00, 0x00, 0x00, 0x00, 0x00, 0x00, 0x01, 0x28, 0x00, 0x00, 0x00, 0x2c, 0x00, 0x00, 0x00, 0x0c, 0x00, 0x14, 0x00, 0x13, 0x00, 0x0c, 0x00, 0x08, 0x00, 0x07, 0x00, 0x0c, 0x00, 0x00, 0x00, 0x00, 0x00, 0x00, 0x01, 0x02, 0x00, 0x00, 0x00, 0x02, 0x00, 0x00, 0x00, 0x00, 0x00, 0x00, 0x01, 0x01, 0x00, 0x00, 0x00, 0x12, 0x00, 0x00, 0x00, 0x03, 0x00, 0x00, 0x00, 0x00, 0x00, 0x00, 0x00, 0x11, 0x00, 0x00, 0x00, 0x10, 0x00, 0x00, 0x00, 0x01, 0x00, 0x00, 0x00, 0x1b, 0x00, 0x00, 0x00, 0x01, 0x00, 0x00, 0x00, 0x00, 0x00, 0x00, 0x00, 0x1c, 0x00, 0x00, 0x00, 0x34, 0x0f, 0x00, 0x00, 0xd8, 0x0e, 0x00, 0x00, 0x60, 0x0e, 0x00, 0x00, 0xfc, 0x0d, 0x00, 0x00, 0x98, 0x0d, 0x00, 0x00, 0x2c, 0x0d, 0x00, 0x00, 0xc8, 0x0c, 0x00, 0x00, 0x5c, 0x0c, 0x00, 0x00, 0xf8, 0x0b, 0x00, 0x00, 0x8c, 0x0b, 0x00, 0x00, 0x28, 0x0b, 0x00, 0x00, 0xbc, 0x0a, 0x00, 0x00, 0x58, 0x0a, 0x00, 0x00, 0xec, 0x09, 0x00, 0x00, 0x88, 0x09, 0x00, 0x00, 0x1c, 0x09, 0x00, 0x00, 0xb8, 0x08, 0x00, 0x00, 0x4c, 0x08, 0x00, 0x00, 0x60, 0x07, 0x00, 0x00, 0x74, 0x06, 0x00, 0x00, 0x80, 0x05, 0x00, 0x00, 0x8c, 0x04, 0x00, 0x00, 0x98, 0x03, 0x00, 0x00, 0xa4, 0x02, 0x00, 0x00, 0xb0, 0x01, 0x00, 0x00, 0x1c, 0x01, 0x00, 0x00, 0x80, 0x00, 0x00, 0x00, 0x04, 0x00, 0x00, 0x00, 0x52, 0xf1, 0xff, 0xff, 0x00, 0x00, 0x00, 0x01, 0x18, 0x00, 0x00, 0x00, 0x20, 0x00, 0x00, 0x00, 0x3c, 0x00, 0x00, 0x00, 0x1c, 0x00, 0x00, 0x00, 0x00, 0x00, 0x00, 0x09, 0x50, 0x00, 0x00, 0x00, 0x02, 0x00, 0x00, 0x00, 0xff, 0xff, 0xff, 0xff, 0x04, 0x00, 0x00, 0x00, 0x34, 0xf1, 0xff, 0xff, 0x08, 0x00, 0x00, 0x00, 0x10, 0x00, 0x00, 0x00, 0x01, 0x00, 0x00, 0x00, 0x80, 0xff, 0xff, 0xff, 0xff, 0xff, 0xff, 0xff, 0x01, 0x00, 0x00, 0x00, 0x00, 0x00, 0x80, 0x3b, 0x1b, 0x00, 0x00, 0x00, 0x53, 0x74, 0x61, 0x74, 0x65, 0x66, 0x75, 0x6c, 0x50, 0x61, 0x72, 0x74, 0x69, 0x74, 0x69, 0x6f, 0x6e, 0x65, 0x64, 0x43, 0x61, 0x6c, 0x6c, 0x5f, 0x31, 0x3a, 0x30, 0x00, 0x02, 0x00, 0x00, 0x00, 0x01, 0x00, 0x00, 0x00, 0x04, 0x00, 0x00, 0x00, 0xca, 0xf1, 0xff, 0xff, 0x00, 0x00, 0x00, 0x01, 0x18, 0x00, 0x00, 0x00, 0x20, 0x00, 0x00, 0x00, 0x3c, 0x00, 0x00, 0x00, 0x1b, 0x00, 0x00, 0x00, 0x00, 0x00, 0x00, 0x09, 0x70, 0x00, 0x00, 0x00, 0x02, 0x00, 0x00, 0x00, 0xff, 0xff, 0xff, 0xff, 0x04, 0x00, 0x00, 0x00, 0xac, 0xf1, 0xff, 0xff, 0x08, 0x00, 0x00, 0x00, 0x10, 0x00, 0x00, 0x00, 0x01, 0x00, 0x00, 0x00, 0x33, 0x00, 0x00, 0x00, 0x00, 0x00, 0x00, 0x00, 0x01, 0x00, 0x00, 0x00, 0xa2, 0x7d, 0x85, 0x3d, 0x38, 0x00, 0x00, 0x00, 0x66, 0x75, 0x6e, 0x63, 0x74, 0x69, 0x6f, 0x6e, 0x61, 0x6c, 0x5f, 0x31, 0x2f, 0x64, 0x65, 0x6e, 0x73, 0x65, 0x5f, 0x31, 0x2f, 0x4d, 0x61, 0x74, 0x4d, 0x75, 0x6c, 0x3b, 0x66, 0x75, 0x6e, 0x63, 0x74, 0x69, 0x6f, 0x6e, 0x61, 0x6c, 0x5f, 0x31, 0x2f, 0x64, 0x65, 0x6e, 0x73, 0x65, 0x5f, 0x31, 0x2f, 0x42, 0x69, 0x61, 0x73, 0x41, 0x64, 0x64, 0x00, 0x00, 0x00, 0x00, 0x02, 0x00, 0x00, 0x00, 0x01, 0x00, 0x00, 0x00, 0x04, 0x00, 0x00, 0x00, 0x62, 0xf2, 0xff, 0xff, 0x00, 0x00, 0x00, 0x01, 0x18, 0x00, 0x00, 0x00, 0x20, 0x00, 0x00, 0x00, 0x40, 0x00, 0x00, 0x00, 0x1a, 0x00, 0x00, 0x00, 0x00, 0x00, 0x00, 0x09, 0x68, 0x00, 0x00, 0x00, 0x02, 0x00, 0x00, 0x00, 0xff, 0xff, 0xff, 0xff, 0x20, 0x00, 0x00, 0x00, 0x44, 0xf2, 0xff, 0xff, 0x08, 0x00, 0x00, 0x00, 0x14, 0x00, 0x00, 0x00, 0x01, 0x00, 0x00, 0x00, 0x80, 0xff, 0xff, 0xff, 0xff, 0xff, 0xff, 0xff, 0x00, 0x00, 0x00, 0x00, 0x01, 0x00, 0x00, 0x00, 0x78, 0xe0, 0x5a, 0x3c, 0x2c, 0x00, 0x00, 0x00, 0x66, 0x75, 0x6e, 0x63, 0x74, 0x69, 0x6f, 0x6e, 0x61, 0x6c, 0x5f, 0x31, 0x2f, 0x67, 0x6c, 0x6f, 0x62, 0x61, 0x6c, 0x5f, 0x61, 0x76, 0x65, 0x72, 0x61, 0x67, 0x65, 0x5f, 0x70, 0x6f, 0x6f, 0x6c, 0x69, 0x6e, 0x67, 0x32, 0x64, 0x5f, 0x31, 0x2f, 0x4d, 0x65, 0x61, 0x6e, 0x00, 0x00, 0x00, 0x00, 0x02, 0x00, 0x00, 0x00, 0x01, 0x00, 0x00, 0x00, 0x20, 0x00, 0x00, 0x00, 0xf2, 0xf2, 0xff, 0xff, 0x00, 0x00, 0x00, 0x01, 0x18, 0x00, 0x00, 0x00, 0x28, 0x00, 0x00, 0x00, 0x48, 0x00, 0x00, 0x00, 0x19, 0x00, 0x00, 0x00, 0x00, 0x00, 0x00, 0x09, 0xc0, 0x00, 0x00, 0x00, 0x04, 0x00, 0x00, 0x00, 0xff, 0xff, 0xff, 0xff, 0x0c, 0x00, 0x00, 0x00, 0x0c, 0x00, 0x00, 0x00, 0x20, 0x00, 0x00, 0x00, 0xdc, 0xf2, 0xff, 0xff, 0x08, 0x00, 0x00, 0x00, 0x14, 0x00, 0x00, 0x00, 0x01, 0x00, 0x00, 0x00, 0x80, 0xff, 0xff, 0xff, 0xff, 0xff, 0xff, 0xff, 0x00, 0x00, 0x00, 0x00, 0x01, 0x00, 0x00, 0x00, 0xde, 0xbc, 0x9d, 0x3d, 0x7f, 0x00, 0x00, 0x00, 0x66, 0x75, 0x6e, 0x63, 0x74, 0x69, 0x6f, 0x6e, 0x61, 0x6c, 0x5f, 0x31, 0x2f, 0x72, 0x65, 0x5f, 0x6c, 0x75, 0x5f, 0x33, 0x5f, 0x31, 0x2f, 0x52, 0x65, 0x6c, 0x75, 0x3b, 0x66, 0x75, 0x6e, 0x63, 0x74, 0x69, 0x6f, 0x6e, 0x61, 0x6c, 0x5f, 0x31, 0x2f, 0x63, 0x6f, 0x6e, 0x76, 0x32, 0x64, 0x5f, 0x33, 0x5f, 0x31, 0x2f, 0x42, 0x69, 0x61, 0x73, 0x41, 0x64, 0x64, 0x3b, 0x66, 0x75, 0x6e, 0x63, 0x74, 0x69, 0x6f, 0x6e, 0x61, 0x6c, 0x5f, 0x31, 0x2f, 0x63, 0x6f, 0x6e, 0x76, 0x32, 0x64, 0x5f, 0x33, 0x5f, 0x31, 0x2f, 0x63, 0x6f, 0x6e, 0x76, 0x6f, 0x6c, 0x75, 0x74, 0x69, 0x6f, 0x6e, 0x3b, 0x66, 0x75, 0x6e, 0x63, 0x74, 0x69, 0x6f, 0x6e, 0x61, 0x6c, 0x5f, 0x31, 0x2f, 0x63, 0x6f, 0x6e, 0x76, 0x32, 0x64, 0x5f, 0x33, 0x5f, 0x31, 0x2f, 0x53, 0x71, 0x75, 0x65, 0x65, 0x7a, 0x65, 0x00, 0x04, 0x00, 0x00, 0x00, 0x01, 0x00, 0x00, 0x00, 0x0c, 0x00, 0x00, 0x00, 0x0c, 0x00, 0x00, 0x00, 0x20, 0x00, 0x00, 0x00, 0xe2, 0xf3, 0xff, 0xff, 0x00, 0x00, 0x00, 0x01, 0x18, 0x00, 0x00, 0x00, 0x28, 0x00, 0x00, 0x00, 0x48, 0x00, 0x00, 0x00, 0x18, 0x00, 0x00, 0x00, 0x00, 0x00, 0x00, 0x09, 0xc0, 0x00, 0x00, 0x00, 0x04, 0x00, 0x00, 0x00, 0xff, 0xff, 0xff, 0xff, 0x0c, 0x00, 0x00, 0x00, 0x0c, 0x00, 0x00, 0x00, 0x18, 0x00, 0x00, 0x00, 0xcc, 0xf3, 0xff, 0xff, 0x08, 0x00, 0x00, 0x00, 0x14, 0x00, 0x00, 0x00, 0x01, 0x00, 0x00, 0x00, 0x08, 0x00, 0x00, 0x00, 0x00, 0x00, 0x00, 0x00, 0x00, 0x00, 0x00, 0x00, 0x01, 0x00, 0x00, 0x00, 0xa5, 0x4a, 0xdc, 0x3e, 0x7f, 0x00, 0x00, 0x00, 0x66, 0x75, 0x6e, 0x63, 0x74, 0x69, 0x6f, 0x6e, 0x61, 0x6c, 0x5f, 0x31, 0x2f, 0x64, 0x65, 0x70, 0x74, 0x68, 0x77, 0x69, 0x73, 0x65, 0x5f, 0x63, 0x6f, 0x6e, 0x76, 0x32, 0x64, 0x5f, 0x32, 0x5f, 0x31, 0x2f, 0x42, 0x69, 0x61, 0x73, 0x41, 0x64, 0x64, 0x3b, 0x66, 0x75, 0x6e, 0x63, 0x74, 0x69, 0x6f, 0x6e, 0x61, 0x6c, 0x5f, 0x31, 0x2f, 0x64, 0x65, 0x70, 0x74, 0x68, 0x77, 0x69, 0x73, 0x65, 0x5f, 0x63, 0x6f, 0x6e, 0x76, 0x32, 0x64, 0x5f, 0x32, 0x5f, 0x31, 0x2f, 0x64, 0x65, 0x70, 0x74, 0x68, 0x77, 0x69, 0x73, 0x65, 0x3b, 0x66, 0x75, 0x6e, 0x63, 0x74, 0x69, 0x6f, 0x6e, 0x61, 0x6c, 0x5f, 0x31, 0x2f, 0x64, 0x65, 0x70, 0x74, 0x68, 0x77, 0x69, 0x73, 0x65, 0x5f, 0x63, 0x6f, 0x6e, 0x76, 0x32, 0x64, 0x5f, 0x32, 0x5f, 0x31, 0x2f, 0x53, 0x71, 0x75, 0x65, 0x65, 0x7a, 0x65, 0x00, 0x04, 0x00, 0x00, 0x00, 0x01, 0x00, 0x00, 0x00, 0x0c, 0x00, 0x00, 0x00, 0x0c, 0x00, 0x00, 0x00, 0x18, 0x00, 0x00, 0x00, 0xd2, 0xf4, 0xff, 0xff, 0x00, 0x00, 0x00, 0x01, 0x18, 0x00, 0x00, 0x00, 0x28, 0x00, 0x00, 0x00, 0x48, 0x00, 0x00, 0x00, 0x17, 0x00, 0x00, 0x00, 0x00, 0x00, 0x00, 0x09, 0xc0, 0x00, 0x00, 0x00, 0x04, 0x00, 0x00, 0x00, 0xff, 0xff, 0xff, 0xff, 0x0c, 0x00, 0x00, 0x00, 0x0c, 0x00, 0x00, 0x00, 0x18, 0x00, 0x00, 0x00, 0xbc, 0xf4, 0xff, 0xff, 0x08, 0x00, 0x00, 0x00, 0x14, 0x00, 0x00, 0x00, 0x01, 0x00, 0x00, 0x00, 0x80, 0xff, 0xff, 0xff, 0xff, 0xff, 0xff, 0xff, 0x00, 0x00, 0x00, 0x00, 0x01, 0x00, 0x00, 0x00, 0xdc, 0x02, 0x59, 0x3e, 0x7f, 0x00, 0x00, 0x00, 0x66, 0x75, 0x6e, 0x63, 0x74, 0x69, 0x6f, 0x6e, 0x61, 0x6c, 0x5f, 0x31, 0x2f, 0x72, 0x65, 0x5f, 0x6c, 0x75, 0x5f, 0x32, 0x5f, 0x31, 0x2f, 0x52, 0x65, 0x6c, 0x75, 0x3b, 0x66, 0x75, 0x6e, 0x63, 0x74, 0x69, 0x6f, 0x6e, 0x61, 0x6c, 0x5f, 0x31, 0x2f, 0x63, 0x6f, 0x6e, 0x76, 0x32, 0x64, 0x5f, 0x32, 0x5f, 0x31, 0x2f, 0x42, 0x69, 0x61, 0x73, 0x41, 0x64, 0x64, 0x3b, 0x66, 0x75, 0x6e, 0x63, 0x74, 0x69, 0x6f, 0x6e, 0x61, 0x6c, 0x5f, 0x31, 0x2f, 0x63, 0x6f, 0x6e, 0x76, 0x32, 0x64, 0x5f, 0x32, 0x5f, 0x31, 0x2f, 0x63, 0x6f, 0x6e, 0x76, 0x6f, 0x6c, 0x75, 0x74, 0x69, 0x6f, 0x6e, 0x3b, 0x66, 0x75, 0x6e, 0x63, 0x74, 0x69, 0x6f, 0x6e, 0x61, 0x6c, 0x5f, 0x31, 0x2f, 0x63, 0x6f, 0x6e, 0x76, 0x32, 0x64, 0x5f, 0x32, 0x5f, 0x31, 0x2f, 0x53, 0x71, 0x75, 0x65, 0x65, 0x7a, 0x65, 0x00, 0x04, 0x00, 0x00, 0x00, 0x01, 0x00, 0x00, 0x00, 0x0c, 0x00, 0x00, 0x00, 0x0c, 0x00, 0x00, 0x00, 0x18, 0x00, 0x00, 0x00, 0xc2, 0xf5, 0xff, 0xff, 0x00, 0x00, 0x00, 0x01, 0x18, 0x00, 0x00, 0x00, 0x28, 0x00, 0x00, 0x00, 0x48, 0x00, 0x00, 0x00, 0x16, 0x00, 0x00, 0x00, 0x00, 0x00, 0x00, 0x09, 0xc0, 0x00, 0x00, 0x00, 0x04, 0x00, 0x00, 0x00, 0xff, 0xff, 0xff, 0xff, 0x0c, 0x00, 0x00, 0x00, 0x0c, 0x00, 0x00, 0x00, 0x10, 0x00, 0x00, 0x00, 0xac, 0xf5, 0xff, 0xff, 0x08, 0x00, 0x00, 0x00, 0x14, 0x00, 0x00, 0x00, 0x01, 0x00, 0x00, 0x00, 0xc9, 0xff, 0xff, 0xff, 0xff, 0xff, 0xff, 0xff, 0x00, 0x00, 0x00, 0x00, 0x01, 0x00, 0x00, 0x00, 0x7a, 0x2c, 0xaa, 0x3d, 0x7f, 0x00, 0x00, 0x00, 0x66, 0x75, 0x6e, 0x63, 0x74, 0x69, 0x6f, 0x6e, 0x61, 0x6c, 0x5f, 0x31, 0x2f, 0x64, 0x65, 0x70, 0x74, 0x68, 0x77, 0x69, 0x73, 0x65, 0x5f, 0x63, 0x6f, 0x6e, 0x76, 0x32, 0x64, 0x5f, 0x31, 0x5f, 0x32, 0x2f, 0x42, 0x69, 0x61, 0x73, 0x41, 0x64, 0x64, 0x3b, 0x66, 0x75, 0x6e, 0x63, 0x74, 0x69, 0x6f, 0x6e, 0x61, 0x6c, 0x5f, 0x31, 0x2f, 0x64, 0x65, 0x70, 0x74, 0x68, 0x77, 0x69, 0x73, 0x65, 0x5f, 0x63, 0x6f, 0x6e, 0x76, 0x32, 0x64, 0x5f, 0x31, 0x5f, 0x32, 0x2f, 0x64, 0x65, 0x70, 0x74, 0x68, 0x77, 0x69, 0x73, 0x65, 0x3b, 0x66, 0x75, 0x6e, 0x63, 0x74, 0x69, 0x6f, 0x6e, 0x61, 0x6c, 0x5f, 0x31, 0x2f, 0x64, 0x65, 0x70, 0x74, 0x68, 0x77, 0x69, 0x73, 0x65, 0x5f, 0x63, 0x6f, 0x6e, 0x76, 0x32, 0x64, 0x5f, 0x31, 0x5f, 0x32, 0x2f, 0x53, 0x71, 0x75, 0x65, 0x65, 0x7a, 0x65, 0x00, 0x04, 0x00, 0x00, 0x00, 0x01, 0x00, 0x00, 0x00, 0x0c, 0x00, 0x00, 0x00, 0x0c, 0x00, 0x00, 0x00, 0x10, 0x00, 0x00, 0x00, 0xb2, 0xf6, 0xff, 0xff, 0x00, 0x00, 0x00, 0x01, 0x18, 0x00, 0x00, 0x00, 0x28, 0x00, 0x00, 0x00, 0x48, 0x00, 0x00, 0x00, 0x15, 0x00, 0x00, 0x00, 0x00, 0x00, 0x00, 0x09, 0xc0, 0x00, 0x00, 0x00, 0x04, 0x00, 0x00, 0x00, 0xff, 0xff, 0xff, 0xff, 0x18, 0x00, 0x00, 0x00, 0x18, 0x00, 0x00, 0x00, 0x10, 0x00, 0x00, 0x00, 0x9c, 0xf6, 0xff, 0xff, 0x08, 0x00, 0x00, 0x00, 0x14, 0x00, 0x00, 0x00, 0x01, 0x00, 0x00, 0x00, 0x80, 0xff, 0xff, 0xff, 0xff, 0xff, 0xff, 0xff, 0x00, 0x00, 0x00, 0x00, 0x01, 0x00, 0x00, 0x00, 0x89, 0x17, 0xd6, 0x3c, 0x7f, 0x00, 0x00, 0x00, 0x66, 0x75, 0x6e, 0x63, 0x74, 0x69, 0x6f, 0x6e, 0x61, 0x6c, 0x5f, 0x31, 0x2f, 0x72, 0x65, 0x5f, 0x6c, 0x75, 0x5f, 0x31, 0x5f, 0x32, 0x2f, 0x52, 0x65, 0x6c, 0x75, 0x3b, 0x66, 0x75, 0x6e, 0x63, 0x74, 0x69, 0x6f, 0x6e, 0x61, 0x6c, 0x5f, 0x31, 0x2f, 0x63, 0x6f, 0x6e, 0x76, 0x32, 0x64, 0x5f, 0x31, 0x5f, 0x32, 0x2f, 0x42, 0x69, 0x61, 0x73, 0x41, 0x64, 0x64, 0x3b, 0x66, 0x75, 0x6e, 0x63, 0x74, 0x69, 0x6f, 0x6e, 0x61, 0x6c, 0x5f, 0x31, 0x2f, 0x63, 0x6f, 0x6e, 0x76, 0x32, 0x64, 0x5f, 0x31, 0x5f, 0x32, 0x2f, 0x63, 0x6f, 0x6e, 0x76, 0x6f, 0x6c, 0x75, 0x74, 0x69, 0x6f, 0x6e, 0x3b, 0x66, 0x75, 0x6e, 0x63, 0x74, 0x69, 0x6f, 0x6e, 0x61, 0x6c, 0x5f, 0x31, 0x2f, 0x63, 0x6f, 0x6e, 0x76, 0x32, 0x64, 0x5f, 0x31, 0x5f, 0x32, 0x2f, 0x53, 0x71, 0x75, 0x65, 0x65, 0x7a, 0x65, 0x00, 0x04, 0x00, 0x00, 0x00, 0x01, 0x00, 0x00, 0x00, 0x18, 0x00, 0x00, 0x00, 0x18, 0x00, 0x00, 0x00, 0x10, 0x00, 0x00, 0x00, 0xa2, 0xf7, 0xff, 0xff, 0x00, 0x00, 0x00, 0x01, 0x18, 0x00, 0x00, 0x00, 0x28, 0x00, 0x00, 0x00, 0x44, 0x00, 0x00, 0x00, 0x14, 0x00, 0x00, 0x00, 0x00, 0x00, 0x00, 0x09, 0xb8, 0x00, 0x00, 0x00, 0x04, 0x00, 0x00, 0x00, 0xff, 0xff, 0xff, 0xff, 0x18, 0x00, 0x00, 0x00, 0x18, 0x00, 0x00, 0x00, 0x08, 0x00, 0x00, 0x00, 0x8c, 0xf7, 0xff, 0xff, 0x08, 0x00, 0x00, 0x00, 0x10, 0x00, 0x00, 0x00, 0x01, 0x00, 0x00, 0x00, 0x1e, 0x00, 0x00, 0x00, 0x00, 0x00, 0x00, 0x00, 0x01, 0x00, 0x00, 0x00, 0xc8, 0xea, 0xd9, 0x3c, 0x79, 0x00, 0x00, 0x00, 0x66, 0x75, 0x6e, 0x63, 0x74, 0x69, 0x6f, 0x6e, 0x61, 0x6c, 0x5f, 0x31, 0x2f, 0x64, 0x65, 0x70, 0x74, 0x68, 0x77, 0x69, 0x73, 0x65, 0x5f, 0x63, 0x6f, 0x6e, 0x76, 0x32, 0x64, 0x5f, 0x31, 0x2f, 0x42, 0x69, 0x61, 0x73, 0x41, 0x64, 0x64, 0x3b, 0x66, 0x75, 0x6e, 0x63, 0x74, 0x69, 0x6f, 0x6e, 0x61, 0x6c, 0x5f, 0x31, 0x2f, 0x64, 0x65, 0x70, 0x74, 0x68, 0x77, 0x69, 0x73, 0x65, 0x5f, 0x63, 0x6f, 0x6e, 0x76, 0x32, 0x64, 0x5f, 0x31, 0x2f, 0x64, 0x65, 0x70, 0x74, 0x68, 0x77, 0x69, 0x73, 0x65, 0x3b, 0x66, 0x75, 0x6e, 0x63, 0x74, 0x69, 0x6f, 0x6e, 0x61, 0x6c, 0x5f, 0x31, 0x2f, 0x64, 0x65, 0x70, 0x74, 0x68, 0x77, 0x69, 0x73, 0x65, 0x5f, 0x63, 0x6f, 0x6e, 0x76, 0x32, 0x64, 0x5f, 0x31, 0x2f, 0x53, 0x71, 0x75, 0x65, 0x65, 0x7a, 0x65, 0x00, 0x00, 0x00, 0x04, 0x00, 0x00, 0x00, 0x01, 0x00, 0x00, 0x00, 0x18, 0x00, 0x00, 0x00, 0x18, 0x00, 0x00, 0x00, 0x08, 0x00, 0x00, 0x00, 0x8a, 0xf8, 0xff, 0xff, 0x00, 0x00, 0x00, 0x01, 0x18, 0x00, 0x00, 0x00, 0x28, 0x00, 0x00, 0x00, 0x44, 0x00, 0x00, 0x00, 0x13, 0x00, 0x00, 0x00, 0x00, 0x00, 0x00, 0x09, 0xb8, 0x00, 0x00, 0x00, 0x04, 0x00, 0x00, 0x00, 0xff, 0xff, 0xff, 0xff, 0x2f, 0x00, 0x00, 0x00, 0x2f, 0x00, 0x00, 0x00, 0x08, 0x00, 0x00, 0x00, 0x74, 0xf8, 0xff, 0xff, 0x08, 0x00, 0x00, 0x00, 0x10, 0x00, 0x00, 0x00, 0x01, 0x00, 0x00, 0x00, 0x80, 0xff, 0xff, 0xff, 0xff, 0xff, 0xff, 0xff, 0x01, 0x00, 0x00, 0x00, 0x47, 0x53, 0x3e, 0x3c, 0x78, 0x00, 0x00, 0x00, 0x66, 0x75, 0x6e, 0x63, 0x74, 0x69, 0x6f, 0x6e, 0x61, 0x6c, 0x5f, 0x31, 0x2f, 0x72, 0x65, 0x5f, 0x6c, 0x75, 0x5f, 0x31, 0x2f, 0x52, 0x65, 0x6c, 0x75, 0x3b, 0x66, 0x75, 0x6e, 0x63, 0x74, 0x69, 0x6f, 0x6e, 0x61, 0x6c, 0x5f, 0x31, 0x2f, 0x63, 0x6f, 0x6e, 0x76, 0x32, 0x64, 0x5f, 0x31, 0x2f, 0x42, 0x69, 0x61, 0x73, 0x41, 0x64, 0x64, 0x3b, 0x66, 0x75, 0x6e, 0x63, 0x74, 0x69, 0x6f, 0x6e, 0x61, 0x6c, 0x5f, 0x31, 0x2f, 0x63, 0x6f, 0x6e, 0x76, 0x32, 0x64, 0x5f, 0x31, 0x2f, 0x63, 0x6f, 0x6e, 0x76, 0x6f, 0x6c, 0x75, 0x74, 0x69, 0x6f, 0x6e, 0x3b, 0x66, 0x75, 0x6e, 0x63, 0x74, 0x69, 0x6f, 0x6e, 0x61, 0x6c, 0x5f, 0x31, 0x2f, 0x63, 0x6f, 0x6e, 0x76, 0x32, 0x64, 0x5f, 0x31, 0x2f, 0x53, 0x71, 0x75, 0x65, 0x65, 0x7a, 0x65, 0x31, 0x00, 0x00, 0x00, 0x00, 0x04, 0x00, 0x00, 0x00, 0x01, 0x00, 0x00, 0x00, 0x2f, 0x00, 0x00, 0x00, 0x2f, 0x00, 0x00, 0x00, 0x08, 0x00, 0x00, 0x00, 0xca, 0xf9, 0xff, 0xff, 0x00, 0x00, 0x00, 0x01, 0x14, 0x00, 0x00, 0x00, 0x30, 0x00, 0x00, 0x00, 0x12, 0x00, 0x00, 0x00, 0x00, 0x00, 0x00, 0x09, 0x3c, 0x00, 0x00, 0x00, 0x44, 0xf9, 0xff, 0xff, 0x08, 0x00, 0x00, 0x00, 0x10, 0x00, 0x00, 0x00, 0x01, 0x00, 0x00, 0x00, 0x00, 0x00, 0x00, 0x00, 0x00, 0x00, 0x00, 0x00, 0x01, 0x00, 0x00, 0x00, 0xf5, 0xf3, 0x93, 0x3b, 0x13, 0x00, 0x00, 0x00, 0x74, 0x66, 0x6c, 0x2e, 0x70, 0x73, 0x65, 0x75, 0x64, 0x6f, 0x5f, 0x71, 0x63, 0x6f, 0x6e, 0x73, 0x74, 0x31, 0x35, 0x00, 0x04, 0x00, 0x00, 0x00, 0x08, 0x00, 0x00, 0x00, 0x03, 0x00, 0x00, 0x00, 0x03, 0x00, 0x00, 0x00, 0x01, 0x00, 0x00, 0x00, 0x32, 0xfa, 0xff, 0xff, 0x00, 0x00, 0x00, 0x01, 0x14, 0x00, 0x00, 0x00, 0x34, 0x00, 0x00, 0x00, 0x11, 0x00, 0x00, 0x00, 0x00, 0x00, 0x00, 0x02, 0x40, 0x00, 0x00, 0x00, 0xac, 0xf9, 0xff, 0xff, 0x08, 0x00, 0x00, 0x00, 0x14, 0x00, 0x00, 0x00, 0x01, 0x00, 0x00, 0x00, 0x00, 0x00, 0x00, 0x00, 0x00, 0x00, 0x00, 0x00, 0x00, 0x00, 0x00, 0x00, 0x01, 0x00, 0x00, 0x00, 0x7e, 0x88, 0x94, 0x37, 0x13, 0x00, 0x00, 0x00, 0x74, 0x66, 0x6c, 0x2e, 0x70, 0x73, 0x65, 0x75, 0x64, 0x6f, 0x5f, 0x71, 0x63, 0x6f, 0x6e, 0x73, 0x74, 0x31, 0x34, 0x00, 0x01, 0x00, 0x00, 0x00, 0x08, 0x00, 0x00, 0x00, 0x92, 0xfa, 0xff, 0xff, 0x00, 0x00, 0x00, 0x01, 0x14, 0x00, 0x00, 0x00, 0x30, 0x00, 0x00, 0x00, 0x10, 0x00, 0x00, 0x00, 0x00, 0x00, 0x00, 0x09, 0x3c, 0x00, 0x00, 0x00, 0x0c, 0xfa, 0xff, 0xff, 0x08, 0x00, 0x00, 0x00, 0x10, 0x00, 0x00, 0x00, 0x01, 0x00, 0x00, 0x00, 0x00, 0x00, 0x00, 0x00, 0x00, 0x00, 0x00, 0x00, 0x01, 0x00, 0x00, 0x00, 0x6e, 0xd1, 0x7e, 0x3c, 0x13, 0x00, 0x00, 0x00, 0x74, 0x66, 0x6c, 0x2e, 0x70, 0x73, 0x65, 0x75, 0x64, 0x6f, 0x5f, 0x71, 0x63, 0x6f, 0x6e, 0x73, 0x74, 0x31, 0x33, 0x00, 0x04, 0x00, 0x00, 0x00, 0x01, 0x00, 0x00, 0x00, 0x03, 0x00, 0x00, 0x00, 0x03, 0x00, 0x00, 0x00, 0x08, 0x00, 0x00, 0x00, 0xfa, 0xfa, 0xff, 0xff, 0x00, 0x00, 0x00, 0x01, 0x14, 0x00, 0x00, 0x00, 0x34, 0x00, 0x00, 0x00, 0x0f, 0x00, 0x00, 0x00, 0x00, 0x00, 0x00, 0x02, 0x40, 0x00, 0x00, 0x00, 0x74, 0xfa, 0xff, 0xff, 0x08, 0x00, 0x00, 0x00, 0x14, 0x00, 0x00, 0x00, 0x01, 0x00, 0x00, 0x00, 0x00, 0x00, 0x00, 0x00, 0x00, 0x00, 0x00, 0x00, 0x00, 0x00, 0x00, 0x00, 0x01, 0x00, 0x00, 0x00, 0x54, 0x72, 0x3d, 0x39, 0x13, 0x00, 0x00, 0x00, 0x74, 0x66, 0x6c, 0x2e, 0x70, 0x73, 0x65, 0x75, 0x64, 0x6f, 0x5f, 0x71, 0x63, 0x6f, 0x6e, 0x73, 0x74, 0x31, 0x32, 0x00, 0x01, 0x00, 0x00, 0x00, 0x08, 0x00, 0x00, 0x00, 0x5a, 0xfb, 0xff, 0xff, 0x00, 0x00, 0x00, 0x01, 0x14, 0x00, 0x00, 0x00, 0x30, 0x00, 0x00, 0x00, 0x0e, 0x00, 0x00, 0x00, 0x00, 0x00, 0x00, 0x09, 0x3c, 0x00, 0x00, 0x00, 0xd4, 0xfa, 0xff, 0xff, 0x08, 0x00, 0x00, 0x00, 0x10, 0x00, 0x00, 0x00, 0x01, 0x00, 0x00, 0x00, 0x00, 0x00, 0x00, 0x00, 0x00, 0x00, 0x00, 0x00, 0x01, 0x00, 0x00, 0x00, 0xb6, 0x5c, 0x65, 0x3c, 0x13, 0x00, 0x00, 0x00, 0x74, 0x66, 0x6c, 0x2e, 0x70, 0x73, 0x65, 0x75, 0x64, 0x6f, 0x5f, 0x71, 0x63, 0x6f, 0x6e, 0x73, 0x74, 0x31, 0x31, 0x00, 0x04, 0x00, 0x00, 0x00, 0x10, 0x00, 0x00, 0x00, 0x01, 0x00, 0x00, 0x00, 0x01, 0x00, 0x00, 0x00, 0x08, 0x00, 0x00, 0x00, 0xc2, 0xfb, 0xff, 0xff, 0x00, 0x00, 0x00, 0x01, 0x14, 0x00, 0x00, 0x00, 0x34, 0x00, 0x00, 0x00, 0x0d, 0x00, 0x00, 0x00, 0x00, 0x00, 0x00, 0x02, 0x40, 0x00, 0x00, 0x00, 0x3c, 0xfb, 0xff, 0xff, 0x08, 0x00, 0x00, 0x00, 0x14, 0x00, 0x00, 0x00, 0x01, 0x00, 0x00, 0x00, 0x00, 0x00, 0x00, 0x00, 0x00, 0x00, 0x00, 0x00, 0x00, 0x00, 0x00, 0x00, 0x01, 0x00, 0x00, 0x00, 0xf0, 0x3d, 0xc3, 0x39, 0x13, 0x00, 0x00, 0x00, 0x74, 0x66, 0x6c, 0x2e, 0x70, 0x73, 0x65, 0x75, 0x64, 0x6f, 0x5f, 0x71, 0x63, 0x6f, 0x6e, 0x73, 0x74, 0x31, 0x30, 0x00, 0x01, 0x00, 0x00, 0x00, 0x10, 0x00, 0x00, 0x00, 0x22, 0xfc, 0xff, 0xff, 0x00, 0x00, 0x00, 0x01, 0x14, 0x00, 0x00, 0x00, 0x30, 0x00, 0x00, 0x00, 0x0c, 0x00, 0x00, 0x00, 0x00, 0x00, 0x00, 0x09, 0x3c, 0x00, 0x00, 0x00, 0x9c, 0xfb, 0xff, 0xff, 0x08, 0x00, 0x00, 0x00, 0x10, 0x00, 0x00, 0x00, 0x01, 0x00, 0x00, 0x00, 0x00, 0x00, 0x00, 0x00, 0x00, 0x00, 0x00, 0x00, 0x01, 0x00, 0x00, 0x00, 0x74, 0x51, 0x2b, 0x3c, 0x12, 0x00, 0x00, 0x00, 0x74, 0x66, 0x6c, 0x2e, 0x70, 0x73, 0x65, 0x75, 0x64, 0x6f, 0x5f, 0x71, 0x63, 0x6f, 0x6e, 0x73, 0x74, 0x39, 0x00, 0x00, 0x04, 0x00, 0x00, 0x00, 0x01, 0x00, 0x00, 0x00, 0x03, 0x00, 0x00, 0x00, 0x03, 0x00, 0x00, 0x00, 0x10, 0x00, 0x00, 0x00, 0x8a, 0xfc, 0xff, 0xff, 0x00, 0x00, 0x00, 0x01, 0x14, 0x00, 0x00, 0x00, 0x34, 0x00, 0x00, 0x00, 0x0b, 0x00, 0x00, 0x00, 0x00, 0x00, 0x00, 0x02, 0x40, 0x00, 0x00, 0x00, 0x04, 0xfc, 0xff, 0xff, 0x08, 0x00, 0x00, 0x00, 0x14, 0x00, 0x00, 0x00, 0x01, 0x00, 0x00, 0x00, 0x00, 0x00, 0x00, 0x00, 0x00, 0x00, 0x00, 0x00, 0x00, 0x00, 0x00, 0x00, 0x01, 0x00, 0x00, 0x00, 0xd7, 0x45, 0x8f, 0x39, 0x12, 0x00, 0x00, 0x00, 0x74, 0x66, 0x6c, 0x2e, 0x70, 0x73, 0x65, 0x75, 0x64, 0x6f, 0x5f, 0x71, 0x63, 0x6f, 0x6e, 0x73, 0x74, 0x38, 0x00, 0x00, 0x01, 0x00, 0x00, 0x00, 0x10, 0x00, 0x00, 0x00, 0xea, 0xfc, 0xff, 0xff, 0x00, 0x00, 0x00, 0x01, 0x14, 0x00, 0x00, 0x00, 0x30, 0x00, 0x00, 0x00, 0x0a, 0x00, 0x00, 0x00, 0x00, 0x00, 0x00, 0x09, 0x3c, 0x00, 0x00, 0x00, 0x64, 0xfc, 0xff, 0xff, 0x08, 0x00, 0x00, 0x00, 0x10, 0x00, 0x00, 0x00, 0x01, 0x00, 0x00, 0x00, 0x00, 0x00, 0x00, 0x00, 0x00, 0x00, 0x00, 0x00, 0x01, 0x00, 0x00, 0x00, 0x8b, 0x31, 0x8e, 0x3c, 0x12, 0x00, 0x00, 0x00, 0x74, 0x66, 0x6c, 0x2e, 0x70, 0x73, 0x65, 0x75, 0x64, 0x6f, 0x5f, 0x71, 0x63, 0x6f, 0x6e, 0x73, 0x74, 0x37, 0x00, 0x00, 0x04, 0x00, 0x00, 0x00, 0x18, 0x00, 0x00, 0x00, 0x01, 0x00, 0x00, 0x00, 0x01, 0x00, 0x00, 0x00, 0x10, 0x00, 0x00, 0x00, 0x52, 0xfd, 0xff, 0xff, 0x00, 0x00, 0x00, 0x01, 0x14, 0x00, 0x00, 0x00, 0x34, 0x00, 0x00, 0x00, 0x09, 0x00, 0x00, 0x00, 0x00, 0x00, 0x00, 0x02, 0x40, 0x00, 0x00, 0x00, 0xcc, 0xfc, 0xff, 0xff, 0x08, 0x00, 0x00, 0x00, 0x14, 0x00, 0x00, 0x00, 0x01, 0x00, 0x00, 0x00, 0x00, 0x00, 0x00, 0x00, 0x00, 0x00, 0x00, 0x00, 0x00, 0x00, 0x00, 0x00, 0x01, 0x00, 0x00, 0x00, 0x35, 0x0b, 0xbd, 0x3a, 0x12, 0x00, 0x00, 0x00, 0x74, 0x66, 0x6c, 0x2e, 0x70, 0x73, 0x65, 0x75, 0x64, 0x6f, 0x5f, 0x71, 0x63, 0x6f, 0x6e, 0x73, 0x74, 0x36, 0x00, 0x00, 0x01, 0x00, 0x00, 0x00, 0x18, 0x00, 0x00, 0x00, 0xb2, 0xfd, 0xff, 0xff, 0x00, 0x00, 0x00, 0x01, 0x14, 0x00, 0x00, 0x00, 0x30, 0x00, 0x00, 0x00, 0x08, 0x00, 0x00, 0x00, 0x00, 0x00, 0x00, 0x09, 0x3c, 0x00, 0x00, 0x00, 0x2c, 0xfd, 0xff, 0xff, 0x08, 0x00, 0x00, 0x00, 0x10, 0x00, 0x00, 0x00, 0x01, 0x00, 0x00, 0x00, 0x00, 0x00, 0x00, 0x00, 0x00, 0x00, 0x00, 0x00, 0x01, 0x00, 0x00, 0x00, 0xa5, 0x55, 0x0a, 0x3c, 0x12, 0x00, 0x00, 0x00, 0x74, 0x66, 0x6c, 0x2e, 0x70, 0x73, 0x65, 0x75, 0x64, 0x6f, 0x5f, 0x71, 0x63, 0x6f, 0x6e, 0x73, 0x74, 0x35, 0x00, 0x00, 0x04, 0x00, 0x00, 0x00, 0x01, 0x00, 0x00, 0x00, 0x03, 0x00, 0x00, 0x00, 0x03, 0x00, 0x00, 0x00, 0x18, 0x00, 0x00, 0x00, 0x1a, 0xfe, 0xff, 0xff, 0x00, 0x00, 0x00, 0x01, 0x14, 0x00, 0x00, 0x00, 0x34, 0x00, 0x00, 0x00, 0x07, 0x00, 0x00, 0x00, 0x00, 0x00, 0x00, 0x02, 0x40, 0x00, 0x00, 0x00, 0x94, 0xfd, 0xff, 0xff, 0x08, 0x00, 0x00, 0x00, 0x14, 0x00, 0x00, 0x00, 0x01, 0x00, 0x00, 0x00, 0x00, 0x00, 0x00, 0x00, 0x00, 0x00, 0x00, 0x00, 0x00, 0x00, 0x00, 0x00, 0x01, 0x00, 0x00, 0x00, 0x49, 0x88, 0xea, 0x3a, 0x12, 0x00, 0x00, 0x00, 0x74, 0x66, 0x6c, 0x2e, 0x70, 0x73, 0x65, 0x75, 0x64, 0x6f, 0x5f, 0x71, 0x63, 0x6f, 0x6e, 0x73, 0x74, 0x34, 0x00, 0x00, 0x01, 0x00, 0x00, 0x00, 0x18, 0x00, 0x00, 0x00, 0x7a, 0xfe, 0xff, 0xff, 0x00, 0x00, 0x00, 0x01, 0x14, 0x00, 0x00, 0x00, 0x30, 0x00, 0x00, 0x00, 0x06, 0x00, 0x00, 0x00, 0x00, 0x00, 0x00, 0x09, 0x3c, 0x00, 0x00, 0x00, 0xf4, 0xfd, 0xff, 0xff, 0x08, 0x00, 0x00, 0x00, 0x10, 0x00, 0x00, 0x00, 0x01, 0x00, 0x00, 0x00, 0x00, 0x00, 0x00, 0x00, 0x00, 0x00, 0x00, 0x00, 0x01, 0x00, 0x00, 0x00, 0x36, 0x24, 0x56, 0x3c, 0x12, 0x00, 0x00, 0x00, 0x74, 0x66, 0x6c, 0x2e, 0x70, 0x73, 0x65, 0x75, 0x64, 0x6f, 0x5f, 0x71, 0x63, 0x6f, 0x6e, 0x73, 0x74, 0x33, 0x00, 0x00, 0x04, 0x00, 0x00, 0x00, 0x20, 0x00, 0x00, 0x00, 0x01, 0x00, 0x00, 0x00, 0x01, 0x00, 0x00, 0x00, 0x18, 0x00, 0x00, 0x00, 0xe2, 0xfe, 0xff, 0xff, 0x00, 0x00, 0x00, 0x01, 0x14, 0x00, 0x00, 0x00, 0x34, 0x00, 0x00, 0x00, 0x05, 0x00, 0x00, 0x00, 0x00, 0x00, 0x00, 0x02, 0x40, 0x00, 0x00, 0x00, 0x5c, 0xfe, 0xff, 0xff, 0x08, 0x00, 0x00, 0x00, 0x14, 0x00, 0x00, 0x00, 0x01, 0x00, 0x00, 0x00, 0x00, 0x00, 0x00, 0x00, 0x00, 0x00, 0x00, 0x00, 0x00, 0x00, 0x00, 0x00, 0x01, 0x00, 0x00, 0x00, 0x8f, 0x45, 0xb8, 0x3b, 0x12, 0x00, 0x00, 0x00, 0x74, 0x66, 0x6c, 0x2e, 0x70, 0x73, 0x65, 0x75, 0x64, 0x6f, 0x5f, 0x71, 0x63, 0x6f, 0x6e, 0x73, 0x74, 0x32, 0x00, 0x00, 0x01, 0x00, 0x00, 0x00, 0x20, 0x00, 0x00, 0x00, 0x42, 0xff, 0xff, 0xff, 0x00, 0x00, 0x00, 0x01, 0x14, 0x00, 0x00, 0x00, 0x30, 0x00, 0x00, 0x00, 0x04, 0x00, 0x00, 0x00, 0x00, 0x00, 0x00, 0x09, 0x3c, 0x00, 0x00, 0x00, 0xbc, 0xfe, 0xff, 0xff, 0x08, 0x00, 0x00, 0x00, 0x10, 0x00, 0x00, 0x00, 0x01, 0x00, 0x00, 0x00, 0x00, 0x00, 0x00, 0x00, 0x00, 0x00, 0x00, 0x00, 0x01, 0x00, 0x00, 0x00, 0x00, 0x4a, 0x2a, 0x3c, 0x12, 0x00, 0x00, 0x00, 0x74, 0x66, 0x6c, 0x2e, 0x70, 0x73, 0x65, 0x75, 0x64, 0x6f, 0x5f, 0x71, 0x63, 0x6f, 0x6e, 0x73, 0x74, 0x31, 0x00, 0x00, 0x02, 0x00, 0x00, 0x00, 0x04, 0x00, 0x00, 0x00, 0x20, 0x00, 0x00, 0x00, 0xa2, 0xff, 0xff, 0xff, 0x00, 0x00, 0x00, 0x01, 0x14, 0x00, 0x00, 0x00, 0x30, 0x00, 0x00, 0x00, 0x03, 0x00, 0x00, 0x00, 0x00, 0x00, 0x00, 0x02, 0x3c, 0x00, 0x00, 0x00, 0x1c, 0xff, 0xff, 0xff, 0x08, 0x00, 0x00, 0x00, 0x10, 0x00, 0x00, 0x00, 0x01, 0x00, 0x00, 0x00, 0x00, 0x00, 0x00, 0x00, 0x00, 0x00, 0x00, 0x00, 0x01, 0x00, 0x00, 0x00, 0x55, 0x98, 0x11, 0x39, 0x11, 0x00, 0x00, 0x00, 0x74, 0x66, 0x6c, 0x2e, 0x70, 0x73, 0x65, 0x75, 0x64, 0x6f, 0x5f, 0x71, 0x63, 0x6f, 0x6e, 0x73, 0x74, 0x00, 0x00, 0x00, 0x01, 0x00, 0x00, 0x00, 0x04, 0x00, 0x00, 0x00, 0x00, 0x00, 0x16, 0x00, 0x1c, 0x00, 0x18, 0x00, 0x17, 0x00, 0x10, 0x00, 0x0c, 0x00, 0x08, 0x00, 0x00, 0x00, 0x00, 0x00, 0x00, 0x00, 0x07, 0x00, 0x16, 0x00, 0x00, 0x00, 0x00, 0x00, 0x00, 0x01, 0x18, 0x00, 0x00, 0x00, 0x18, 0x00, 0x00, 0x00, 0x02, 0x00, 0x00, 0x00, 0x00, 0x00, 0x00, 0x02, 0x20, 0x00, 0x00, 0x00, 0x04, 0x00, 0x04, 0x00, 0x04, 0x00, 0x00, 0x00, 0x0e, 0x00, 0x00, 0x00, 0x61, 0x72, 0x69, 0x74, 0x68, 0x2e, 0x63, 0x6f, 0x6e, 0x73, 0x74, 0x61, 0x6e, 0x74, 0x00, 0x00, 0x01, 0x00, 0x00, 0x00, 0x02, 0x00, 0x00, 0x00, 0x00, 0x00, 0x16, 0x00, 0x20, 0x00, 0x1c, 0x00, 0x1b, 0x00, 0x14, 0x00, 0x10, 0x00, 0x0c, 0x00, 0x00, 0x00, 0x00, 0x00, 0x08, 0x00, 0x07, 0x00, 0x16, 0x00, 0x00, 0x00, 0x00, 0x00, 0x00, 0x01, 0x18, 0x00, 0x00, 0x00, 0x34, 0x00, 0x00, 0x00, 0x54, 0x00, 0x00, 0x00, 0x01, 0x00, 0x00, 0x00, 0x00, 0x00, 0x00, 0x09, 0x6c, 0x00, 0x00, 0x00, 0x04, 0x00, 0x00, 0x00, 0xff, 0xff, 0xff, 0xff, 0x60, 0x00, 0x00, 0x00, 0x60, 0x00, 0x00, 0x00, 0x01, 0x00, 0x00, 0x00, 0x0c, 0x00, 0x0c, 0x00, 0x00, 0x00, 0x00, 0x00, 0x08, 0x00, 0x04, 0x00, 0x0c, 0x00, 0x00, 0x00, 0x08, 0x00, 0x00, 0x00, 0x14, 0x00, 0x00, 0x00, 0x01, 0x00, 0x00, 0x00, 0x80, 0xff, 0xff, 0xff, 0xff, 0xff, 0xff, 0xff, 0x00, 0x00, 0x00, 0x00, 0x01, 0x00, 0x00, 0x00, 0x81, 0x80, 0x80, 0x3b, 0x1e, 0x00, 0x00, 0x00, 0x73, 0x65, 0x72, 0x76, 0x69, 0x6e, 0x67, 0x5f, 0x64, 0x65, 0x66, 0x61, 0x75, 0x6c, 0x74, 0x5f, 0x6b, 0x65, 0x72, 0x61, 0x73, 0x5f, 0x74, 0x65, 0x6e, 0x73, 0x6f, 0x72, 0x3a, 0x30, 0x00, 0x00, 0x04, 0x00, 0x00, 0x00, 0x01, 0x00, 0x00, 0x00, 0x60, 0x00, 0x00, 0x00, 0x60, 0x00, 0x00, 0x00, 0x01, 0x00, 0x00, 0x00, 0x05, 0x00, 0x00, 0x00, 0x60, 0x00, 0x00, 0x00, 0x40, 0x00, 0x00, 0x00, 0x2c, 0x00, 0x00, 0x00, 0x18, 0x00, 0x00, 0x00, 0x04, 0x00, 0x00, 0x00, 0xc0, 0xff, 0xff, 0xff, 0x19, 0x00, 0x00, 0x00, 0x02, 0x00, 0x00, 0x00, 0x00, 0x00, 0x00, 0x19, 0xd0, 0xff, 0xff, 0xff, 0x09, 0x00, 0x00, 0x00, 0x04, 0x00, 0x00, 0x00, 0x00, 0x00, 0x00, 0x09, 0xe0, 0xff, 0xff, 0xff, 0x28, 0x00, 0x00, 0x00, 0x02, 0x00, 0x00, 0x00, 0x00, 0x00, 0x00, 0x28, 0xf0, 0xff, 0xff, 0xff, 0x04, 0x00, 0x00, 0x00, 0x03, 0x00, 0x00, 0x00, 0x00, 0x00, 0x00, 0x04, 0x0c, 0x00, 0x10, 0x00, 0x0f, 0x00, 0x00, 0x00, 0x08, 0x00, 0x04, 0x00, 0x0c, 0x00, 0x00, 0x00, 0x03, 0x00, 0x00, 0x00, 0x03, 0x00, 0x00, 0x00, 0x00, 0x00, 0x00, 0x03
};

const unsigned int B6164_MicroNet_model_len = 8304;
