const unsigned char B624_TinyESP32CNN_model[] = {
0x20, 0x00, 0x00, 0x00, 0x54, 0x46, 0x4c, 0x33, 0x00, 0x00, 0x00, 0x00, 0x14, 0x00, 0x20, 0x00, 0x1c, 0x00, 0x18, 0x00, 0x14, 0x00, 0x10, 0x00, 0x0c, 0x00, 0x00, 0x00, 0x08, 0x00, 0x04, 0x00, 0x14, 0x00, 0x00, 0x00, 0x1c, 0x00, 0x00, 0x00, 0x98, 0x00, 0x00, 0x00, 0x18, 0x01, 0x00, 0x00, 0x98, 0x1f, 0x00, 0x00, 0xa8, 0x1f, 0x00, 0x00, 0xac, 0x2e, 0x00, 0x00, 0x03, 0x00, 0x00, 0x00, 0x01, 0x00, 0x00, 0x00, 0x10, 0x00, 0x00, 0x00, 0x00, 0x00, 0x0a, 0x00, 0x10, 0x00, 0x0c, 0x00, 0x08, 0x00, 0x04, 0x00, 0x0a, 0x00, 0x00, 0x00, 0x0c, 0x00, 0x00, 0x00, 0x1c, 0x00, 0x00, 0x00, 0x3c, 0x00, 0x00, 0x00, 0x0f, 0x00, 0x00, 0x00, 0x73, 0x65, 0x72, 0x76, 0x69, 0x6e, 0x67, 0x5f, 0x64, 0x65, 0x66, 0x61, 0x75, 0x6c, 0x74, 0x00, 0x01, 0x00, 0x00, 0x00, 0x04, 0x00, 0x00, 0x00, 0x68, 0xff, 0xff, 0xff, 0x15, 0x00, 0x00, 0x00, 0x04, 0x00, 0x00, 0x00, 0x08, 0x00, 0x00, 0x00, 0x6f, 0x75, 0x74, 0x70, 0x75, 0x74, 0x5f, 0x30, 0x00, 0x00, 0x00, 0x00, 0x01, 0x00, 0x00, 0x00, 0x04, 0x00, 0x00, 0x00, 0x46, 0xe0, 0xff, 0xff, 0x04, 0x00, 0x00, 0x00, 0x0f, 0x00, 0x00, 0x00, 0x6b, 0x65, 0x72, 0x61, 0x73, 0x5f, 0x74, 0x65, 0x6e, 0x73, 0x6f, 0x72, 0x5f, 0x32, 0x31, 0x00, 0x03, 0x00, 0x00, 0x00, 0x5c, 0x00, 0x00, 0x00, 0x2c, 0x00, 0x00, 0x00, 0x04, 0x00, 0x00, 0x00, 0xb8, 0xff, 0xff, 0xff, 0x19, 0x00, 0x00, 0x00, 0x04, 0x00, 0x00, 0x00, 0x13, 0x00, 0x00, 0x00, 0x43, 0x4f, 0x4e, 0x56, 0x45, 0x52, 0x53, 0x49, 0x4f, 0x4e, 0x5f, 0x4d, 0x45, 0x54, 0x41, 0x44, 0x41, 0x54, 0x41, 0x00, 0xdc, 0xff, 0xff, 0xff, 0x18, 0x00, 0x00, 0x00, 0x04, 0x00, 0x00, 0x00, 0x13, 0x00, 0x00, 0x00, 0x6d, 0x69, 0x6e, 0x5f, 0x72, 0x75, 0x6e, 0x74, 0x69, 0x6d, 0x65, 0x5f, 0x76, 0x65, 0x72, 0x73, 0x69, 0x6f, 0x6e, 0x00, 0x08, 0x00, 0x0c, 0x00, 0x08, 0x00, 0x04, 0x00, 0x08, 0x00, 0x00, 0x00, 0x17, 0x00, 0x00, 0x00, 0x04, 0x00, 0x00, 0x00, 0x13, 0x00, 0x00, 0x00, 0x6d, 0x69, 0x6e, 0x5f, 0x72, 0x75, 0x6e, 0x74, 0x69, 0x6d, 0x65, 0x5f, 0x76, 0x65, 0x72, 0x73, 0x69, 0x6f, 0x6e, 0x00, 0x1a, 0x00, 0x00, 0x00, 0x7c, 0x1e, 0x00, 0x00, 0x74, 0x1e, 0x00, 0x00, 0x5c, 0x1e, 0x00, 0x00, 0x3c, 0x1e, 0x00, 0x00, 0xac, 0x1d, 0x00, 0x00, 0x1c, 0x1d, 0x00, 0x00, 0x0c, 0x19, 0x00, 0x00, 0x7c, 0x18, 0x00, 0x00, 0x6c, 0x06, 0x00, 0x00, 0x1c, 0x06, 0x00, 0x00, 0x8c, 0x01, 0x00, 0x00, 0x5c, 0x01, 0x00, 0x00, 0x04, 0x01, 0x00, 0x00, 0xfc, 0x00, 0x00, 0x00, 0xf4, 0x00, 0x00, 0x00, 0xec, 0x00, 0x00, 0x00, 0xe4, 0x00, 0x00, 0x00, 0xdc, 0x00, 0x00, 0x00, 0xd4, 0x00, 0x00, 0x00, 0xcc, 0x00, 0x00, 0x00, 0xc4, 0x00, 0x00, 0x00, 0xbc, 0x00, 0x00, 0x00, 0xb4, 0x00, 0x00, 0x00, 0x94, 0x00, 0x00, 0x00, 0x74, 0x00, 0x00, 0x00, 0x04, 0x00, 0x00, 0x00, 0x52, 0xe1, 0xff, 0xff, 0x04, 0x00, 0x00, 0x00, 0x60, 0x00, 0x00, 0x00, 0x0c, 0x00, 0x00, 0x00, 0x08, 0x00, 0x0e, 0x00, 0x08, 0x00, 0x04, 0x00, 0x08, 0x00, 0x00, 0x00, 0x10, 0x00, 0x00, 0x00, 0x28, 0x00, 0x00, 0x00, 0x00, 0x00, 0x06, 0x00, 0x08, 0x00, 0x04, 0x00, 0x06, 0x00, 0x00, 0x00, 0x04, 0x00, 0x00, 0x00, 0x01, 0x00, 0x00, 0x00, 0xeb, 0x03, 0x00, 0x00, 0x0c, 0x00, 0x18, 0x00, 0x14, 0x00, 0x10, 0x00, 0x0c, 0x00, 0x04, 0x00, 0x0c, 0x00, 0x00, 0x00, 0xe0, 0xd2, 0x55, 0x85, 0x19, 0x06, 0x94, 0x3a, 0x02, 0x00, 0x00, 0x00, 0x02, 0x00, 0x00, 0x00, 0x04, 0x00, 0x00, 0x00, 0x06, 0x00, 0x00, 0x00, 0x32, 0x2e, 0x31, 0x39, 0x2e, 0x30, 0x00, 0x00, 0xbe, 0xe1, 0xff, 0xff, 0x04, 0x00, 0x00, 0x00, 0x10, 0x00, 0x00, 0x00, 0x00, 0x00, 0x00, 0x00, 0x00, 0x00, 0x00, 0x00, 0x00, 0x00, 0x00, 0x00, 0x00, 0x00, 0x00, 0x00, 0xda, 0xe1, 0xff, 0xff, 0x04, 0x00, 0x00, 0x00, 0x10, 0x00, 0x00, 0x00, 0x31, 0x2e, 0x31, 0x34, 0x2e, 0x30, 0x00, 0x00, 0x00, 0x00, 0x00, 0x00, 0x00, 0x00, 0x00, 0x00, 0x48, 0xd4, 0xff, 0xff, 0x4c, 0xd4, 0xff, 0xff, 0x50, 0xd4, 0xff, 0xff, 0x54, 0xd4, 0xff, 0xff, 0x58, 0xd4, 0xff, 0xff, 0x5c, 0xd4, 0xff, 0xff, 0x60, 0xd4, 0xff, 0xff, 0x64, 0xd4, 0xff, 0xff, 0x68, 0xd4, 0xff, 0xff, 0x6c, 0xd4, 0xff, 0xff, 0x1e, 0xe2, 0xff, 0xff, 0x04, 0x00, 0x00, 0x00, 0x48, 0x00, 0x00, 0x00, 0xca, 0xff, 0xd5, 0xe7, 0xec, 0x20, 0x16, 0x30, 0x2a, 0x11, 0x23, 0x29, 0x14, 0xf2, 0x21, 0x27, 0xe9, 0x29, 0xcb, 0xdf, 0x81, 0xbf, 0xd6, 0x9c, 0x9c, 0xc1, 0x9b, 0xd6, 0x18, 0x20, 0xff, 0xf0, 0xd8, 0x2e, 0xee, 0x08, 0x24, 0x35, 0x16, 0x2c, 0x07, 0x23, 0x26, 0xf8, 0x22, 0x16, 0x06, 0xeb, 0xdf, 0x0a, 0xe4, 0xe4, 0x08, 0x12, 0x37, 0xd5, 0xf5, 0xf2, 0xe7, 0x1e, 0x20, 0xf3, 0xe4, 0xef, 0x04, 0x16, 0x0c, 0x14, 0xfd, 0x2a, 0x21, 0x16, 0x72, 0xe2, 0xff, 0xff, 0x04, 0x00, 0x00, 0x00, 0x20, 0x00, 0x00, 0x00, 0x5e, 0xff, 0xff, 0xff, 0x48, 0xd9, 0xff, 0xff, 0xe0, 0x2e, 0x00, 0x00, 0x56, 0x02, 0x00, 0x00, 0xa5, 0xf7, 0xff, 0xff, 0xc5, 0x1f, 0x00, 0x00, 0x4b, 0x0d, 0x00, 0x00, 0xd3, 0xda, 0xff, 0xff, 0x9e, 0xe2, 0xff, 0xff, 0x04, 0x00, 0x00, 0x00, 0x80, 0x04, 0x00, 0x00, 0x27, 0xf9, 0xef, 0x38, 0x06, 0x0c, 0x2c, 0x03, 0x3c, 0xfc, 0xf8, 0x3c, 0xf8, 0x00, 0x32, 0xf7, 0x2d, 0x08, 0xbe, 0x2f, 0xfc, 0x04, 0x02, 0xfd, 0x0c, 0xf9, 0xd1, 0x27, 0x08, 0xfc, 0x18, 0xf8, 0x34, 0xf3, 0xdf, 0x1b, 0xfb, 0x16, 0x15, 0xfe, 0x37, 0xfe, 0xab, 0x28, 0x01, 0xfd, 0x0c, 0xf9, 0x07, 0x0d, 0xce, 0x18, 0xfd, 0x0a, 0x0f, 0x10, 0x1c, 0x04, 0xf3, 0x10, 0x02, 0x08, 0x19, 0xfd, 0x11, 0xfe, 0xc0, 0x1a, 0x08, 0xf9, 0x11, 0x0a, 0xf1, 0x02, 0xdb, 0x15, 0x05, 0xff, 0x22, 0x01, 0xf2, 0x16, 0xf7, 0x2e, 0xfd, 0x00, 0x2a, 0xf7, 0x19, 0x12, 0xeb, 0x14, 0x06, 0x04, 0x05, 0xfc, 0x12, 0xf4, 0xfa, 0x31, 0x08, 0x17, 0x0b, 0x0a, 0x22, 0x00, 0x12, 0x30, 0xfe, 0x14, 0x2c, 0xf1, 0x2e, 0x01, 0xf6, 0x17, 0xe9, 0x01, 0x1c, 0xf5, 0x29, 0xf7, 0xd8, 0x0f, 0xf2, 0x04, 0x04, 0xf5, 0x24, 0x0d, 0xe6, 0x0d, 0xf8, 0x08, 0x25, 0x0e, 0x18, 0x08, 0xd7, 0x1a, 0xf0, 0xfb, 0x01, 0x0d, 0xc4, 0x08, 0x30, 0x1d, 0xf8, 0x04, 0x00, 0x1b, 0xf0, 0x2d, 0x47, 0x14, 0xf5, 0x12, 0x0e, 0xf4, 0xf4, 0x44, 0x0e, 0x0b, 0x35, 0x03, 0x0b, 0x27, 0xab, 0xd1, 0x31, 0x07, 0xd9, 0x18, 0xf6, 0xc7, 0xd1, 0xfb, 0x46, 0x09, 0xca, 0x12, 0x06, 0xdf, 0x0c, 0x12, 0x01, 0x0e, 0xfb, 0x17, 0x05, 0x0f, 0xc1, 0xcb, 0x17, 0x08, 0xc4, 0xf0, 0xed, 0x03, 0xce, 0xd9, 0x34, 0xec, 0xd2, 0x09, 0xf1, 0xbf, 0x20, 0x07, 0xf9, 0xed, 0x14, 0xfe, 0xef, 0x0f, 0x2e, 0x16, 0xe2, 0x02, 0x11, 0xdb, 0xf6, 0x03, 0x26, 0x0c, 0xe8, 0x06, 0xfc, 0xf4, 0xe8, 0x14, 0x30, 0xfd, 0xc4, 0xf5, 0xfc, 0xf1, 0xfa, 0xfd, 0xff, 0x12, 0xf1, 0xff, 0x04, 0xfe, 0x13, 0x04, 0x0f, 0xfd, 0xf4, 0x14, 0x0a, 0x10, 0x01, 0x0f, 0x15, 0xf1, 0xd6, 0x0b, 0xf2, 0xf5, 0xfc, 0xf0, 0x1b, 0x0e, 0x3c, 0x0c, 0xf6, 0xe8, 0x03, 0xfb, 0x19, 0x11, 0x3b, 0xfa, 0x01, 0xe8, 0xff, 0x0d, 0x06, 0xea, 0x2f, 0xf2, 0xe8, 0xd7, 0x06, 0x07, 0xdd, 0xf4, 0xfd, 0xfd, 0xf4, 0x15, 0x0e, 0xe6, 0xf3, 0xee, 0xff, 0xf4, 0xf8, 0x09, 0x01, 0xee, 0xf7, 0xea, 0xfc, 0xfa, 0x0a, 0x21, 0x06, 0xe4, 0xeb, 0x05, 0xef, 0xea, 0xfc, 0x0c, 0x0f, 0xe6, 0xfe, 0x07, 0xe5, 0xeb, 0x07, 0x12, 0x04, 0xef, 0xfc, 0xf9, 0xf5, 0xf9, 0x07, 0x1d, 0x04, 0xf9, 0xd7, 0xf4, 0xf6, 0xf7, 0x00, 0x11, 0x0e, 0xe3, 0xea, 0x02, 0xfd, 0xf9, 0x0e, 0x19, 0x0a, 0xed, 0xdb, 0xfe, 0xf5, 0x06, 0xfa, 0x0c, 0x13, 0xf8, 0xac, 0xe1, 0x2c, 0x09, 0xd7, 0x05, 0xfb, 0xef, 0x93, 0xd1, 0x1b, 0x07, 0xd2, 0x02, 0x08, 0xba, 0xde, 0x01, 0x1e, 0x0e, 0xf9, 0x19, 0x02, 0xfa, 0xd6, 0x0c, 0x18, 0x11, 0xf1, 0x03, 0x0d, 0xfc, 0xbc, 0xe0, 0x11, 0xf6, 0xd8, 0x15, 0xfb, 0xc5, 0xf3, 0xf5, 0x11, 0xff, 0xef, 0x02, 0x02, 0xf3, 0x2a, 0x18, 0x27, 0x1d, 0x07, 0x13, 0x1c, 0x44, 0x0f, 0x10, 0x2f, 0x22, 0x00, 0x0b, 0x05, 0x2a, 0x1b, 0x1b, 0x14, 0x04, 0xf1, 0x14, 0x14, 0x22, 0xfa, 0xfb, 0x30, 0x23, 0xec, 0x08, 0x29, 0xf0, 0x1e, 0x08, 0x0c, 0x07, 0x02, 0x15, 0x08, 0x0a, 0x19, 0x08, 0xfa, 0xef, 0xf1, 0x02, 0xec, 0x06, 0x0f, 0xe9, 0x31, 0x25, 0xec, 0x00, 0x27, 0xe6, 0x23, 0xf8, 0x3f, 0x2d, 0x05, 0x07, 0x0c, 0x04, 0x13, 0xfe, 0xe9, 0x0a, 0x0c, 0x04, 0xf6, 0x04, 0x1f, 0xf9, 0x1a, 0x10, 0xf8, 0x0f, 0x0c, 0xeb, 0x0c, 0x16, 0x1e, 0xf1, 0x11, 0x00, 0xef, 0x00, 0xf8, 0x03, 0xed, 0xf7, 0x02, 0xf0, 0xdf, 0x13, 0xfc, 0x07, 0x05, 0x18, 0xfc, 0xfe, 0x18, 0xee, 0xfb, 0xfa, 0x19, 0x14, 0x01, 0x18, 0x16, 0xf0, 0x03, 0xef, 0x06, 0x1d, 0x05, 0x12, 0x00, 0xf7, 0x26, 0xee, 0x29, 0x31, 0xf4, 0x1c, 0x19, 0x06, 0x1d, 0xfb, 0x4c, 0x26, 0xf1, 0x1b, 0x19, 0xf6, 0x35, 0xe9, 0x24, 0x23, 0xf5, 0x0b, 0x0b, 0xfb, 0x03, 0xfc, 0xf6, 0x0b, 0xf1, 0xfe, 0x16, 0xf9, 0x10, 0x10, 0x0b, 0x16, 0x07, 0xfd, 0x07, 0x0b, 0x0d, 0x0c, 0xf8, 0xfd, 0x01, 0xec, 0x12, 0xfb, 0xda, 0xf6, 0x07, 0xeb, 0x0e, 0xf6, 0xf5, 0xfb, 0xe8, 0x03, 0xd4, 0xce, 0x09, 0xf1, 0xfb, 0xef, 0xd8, 0x04, 0xd0, 0xdb, 0xff, 0xf6, 0xe8, 0xfc, 0xd6, 0xfb, 0xfd, 0xf6, 0x03, 0x05, 0xe5, 0x09, 0xdd, 0x0a, 0xda, 0xc8, 0x09, 0xf1, 0xf4, 0x00, 0xc7, 0x00, 0xac, 0xd9, 0xf7, 0xf3, 0xe9, 0xfb, 0xea, 0xfa, 0x2f, 0xdf, 0x0e, 0xf0, 0x09, 0x08, 0xe9, 0xf1, 0x08, 0xce, 0x09, 0xf1, 0xff, 0xfe, 0xde, 0x08, 0xd1, 0xe1, 0x10, 0x00, 0xfd, 0x04, 0x0e, 0xf6, 0xe0, 0x0c, 0xf3, 0x25, 0x1d, 0xdc, 0x1d, 0xed, 0xe2, 0x13, 0xfe, 0x19, 0x02, 0xf9, 0xf9, 0xfa, 0xe9, 0x1f, 0xff, 0x0c, 0x0f, 0xf2, 0x22, 0xfa, 0xe7, 0x19, 0x02, 0x16, 0x09, 0xf3, 0x11, 0xe8, 0xe5, 0x0a, 0xf0, 0x1d, 0x05, 0xfb, 0x1a, 0xfe, 0xec, 0x03, 0x0a, 0x0d, 0x05, 0x04, 0xef, 0xf8, 0xee, 0x1b, 0xf3, 0x21, 0x12, 0xeb, 0xf9, 0xfc, 0xe3, 0x09, 0xfe, 0x15, 0x0e, 0xf9, 0xf6, 0x06, 0xf5, 0xf8, 0x0d, 0x22, 0x09, 0xfd, 0x15, 0x10, 0x0b, 0xec, 0x08, 0xf5, 0xea, 0x19, 0xeb, 0x07, 0x29, 0xef, 0xfa, 0xee, 0x18, 0xfd, 0x0e, 0xef, 0x27, 0xf7, 0xf5, 0x0c, 0x10, 0xe1, 0x13, 0x14, 0x05, 0xfc, 0x13, 0xff, 0xe6, 0x18, 0xe9, 0xfd, 0x0b, 0xf9, 0x12, 0xf3, 0x13, 0xfb, 0xf2, 0xe1, 0x24, 0xe5, 0xe8, 0x0e, 0x1a, 0xe6, 0x13, 0x18, 0xfa, 0x07, 0x19, 0xfd, 0xf3, 0x1d, 0xdb, 0x09, 0x0a, 0x05, 0xfa, 0xf1, 0x18, 0x0a, 0xdc, 0xe6, 0x21, 0xfc, 0xe9, 0x01, 0x16, 0xe7, 0x0c, 0x11, 0xe8, 0x13, 0x03, 0xf1, 0x13, 0x0e, 0xfb, 0x0b, 0xd4, 0x0f, 0x05, 0xef, 0xed, 0x03, 0x11, 0x0e, 0xeb, 0x14, 0xfd, 0x05, 0xf2, 0x17, 0x22, 0x09, 0x81, 0xf9, 0x1a, 0xda, 0xf6, 0x1f, 0x2d, 0x20, 0x0a, 0x10, 0x0a, 0xf2, 0x10, 0x26, 0x43, 0x17, 0x9c, 0x19, 0x10, 0xf6, 0x0b, 0x21, 0x23, 0xf3, 0xe8, 0xd3, 0xe2, 0xe2, 0xde, 0xe6, 0x2b, 0xee, 0x0a, 0xf5, 0xda, 0xe9, 0xd1, 0xe3, 0x2e, 0xe8, 0xed, 0xe9, 0xde, 0xea, 0xe7, 0xe7, 0xec, 0x11, 0x24, 0xfe, 0x02, 0xe4, 0xfa, 0x11, 0xf0, 0xfc, 0x3e, 0x0c, 0x06, 0xf3, 0x18, 0x0d, 0xea, 0x02, 0x30, 0x1e, 0x13, 0x0e, 0x11, 0x0b, 0xf1, 0x10, 0x3c, 0x02, 0x0d, 0x07, 0x10, 0x19, 0xf5, 0x00, 0x4f, 0x1b, 0xf6, 0x14, 0x1a, 0xf7, 0x1a, 0xdf, 0x4f, 0x24, 0xdd, 0x12, 0x1d, 0xc0, 0x03, 0xf8, 0x26, 0x0b, 0x03, 0xfb, 0x0e, 0x09, 0x0a, 0xee, 0x2e, 0x03, 0xff, 0x01, 0x00, 0xfc, 0x04, 0xcc, 0x43, 0x08, 0xd6, 0x0b, 0x13, 0xf4, 0x20, 0x01, 0x26, 0x1f, 0xed, 0x0d, 0x15, 0x03, 0x2f, 0x02, 0x0c, 0x1d, 0xfe, 0x07, 0x17, 0xf1, 0x1b, 0xfc, 0x1c, 0x22, 0xfd, 0x05, 0x0b, 0x00, 0x11, 0x07, 0x1a, 0x10, 0xf1, 0xfe, 0x08, 0x08, 0xff, 0x07, 0x09, 0x1a, 0x0c, 0xfa, 0x19, 0x01, 0x10, 0xff, 0x07, 0x24, 0x05, 0x0c, 0x1a, 0xf9, 0x02, 0xff, 0x06, 0x0b, 0x0c, 0x0b, 0x00, 0xee, 0xf8, 0x03, 0x12, 0x1a, 0xf4, 0x0f, 0x21, 0xfd, 0x14, 0xf0, 0x11, 0x1d, 0xeb, 0x02, 0x24, 0xef, 0xca, 0x0b, 0xfd, 0xab, 0x01, 0xed, 0xc4, 0xfa, 0xad, 0xf5, 0xee, 0xb7, 0x04, 0xf9, 0xde, 0x05, 0xad, 0xf3, 0xed, 0xac, 0x03, 0xd6, 0xc1, 0x0b, 0xf2, 0x02, 0xf1, 0xba, 0x06, 0xf3, 0xca, 0xf4, 0xd7, 0x0c, 0xf5, 0xbb, 0x12, 0xfc, 0xdb, 0x0c, 0xe2, 0x0a, 0xfb, 0xb2, 0xf6, 0xe3, 0xdf, 0xff, 0xc9, 0x09, 0xd1, 0xaa, 0x0c, 0xf5, 0xd7, 0x05, 0x9b, 0x06, 0xd7, 0xa8, 0x02, 0xeb, 0xc9, 0xfc, 0xa5, 0xf7, 0xd3, 0xb3, 0x09, 0xe7, 0xcd, 0x09, 0x07, 0x05, 0xec, 0xe6, 0x00, 0xf4, 0xd9, 0xff, 0xfd, 0x0d, 0xe4, 0xd6, 0x06, 0xe5, 0xc6, 0x01, 0xfb, 0xfe, 0xd5, 0xe0, 0x0a, 0xf2, 0xdf, 0xf8, 0xf8, 0x0d, 0xee, 0xd9, 0x04, 0xe2, 0xd2, 0x02, 0xdb, 0x04, 0xfe, 0xec, 0x09, 0xe5, 0xce, 0xf6, 0xc8, 0x0b, 0xca, 0xf7, 0x05, 0xeb, 0xe6, 0xf8, 0x01, 0x08, 0xad, 0xce, 0x04, 0xea, 0xdb, 0x11, 0xea, 0x06, 0x97, 0xd1, 0xf6, 0xe0, 0xd1, 0x0c, 0xe5, 0x08, 0xae, 0xe2, 0x04, 0xeb, 0xdf, 0x0d, 0x2a, 0xe7, 0xff, 0xff, 0x04, 0x00, 0x00, 0x00, 0x40, 0x00, 0x00, 0x00, 0x96, 0xff, 0xff, 0xff, 0xa7, 0xfd, 0xff, 0xff, 0x95, 0x05, 0x00, 0x00, 0xa7, 0xf1, 0xff, 0xff, 0xf5, 0x12, 0x00, 0x00, 0xab, 0x05, 0x00, 0x00, 0xf1, 0xfc, 0xff, 0xff, 0xf7, 0xfd, 0xff, 0xff, 0x24, 0x02, 0x00, 0x00, 0xfa, 0x05, 0x00, 0x00, 0x3d, 0xff, 0xff, 0xff, 0x93, 0xfa, 0xff, 0xff, 0xaf, 0xfd, 0xff, 0xff, 0x7b, 0xfb, 0xff, 0xff, 0xc6, 0xff, 0xff, 0xff, 0xef, 0xfc, 0xff, 0xff, 0x76, 0xe7, 0xff, 0xff, 0x04, 0x00, 0x00, 0x00, 0x00, 0x12, 0x00, 0x00, 0xd9, 0xef, 0x14, 0xf6, 0xd9, 0x13, 0xf6, 0x03, 0xff, 0xd8, 0x06, 0xd3, 0x06, 0x01, 0x02, 0x07, 0xf5, 0x0e, 0x2a, 0xe6, 0xf3, 0x15, 0x11, 0x1c, 0x02, 0xe8, 0x12, 0xc8, 0x17, 0x1e, 0xf2, 0xf7, 0x06, 0xf7, 0x16, 0xf7, 0xe2, 0x18, 0x1b, 0x0d, 0xee, 0xea, 0x18, 0xd9, 0x17, 0x0b, 0xf3, 0xeb, 0xdd, 0x04, 0x1d, 0xda, 0xdb, 0xfb, 0xfb, 0xf3, 0x07, 0xe5, 0xfb, 0xfa, 0xfb, 0x08, 0x09, 0x0c, 0xfe, 0x1d, 0x06, 0xde, 0xeb, 0x12, 0x13, 0x12, 0xf5, 0xef, 0x04, 0xaf, 0x16, 0x1b, 0x0e, 0xfa, 0xfb, 0xff, 0x0b, 0xfa, 0xda, 0x15, 0x13, 0x04, 0xfe, 0xe9, 0x09, 0x0c, 0x07, 0x10, 0x03, 0x08, 0xe0, 0xfc, 0xf8, 0xe3, 0x97, 0xe4, 0x0f, 0xfb, 0x01, 0xf0, 0xbe, 0xc8, 0xb4, 0xee, 0x05, 0x0c, 0x07, 0x08, 0xdc, 0xe6, 0xb1, 0xe3, 0x07, 0xf8, 0x08, 0xe0, 0xec, 0xce, 0xe7, 0xf3, 0x04, 0x13, 0x05, 0xed, 0xdf, 0xfc, 0x9d, 0xee, 0xf7, 0xfe, 0xff, 0xcc, 0x0b, 0xd6, 0xdf, 0xee, 0x03, 0x06, 0x04, 0x06, 0xfd, 0x04, 0x12, 0x17, 0xf0, 0xfd, 0xf9, 0x05, 0x16, 0x1b, 0x10, 0xf4, 0x14, 0xfb, 0xfa, 0x05, 0x08, 0xf2, 0x0e, 0x11, 0xf3, 0xfc, 0xf0, 0xf5, 0xf6, 0x18, 0x04, 0xe8, 0x03, 0xff, 0xfd, 0x02, 0x21, 0xfd, 0x13, 0x0a, 0x01, 0xf3, 0xef, 0x0b, 0xe0, 0x23, 0x07, 0xf2, 0x01, 0x06, 0x04, 0x06, 0xfd, 0x07, 0x0f, 0x0d, 0xf7, 0x00, 0xed, 0x03, 0x0f, 0xf5, 0x08, 0xf7, 0x08, 0xfd, 0xf6, 0xfd, 0x03, 0xef, 0x0c, 0x0c, 0xfe, 0x01, 0xfb, 0xfb, 0xf1, 0xed, 0xfa, 0xee, 0x10, 0x05, 0xf9, 0x08, 0x16, 0xec, 0x05, 0x1a, 0x0e, 0xfa, 0xea, 0x01, 0xe0, 0xf7, 0xfd, 0xf5, 0x05, 0xf4, 0x0f, 0x06, 0xf0, 0x16, 0x04, 0x19, 0xfd, 0x07, 0xf9, 0x0a, 0x13, 0x2b, 0x07, 0x0d, 0x00, 0xf1, 0x05, 0x0c, 0xff, 0x0a, 0xfc, 0x11, 0xf7, 0xfb, 0xf4, 0xfe, 0xfb, 0x2c, 0xfa, 0x03, 0xf9, 0xf4, 0x10, 0x09, 0x0f, 0x08, 0x0d, 0x0d, 0x0b, 0x02, 0xef, 0x10, 0xef, 0x22, 0xf6, 0x09, 0xfd, 0xfd, 0xee, 0xe0, 0xd1, 0xf4, 0x25, 0x0b, 0x01, 0xf2, 0xfd, 0xf9, 0xe2, 0x16, 0x11, 0x00, 0xff, 0x09, 0xdf, 0xd9, 0xf3, 0xfc, 0x3e, 0xfb, 0xe5, 0xf5, 0x03, 0xf4, 0xe4, 0x04, 0xea, 0xff, 0x0d, 0x02, 0xdc, 0xee, 0x15, 0x03, 0x30, 0xf1, 0xf9, 0x03, 0xfc, 0x09, 0x12, 0x0a, 0x0c, 0x06, 0x00, 0xfe, 0x06, 0x07, 0x05, 0x0e, 0x03, 0x12, 0x14, 0x12, 0xfa, 0x09, 0xe2, 0x0b, 0x26, 0x0f, 0xfa, 0x0d, 0x00, 0xe8, 0x18, 0x04, 0x00, 0xee, 0xeb, 0x0a, 0x07, 0x01, 0xeb, 0x0e, 0x0b, 0x0d, 0xf9, 0x01, 0xf5, 0xf6, 0x25, 0x10, 0x0a, 0x19, 0x05, 0x14, 0xf9, 0x0c, 0x12, 0x13, 0x1d, 0x0f, 0xfb, 0x05, 0xf9, 0xf3, 0xda, 0x0a, 0xb4, 0xd5, 0xf8, 0xde, 0x09, 0xe2, 0xe3, 0x1f, 0xe3, 0xdb, 0x04, 0xfb, 0xea, 0xfa, 0xa3, 0x03, 0xe7, 0xfc, 0x8e, 0x05, 0x05, 0xe1, 0xda, 0x1d, 0xda, 0xb9, 0xf5, 0x07, 0xe5, 0xf8, 0xd2, 0x0f, 0xd6, 0x0d, 0xd8, 0x0c, 0xf7, 0xe6, 0x07, 0x18, 0x07, 0xf0, 0xf3, 0x03, 0x01, 0x0f, 0xf2, 0xe3, 0xf1, 0xe0, 0xfa, 0xfe, 0xe3, 0xf9, 0xf3, 0xcf, 0xed, 0x0a, 0xe1, 0xec, 0x00, 0x04, 0xe2, 0xdf, 0xee, 0xea, 0xf2, 0x00, 0xea, 0x06, 0xf5, 0xd9, 0xf8, 0x12, 0xe7, 0xe2, 0xfc, 0xfa, 0xe1, 0xeb, 0xf2, 0xe6, 0xfa, 0x06, 0xf9, 0xfe, 0x03, 0xeb, 0xeb, 0x03, 0xfe, 0x02, 0xf9, 0x0e, 0x07, 0xec, 0xfd, 0xfa, 0x13, 0x1e, 0xea, 0x03, 0x0a, 0xd7, 0x0a, 0x05, 0x18, 0xf4, 0x06, 0x0e, 0xf4, 0xe3, 0xf8, 0xfe, 0x24, 0x29, 0xef, 0x0e, 0x09, 0xe7, 0x0d, 0x0f, 0xd5, 0xea, 0xfe, 0x0b, 0x00, 0xf6, 0x00, 0x0b, 0x18, 0x2c, 0xfb, 0x00, 0x1a, 0xe9, 0x0a, 0x13, 0x03, 0x0f, 0x00, 0x0b, 0xf9, 0xde, 0xfa, 0xf5, 0x0b, 0x0c, 0xfc, 0x0b, 0x11, 0xcb, 0xe5, 0x00, 0xf4, 0xf1, 0x01, 0x02, 0xd9, 0xde, 0xfb, 0xec, 0x06, 0x0b, 0x04, 0x06, 0x0d, 0xe8, 0xfe, 0x05, 0xf5, 0xfe, 0xfa, 0xf8, 0xee, 0xf8, 0x08, 0xec, 0xf9, 0x04, 0x10, 0xfb, 0x14, 0xfe, 0xfd, 0x00, 0x1a, 0x11, 0xf4, 0xe3, 0xc2, 0xf2, 0xe3, 0xc8, 0xcd, 0xe4, 0xf2, 0xe6, 0xec, 0x0d, 0xea, 0xfb, 0xf5, 0x00, 0x05, 0x03, 0x1a, 0x16, 0xfd, 0x03, 0x1b, 0x14, 0xea, 0x06, 0xfd, 0x19, 0x05, 0x0c, 0xf2, 0xed, 0xfb, 0xf3, 0xbb, 0x0a, 0xba, 0xa8, 0xf3, 0xf0, 0xfe, 0xf5, 0xd7, 0x11, 0xdb, 0x01, 0xf9, 0xfc, 0xfd, 0x04, 0xdf, 0x09, 0xe8, 0xd3, 0x02, 0x06, 0xfa, 0x06, 0x02, 0x07, 0x0f, 0x00, 0x0c, 0xff, 0x0f, 0x17, 0x2a, 0x0a, 0x03, 0x0b, 0x2b, 0x27, 0xee, 0x03, 0x16, 0xf5, 0x22, 0x1f, 0xe9, 0xe4, 0xfd, 0x09, 0xe2, 0x09, 0xe5, 0xcf, 0x13, 0x16, 0xf3, 0x0e, 0xf1, 0xf2, 0x05, 0x0e, 0xef, 0xfc, 0xf9, 0xe9, 0xd5, 0x05, 0xe8, 0xdc, 0xe7, 0xf5, 0x04, 0xe8, 0x06, 0x07, 0x0c, 0xfa, 0xfc, 0x03, 0xfd, 0x11, 0x3e, 0x07, 0x09, 0x15, 0x0e, 0x23, 0xf3, 0xfc, 0x11, 0xfb, 0x1d, 0x1f, 0xf4, 0xfc, 0x02, 0x03, 0xd3, 0x02, 0xf6, 0xcf, 0xfb, 0x03, 0x06, 0xfc, 0xe6, 0x09, 0xfb, 0xf9, 0xee, 0xfe, 0x0d, 0xfe, 0xfc, 0xef, 0x0c, 0xe6, 0x1a, 0xf9, 0x05, 0x11, 0xee, 0xe8, 0xf3, 0x0e, 0xfd, 0xff, 0x03, 0xe7, 0xff, 0xfc, 0xec, 0xf5, 0xf5, 0xe5, 0x02, 0x0c, 0xf5, 0xd7, 0xf8, 0xfc, 0x01, 0xff, 0xfa, 0xe2, 0xe4, 0x01, 0xe5, 0xe6, 0xd5, 0xd7, 0x01, 0xff, 0xf5, 0xe5, 0xf4, 0xc5, 0xfa, 0xf5, 0x05, 0xfe, 0x1c, 0xef, 0x04, 0x1f, 0x1b, 0xfb, 0x01, 0x0f, 0xfb, 0xd5, 0x1f, 0x19, 0xff, 0xfa, 0x0b, 0xf1, 0x23, 0xed, 0xff, 0x09, 0x0d, 0xf3, 0xf5, 0x02, 0xf9, 0xc3, 0x06, 0x0a, 0xf4, 0x01, 0x08, 0xe1, 0xdf, 0x03, 0xeb, 0xc5, 0xe6, 0xdf, 0x03, 0x01, 0xf5, 0xc0, 0xdb, 0xe4, 0xf9, 0xf6, 0x10, 0x10, 0x0a, 0xf3, 0x02, 0x11, 0x0e, 0xfe, 0xff, 0x12, 0x04, 0x15, 0x15, 0x0b, 0xef, 0x04, 0x04, 0xf6, 0x24, 0xf7, 0xef, 0x09, 0x0f, 0xf5, 0x04, 0x00, 0xfd, 0x0c, 0x05, 0x0a, 0xfc, 0x02, 0x03, 0xed, 0xe2, 0xfb, 0xef, 0xd2, 0xf5, 0xe1, 0xfe, 0xfc, 0x01, 0x15, 0xf0, 0xd6, 0xf1, 0x02, 0xf8, 0x00, 0x01, 0x03, 0x05, 0xfc, 0x04, 0x06, 0xfd, 0xfb, 0xff, 0xff, 0xfc, 0xff, 0x08, 0xf9, 0xf7, 0xfe, 0x03, 0xf7, 0xf8, 0xf7, 0x06, 0x09, 0xfd, 0xfd, 0xfb, 0x02, 0xf6, 0xff, 0xf6, 0xf6, 0xfc, 0xfc, 0xfa, 0xff, 0xfc, 0xfa, 0x00, 0x06, 0xfc, 0xf6, 0x02, 0xf9, 0x04, 0x05, 0x06, 0xff, 0xf6, 0x04, 0xf5, 0xf6, 0xfb, 0x05, 0x02, 0xf9, 0x03, 0xfa, 0xf8, 0xf7, 0x06, 0xf5, 0x06, 0x00, 0xf7, 0xf5, 0xfc, 0x01, 0xf7, 0xf5, 0xf6, 0x07, 0xfb, 0xf8, 0x04, 0xfc, 0x03, 0xfb, 0x01, 0xfe, 0x04, 0xfd, 0x06, 0x01, 0x01, 0xff, 0x01, 0xfc, 0xfc, 0x02, 0x04, 0x00, 0xf8, 0xff, 0x01, 0xf6, 0x05, 0xf8, 0x04, 0xff, 0x05, 0x02, 0xf8, 0x03, 0xfd, 0x06, 0xfc, 0xfc, 0xf9, 0xff, 0xf6, 0x06, 0xfa, 0x02, 0xf7, 0xf7, 0xf8, 0xfe, 0x01, 0x05, 0xfc, 0xf8, 0x01, 0x02, 0xfa, 0xff, 0x05, 0x03, 0x03, 0xff, 0xfd, 0x00, 0xfa, 0x02, 0x03, 0xf4, 0x06, 0xfc, 0x00, 0xff, 0xfd, 0xfe, 0x05, 0xfd, 0x04, 0xef, 0xf0, 0x1e, 0xe8, 0xeb, 0x0d, 0xe6, 0x0b, 0xf5, 0xe2, 0x1e, 0xf8, 0xec, 0xfb, 0x07, 0x03, 0xed, 0xee, 0x12, 0xf0, 0xf5, 0xdb, 0xea, 0x05, 0xe8, 0xf2, 0x18, 0xe6, 0xe4, 0x09, 0x01, 0x02, 0xde, 0xd2, 0x17, 0xf6, 0xea, 0xda, 0xf0, 0x08, 0xf7, 0x03, 0x16, 0xfd, 0xe9, 0x04, 0x01, 0xe6, 0xdc, 0x11, 0xfb, 0x10, 0x14, 0x10, 0x05, 0x02, 0x0b, 0xf4, 0x17, 0x09, 0x01, 0x09, 0x03, 0xd4, 0xe9, 0x09, 0xf5, 0x08, 0x07, 0xfb, 0x02, 0xfa, 0xf8, 0xf8, 0x0f, 0x0c, 0x08, 0xfc, 0x00, 0xd4, 0xe5, 0xfe, 0xf7, 0x12, 0x15, 0x13, 0x00, 0xfd, 0xfc, 0x12, 0x0f, 0x0d, 0x0c, 0xfe, 0xfc, 0xda, 0xe7, 0x03, 0xf4, 0xe2, 0x18, 0x0d, 0xf4, 0xf6, 0xe2, 0xf2, 0xe2, 0x14, 0x0b, 0xf7, 0x02, 0xdf, 0xf9, 0x07, 0xee, 0xe4, 0x11, 0x07, 0x0b, 0x00, 0xdc, 0xf4, 0xd9, 0x11, 0x05, 0xf8, 0xf9, 0xe2, 0xf1, 0x16, 0xf5, 0xe6, 0x07, 0x0d, 0x03, 0x01, 0xe9, 0xf4, 0xe2, 0xfe, 0x07, 0xfa, 0xfd, 0x01, 0xf1, 0x2c, 0x07, 0xf9, 0xe5, 0xf0, 0xee, 0x01, 0xf1, 0xff, 0x17, 0xfc, 0xe7, 0xff, 0xfa, 0xf0, 0xec, 0xdb, 0x00, 0xda, 0xcb, 0xe1, 0xe6, 0x0c, 0xf9, 0xe9, 0x1f, 0xfe, 0xef, 0xfc, 0x0c, 0xf9, 0xf8, 0xe9, 0xfa, 0xda, 0xf8, 0xe9, 0xf8, 0xfe, 0xf4, 0x02, 0x20, 0x25, 0x00, 0x0c, 0x08, 0x03, 0x0b, 0x40, 0x10, 0x00, 0x07, 0x19, 0x1d, 0x05, 0xff, 0x08, 0x05, 0x26, 0x08, 0x0b, 0xff, 0x04, 0xfd, 0x13, 0x12, 0xfa, 0xef, 0x15, 0x12, 0xfc, 0x07, 0x0c, 0x08, 0x2b, 0x12, 0xfe, 0x07, 0xff, 0x0b, 0x1c, 0x03, 0xf2, 0x18, 0x29, 0x1f, 0x05, 0xf7, 0x12, 0x05, 0x3b, 0x1c, 0x00, 0x04, 0xfe, 0xfc, 0x18, 0x03, 0xf1, 0xdf, 0xf5, 0x01, 0x05, 0xfc, 0xf7, 0x04, 0xe2, 0xf9, 0xfd, 0x08, 0x03, 0xf2, 0xb5, 0x18, 0xf9, 0xc2, 0xe1, 0xf1, 0x07, 0xff, 0x08, 0x04, 0xfc, 0xec, 0xfd, 0xff, 0x03, 0xfb, 0xd9, 0x04, 0x01, 0xec, 0x0a, 0xfd, 0x00, 0x0d, 0x05, 0xfb, 0x14, 0xfb, 0x0b, 0x04, 0xf4, 0x0d, 0xf7, 0x03, 0xdd, 0xf7, 0x10, 0x05, 0x0c, 0xf9, 0x0c, 0x0e, 0x03, 0x0a, 0x0d, 0x07, 0xfd, 0xf4, 0xff, 0x13, 0xe9, 0x01, 0x13, 0x0d, 0x07, 0xfc, 0x10, 0x21, 0x12, 0x0a, 0x08, 0xfe, 0x02, 0xf0, 0x00, 0xfa, 0xe0, 0x08, 0x10, 0xff, 0xfd, 0xf2, 0xf6, 0x0f, 0x09, 0xfe, 0x03, 0xfe, 0xfe, 0xff, 0xf4, 0x0b, 0xdf, 0xf6, 0x0e, 0xf7, 0x02, 0xef, 0x0a, 0x05, 0x07, 0x0b, 0x06, 0xfc, 0xf0, 0xfb, 0x15, 0x12, 0xf5, 0x0f, 0x0b, 0x06, 0xfa, 0xe8, 0x06, 0xfc, 0x08, 0x00, 0x08, 0xff, 0xf8, 0xf5, 0x13, 0xf1, 0xef, 0x06, 0x11, 0xf7, 0xf9, 0xe6, 0xf9, 0xff, 0x08, 0xfe, 0xee, 0xf3, 0x00, 0x06, 0xbe, 0x0f, 0xd1, 0xdb, 0x0f, 0xf6, 0x03, 0xf6, 0x0c, 0x0f, 0xf1, 0xfe, 0x07, 0xfd, 0xfb, 0xf4, 0xfb, 0x11, 0xe8, 0xfa, 0x07, 0x09, 0x03, 0xf6, 0x16, 0x12, 0x01, 0x08, 0xfc, 0xfd, 0xf0, 0xf5, 0xfc, 0xee, 0xe1, 0xfe, 0x01, 0x04, 0xfe, 0xed, 0xeb, 0x09, 0x05, 0xf8, 0xea, 0xf9, 0x0e, 0x0e, 0x08, 0xdd, 0xee, 0xed, 0x0b, 0x1e, 0xcf, 0x02, 0xdd, 0xdb, 0xf4, 0x16, 0xe5, 0xcd, 0x00, 0x07, 0xe5, 0xe4, 0xf2, 0xf3, 0x0b, 0x14, 0xdb, 0x02, 0x1c, 0xd9, 0x06, 0x19, 0xe2, 0xd0, 0x0f, 0x08, 0xef, 0xf3, 0xf6, 0xf7, 0x0d, 0x1e, 0xd5, 0x0e, 0x03, 0xdd, 0xf1, 0x0d, 0xef, 0xd7, 0x08, 0x08, 0xfa, 0xe7, 0xf1, 0xec, 0x0f, 0x03, 0xf9, 0x03, 0xf5, 0xf2, 0xf3, 0x09, 0xef, 0xe1, 0xfd, 0xfd, 0xdb, 0xf7, 0xef, 0xec, 0x05, 0x0e, 0xf6, 0xf0, 0x0f, 0xf0, 0xfc, 0x0d, 0xeb, 0xef, 0x0b, 0x08, 0xee, 0xf5, 0xf7, 0xfc, 0x01, 0x11, 0xde, 0xf9, 0x0b, 0xec, 0xf7, 0xff, 0xfc, 0xef, 0xfa, 0x0c, 0x10, 0x00, 0x00, 0xf3, 0x0b, 0x17, 0xf2, 0x08, 0xef, 0xc8, 0xfb, 0x0c, 0xf5, 0xee, 0xf5, 0x09, 0x08, 0xfa, 0x0a, 0xed, 0x0e, 0x17, 0xf4, 0x03, 0x10, 0xe2, 0x10, 0x06, 0xff, 0x01, 0xfd, 0xff, 0x00, 0x0e, 0x09, 0xfa, 0x02, 0x0b, 0xf3, 0x01, 0x10, 0xeb, 0xfe, 0x0b, 0x04, 0xf6, 0x08, 0x0a, 0x0f, 0x08, 0xea, 0xda, 0xf0, 0xf6, 0x02, 0xeb, 0xec, 0x11, 0x09, 0x03, 0xf2, 0x01, 0xfe, 0xfb, 0xe7, 0xff, 0xd3, 0xeb, 0xed, 0x09, 0x05, 0xf3, 0xe5, 0x12, 0x05, 0xfd, 0xff, 0x09, 0xf9, 0x03, 0xed, 0x04, 0xc1, 0xf6, 0xf3, 0x07, 0x00, 0xee, 0xf6, 0x19, 0x06, 0x08, 0xf7, 0xf6, 0x0b, 0x0e, 0x34, 0x0a, 0xf3, 0x02, 0x09, 0x1d, 0xf7, 0xfa, 0x04, 0x07, 0x26, 0x0f, 0x06, 0xfc, 0xff, 0x0a, 0x21, 0x0a, 0xf6, 0xf6, 0x05, 0x1d, 0x08, 0x07, 0xfd, 0xf6, 0x1b, 0x0f, 0xfe, 0x09, 0xf7, 0x07, 0x1f, 0xf5, 0xee, 0x07, 0x1b, 0x12, 0xfd, 0xf7, 0xfc, 0x00, 0x28, 0x0e, 0xf3, 0xf1, 0x04, 0xf9, 0x0d, 0x19, 0xf1, 0xe4, 0xf8, 0x0d, 0x08, 0xf9, 0x0b, 0xf3, 0x00, 0x10, 0xff, 0xfc, 0xfb, 0xfb, 0xd0, 0x03, 0xec, 0xdc, 0xf1, 0xf9, 0xfa, 0xf9, 0x05, 0xf7, 0xf2, 0x0e, 0xfe, 0xf2, 0x07, 0x03, 0xd1, 0xf7, 0xf8, 0xe8, 0xf8, 0xfe, 0x01, 0x01, 0x00, 0xf2, 0x0b, 0xfa, 0xe3, 0xf2, 0xfc, 0x07, 0xc0, 0xd6, 0x01, 0xf8, 0x04, 0xd0, 0xde, 0xf7, 0xd6, 0xe8, 0xe6, 0x9f, 0xdf, 0xd5, 0x00, 0x00, 0xfe, 0xdf, 0x18, 0xf3, 0xcb, 0xcc, 0xe0, 0xe5, 0xb1, 0xeb, 0xb7, 0xb7, 0xd3, 0xdd, 0x0b, 0x1b, 0x32, 0x06, 0x1a, 0xf5, 0xe7, 0xc9, 0xe6, 0xf1, 0xf8, 0xe9, 0xe7, 0xd4, 0xd7, 0xdc, 0x11, 0xfe, 0xfa, 0x1d, 0xf4, 0x17, 0x20, 0x17, 0x02, 0xfb, 0xe3, 0x0e, 0x27, 0x1f, 0x01, 0x0e, 0x0d, 0xec, 0x0c, 0x17, 0x12, 0xe9, 0xc7, 0xeb, 0x0c, 0xee, 0xd1, 0x10, 0xbb, 0x06, 0x02, 0x0d, 0x10, 0xf1, 0x16, 0x10, 0x16, 0x58, 0xdd, 0xf4, 0x0c, 0xfb, 0x09, 0x0b, 0x24, 0x12, 0x0f, 0x0a, 0xe6, 0xe8, 0x00, 0x05, 0xea, 0x8c, 0x3c, 0x12, 0x0c, 0x07, 0xd8, 0x15, 0xe1, 0x13, 0x17, 0x09, 0xdb, 0xb7, 0xb7, 0x00, 0x1e, 0xac, 0xa3, 0x93, 0x09, 0x03, 0xcd, 0x01, 0x04, 0x07, 0x17, 0x0b, 0xd2, 0xe2, 0xeb, 0xfa, 0x19, 0xac, 0x19, 0x5b, 0x0d, 0x0a, 0x0e, 0xfe, 0x16, 0x32, 0x03, 0x10, 0x07, 0x07, 0x0a, 0xf1, 0xef, 0x06, 0x06, 0xfc, 0xfa, 0x19, 0xf2, 0xeb, 0xf2, 0x11, 0xee, 0xfb, 0xfc, 0xf5, 0x19, 0x04, 0xdf, 0x03, 0x08, 0xfe, 0x07, 0xf8, 0x13, 0xee, 0xfb, 0x0c, 0xfa, 0xfc, 0x07, 0x05, 0xe7, 0xe2, 0x07, 0xf5, 0x05, 0x04, 0xf4, 0x15, 0x16, 0xf3, 0xea, 0x10, 0xfd, 0xf3, 0x06, 0x08, 0x15, 0xf5, 0xe2, 0x13, 0x15, 0x07, 0xf3, 0x0c, 0xf7, 0xfa, 0x04, 0x02, 0xf1, 0xfd, 0x06, 0xfe, 0x14, 0x01, 0xd2, 0xf8, 0x16, 0x05, 0x04, 0xfe, 0x11, 0x08, 0xec, 0x00, 0xf8, 0x00, 0x05, 0xfa, 0xde, 0xfa, 0xff, 0xf0, 0x06, 0xfa, 0xf6, 0x12, 0x09, 0xfa, 0xe6, 0x09, 0xfb, 0x00, 0x0c, 0xf9, 0x0d, 0xf6, 0xea, 0x02, 0x0a, 0xfd, 0xf6, 0x10, 0xf0, 0xdf, 0xfa, 0x00, 0xe1, 0xf8, 0x08, 0xf1, 0x18, 0x03, 0xd4, 0xfa, 0x0c, 0xf9, 0x00, 0xed, 0x19, 0xfd, 0x08, 0x09, 0xfa, 0xfc, 0x08, 0x05, 0x07, 0xe7, 0x0c, 0xdc, 0x01, 0xf4, 0xf9, 0x03, 0x22, 0xfa, 0xfe, 0x08, 0xed, 0x01, 0x00, 0xea, 0xfc, 0x0f, 0x00, 0xf2, 0xfc, 0xe3, 0x07, 0xf2, 0xf7, 0xed, 0xe8, 0xd8, 0xfa, 0x00, 0x02, 0xfc, 0xf0, 0xf5, 0x13, 0xf4, 0xef, 0xe9, 0xfe, 0x00, 0xfb, 0xf3, 0x00, 0xe7, 0xe9, 0xfd, 0xfb, 0x06, 0x0c, 0x03, 0x10, 0x1c, 0xff, 0x05, 0x03, 0x03, 0x07, 0xf4, 0x28, 0x06, 0xfb, 0x11, 0xfb, 0xf0, 0x08, 0x05, 0x05, 0xdb, 0x06, 0xdf, 0x01, 0xfc, 0xfe, 0x08, 0xe5, 0xe7, 0xf6, 0xf9, 0x0b, 0xfc, 0xe0, 0xfb, 0x12, 0xd9, 0xfa, 0xda, 0xff, 0x01, 0x08, 0x12, 0x04, 0xe3, 0xf2, 0xfe, 0x08, 0x07, 0x00, 0x07, 0x0c, 0x14, 0x02, 0xf8, 0xff, 0x15, 0x0f, 0x17, 0x2e, 0x08, 0x0a, 0x0d, 0xfb, 0x00, 0x1b, 0x06, 0x09, 0x08, 0x05, 0xf4, 0xf8, 0x00, 0x06, 0xf2, 0xf6, 0xd8, 0xf0, 0xfc, 0x07, 0xf5, 0xf3, 0xf9, 0x00, 0xe2, 0xfc, 0xe3, 0x05, 0xfb, 0x08, 0xee, 0xfb, 0xd1, 0xeb, 0xf8, 0xfc, 0xfb, 0xf9, 0x04, 0x02, 0x0f, 0x07, 0x04, 0x08, 0x0a, 0x12, 0xe8, 0x34, 0x05, 0xfb, 0x0c, 0xfb, 0xf4, 0xeb, 0xe8, 0x03, 0xe8, 0xf5, 0xf5, 0xf6, 0x03, 0xdc, 0xd4, 0xe6, 0x00, 0xd9, 0xe9, 0x08, 0x06, 0xe1, 0x12, 0xd3, 0xf7, 0xff, 0xf7, 0x04, 0xf7, 0xf6, 0xd4, 0xf8, 0xfa, 0x16, 0x09, 0xe5, 0x08, 0xfa, 0xfb, 0xdf, 0xf3, 0xfe, 0xf5, 0x12, 0xfe, 0xe0, 0xc4, 0x07, 0xfe, 0x0f, 0x1b, 0x09, 0xf4, 0x04, 0xf2, 0x04, 0x08, 0xff, 0xf6, 0xf6, 0xff, 0xf9, 0xe3, 0x01, 0x04, 0xd1, 0xe3, 0x12, 0x14, 0xf9, 0x0d, 0xdf, 0x05, 0x0d, 0x0b, 0xfb, 0xed, 0x14, 0xdc, 0x10, 0x04, 0xfb, 0x0a, 0xe1, 0x04, 0x03, 0xda, 0xe9, 0x12, 0x0b, 0x06, 0x12, 0x02, 0xf3, 0xdb, 0x15, 0x06, 0x16, 0x16, 0xfa, 0x01, 0x05, 0xe5, 0xf1, 0xfc, 0x03, 0xfc, 0xee, 0xfc, 0xfe, 0x14, 0x0b, 0x00, 0xd4, 0xed, 0x06, 0x06, 0x12, 0x0d, 0xe3, 0x0f, 0x0e, 0x08, 0x00, 0xf1, 0x10, 0xf5, 0x14, 0x02, 0x03, 0x02, 0xe1, 0x06, 0x19, 0xdb, 0xe3, 0x05, 0x0e, 0x0c, 0x09, 0xf8, 0xe0, 0xff, 0x13, 0x0f, 0x10, 0x0a, 0xec, 0xd8, 0xbc, 0x15, 0x05, 0x81, 0x20, 0xcd, 0x0e, 0xe6, 0x0a, 0x35, 0x39, 0x5d, 0x11, 0x0b, 0xdd, 0xcf, 0x1d, 0xf9, 0x37, 0xe1, 0xb3, 0xad, 0x08, 0xef, 0xb7, 0x1f, 0xd3, 0x06, 0x13, 0x0a, 0xd9, 0xe3, 0x51, 0x0e, 0x28, 0xf3, 0x06, 0xa8, 0x0e, 0xfa, 0xf5, 0x2e, 0x23, 0xe2, 0x24, 0x0a, 0x02, 0xf4, 0xdd, 0xee, 0x06, 0xd3, 0x21, 0xe4, 0xf9, 0xf0, 0x0d, 0xf2, 0xea, 0x07, 0xfe, 0xee, 0xf9, 0xf5, 0x86, 0xed, 0x19, 0xed, 0xbe, 0x97, 0xf7, 0xe5, 0xb4, 0xf9, 0xbb, 0xc9, 0xfa, 0xef, 0xfd, 0x14, 0xdb, 0x06, 0x15, 0xe2, 0x00, 0xbe, 0x05, 0xf0, 0xeb, 0xfd, 0xf5, 0xcd, 0x01, 0xf9, 0x17, 0x0d, 0x4d, 0x08, 0xfd, 0xf9, 0x3a, 0x26, 0xfc, 0xd6, 0x1c, 0xd8, 0x51, 0x3b, 0xe8, 0xe6, 0x15, 0x0a, 0xcc, 0x03, 0x05, 0xdf, 0xe2, 0xc7, 0xfb, 0xdf, 0xd1, 0xf4, 0xc2, 0xca, 0xe9, 0xee, 0x24, 0x1f, 0xa5, 0x18, 0xfd, 0xef, 0x08, 0xc9, 0xf7, 0xde, 0x00, 0xe7, 0xd9, 0xe8, 0xf9, 0xe9, 0x02, 0x19, 0x03, 0xfa, 0xfb, 0xf8, 0xf7, 0x0b, 0x0d, 0xf1, 0xe7, 0x25, 0x0b, 0x0f, 0xf8, 0xfd, 0x09, 0x16, 0x0b, 0xe1, 0xf7, 0x05, 0xf0, 0x0b, 0x0b, 0xf7, 0xdd, 0x1c, 0xfc, 0xfe, 0x00, 0x04, 0x07, 0x09, 0x0d, 0xf8, 0x05, 0x05, 0xff, 0x0c, 0x02, 0xfe, 0xe7, 0x26, 0xff, 0xf7, 0x0c, 0x00, 0x0b, 0x16, 0xea, 0xef, 0xf4, 0xfe, 0x0c, 0x13, 0xf0, 0x02, 0xe2, 0x07, 0x08, 0x0a, 0xe1, 0xf0, 0x06, 0x11, 0xf8, 0xe4, 0xf8, 0x0a, 0xfb, 0x18, 0xf1, 0x06, 0xd3, 0x0c, 0xf7, 0x14, 0xdf, 0xec, 0x0d, 0x0e, 0xf0, 0x01, 0xff, 0x0b, 0xfb, 0x0c, 0xfb, 0x06, 0xe1, 0x03, 0xfd, 0x0a, 0xe3, 0xf0, 0x0d, 0x06, 0xf0, 0x02, 0xf5, 0x05, 0xfd, 0x07, 0x00, 0xf6, 0xca, 0x0c, 0xef, 0x0d, 0x0a, 0x0a, 0x0a, 0x05, 0xf1, 0xf4, 0xf7, 0x04, 0xf6, 0x0a, 0x03, 0x01, 0xcf, 0x0a, 0xf0, 0x0a, 0x05, 0x02, 0x14, 0x1c, 0xf8, 0x02, 0x05, 0xff, 0xfd, 0x1d, 0xfe, 0x05, 0xf1, 0xff, 0xf6, 0x10, 0xf5, 0xf6, 0xf6, 0xdf, 0x02, 0xfe, 0xe3, 0x14, 0xf8, 0x01, 0x0e, 0xe4, 0xed, 0x0e, 0x0d, 0x0c, 0x02, 0xfd, 0xf0, 0xf3, 0xfc, 0x04, 0xeb, 0x0f, 0x00, 0x01, 0x0a, 0xf6, 0x05, 0x0f, 0x11, 0x03, 0x01, 0x04, 0xed, 0xd9, 0x02, 0x05, 0xed, 0x13, 0x0d, 0x02, 0x02, 0xec, 0x03, 0x0a, 0x05, 0x02, 0x07, 0xff, 0x0b, 0x07, 0x01, 0x0a, 0xe8, 0x12, 0xff, 0x0b, 0x07, 0xf2, 0xf2, 0x00, 0x12, 0x14, 0xf5, 0x05, 0x03, 0xfb, 0x06, 0x0c, 0xe5, 0x14, 0x01, 0x01, 0x03, 0xf3, 0x15, 0xfb, 0x07, 0x10, 0xff, 0xff, 0xff, 0xec, 0x09, 0x03, 0xf2, 0x17, 0x0e, 0x07, 0x08, 0xf9, 0xfb, 0x05, 0x0a, 0x0d, 0x01, 0xf6, 0x08, 0xe4, 0xbc, 0xfd, 0xb9, 0xe6, 0xd4, 0xfc, 0x05, 0xf9, 0xeb, 0x14, 0xe6, 0xea, 0xfc, 0x00, 0x01, 0xee, 0xc8, 0xfa, 0xaf, 0xe4, 0xea, 0xf0, 0x00, 0xee, 0x0d, 0x14, 0xf3, 0xf3, 0x06, 0x02, 0xf6, 0xe2, 0xef, 0x04, 0xda, 0x0c, 0x01, 0x0b, 0x0b, 0xfc, 0x02, 0x08, 0xfa, 0xff, 0xfb, 0x03, 0xfd, 0x0c, 0x0e, 0xfa, 0x0d, 0x10, 0x00, 0xfa, 0xe5, 0xfd, 0x0d, 0xf8, 0x17, 0xf9, 0xdd, 0xe6, 0xf6, 0x04, 0x0c, 0xd6, 0x0a, 0x17, 0xf5, 0xfe, 0xdf, 0x00, 0xe6, 0xfc, 0x05, 0xed, 0xde, 0xe8, 0x07, 0x03, 0x20, 0x00, 0x0b, 0x0f, 0x03, 0xf4, 0xda, 0x04, 0xe5, 0x05, 0xf9, 0xf6, 0xe0, 0xe3, 0xfd, 0x05, 0xff, 0x0d, 0x0b, 0x0c, 0x03, 0x00, 0xf9, 0xfe, 0x0a, 0x0f, 0xff, 0xf6, 0x14, 0xfa, 0xf6, 0xf9, 0xfb, 0xf1, 0x06, 0x0f, 0xff, 0x01, 0xf0, 0xf6, 0xed, 0x10, 0x06, 0xf7, 0x07, 0xf1, 0x02, 0xff, 0x17, 0xfd, 0x0b, 0x00, 0x00, 0xfc, 0xf5, 0x05, 0xdd, 0x02, 0xf0, 0xf0, 0x0e, 0xee, 0x11, 0x05, 0xf0, 0x14, 0xfa, 0x03, 0x05, 0x03, 0xf2, 0xfc, 0x08, 0x22, 0x07, 0xff, 0x02, 0x03, 0x0b, 0x04, 0xf9, 0x04, 0x07, 0x04, 0xfe, 0xfb, 0xf9, 0xfb, 0xef, 0x24, 0xfc, 0x02, 0x06, 0xfa, 0x12, 0x02, 0x0c, 0x05, 0x07, 0x04, 0x07, 0xf9, 0xfb, 0xfc, 0xe9, 0x2e, 0xe8, 0x00, 0x01, 0xf5, 0x01, 0x06, 0xf4, 0x09, 0xe6, 0x0c, 0x0f, 0x04, 0x07, 0xf9, 0xe8, 0x21, 0x08, 0x0f, 0x03, 0x04, 0x08, 0x03, 0x02, 0x19, 0xc6, 0x05, 0xfb, 0x09, 0x09, 0xf9, 0x0a, 0x1a, 0xfa, 0x04, 0x07, 0x05, 0x19, 0x0c, 0xe9, 0xfb, 0xc1, 0xf6, 0x04, 0xfb, 0xf8, 0xfc, 0xc9, 0x1a, 0xd5, 0xf7, 0xf3, 0xf4, 0xec, 0x01, 0x01, 0xfd, 0xfa, 0x15, 0x1e, 0x0a, 0xfe, 0xfa, 0xe1, 0xf6, 0x05, 0x0b, 0x03, 0xff, 0xf0, 0xf7, 0x10, 0x10, 0xe1, 0x02, 0x05, 0xfd, 0x06, 0xf6, 0x10, 0xea, 0xf9, 0x09, 0x04, 0x00, 0xff, 0xf3, 0x0a, 0xf0, 0xdd, 0xf2, 0x03, 0xf0, 0xfb, 0xe3, 0xdd, 0xf0, 0xe5, 0xf4, 0xf5, 0x01, 0xfb, 0xf0, 0x0a, 0x05, 0xf0, 0x1c, 0x1c, 0x08, 0x08, 0xfb, 0xe4, 0x13, 0x09, 0x03, 0xfa, 0xfd, 0xf0, 0xf0, 0x15, 0x09, 0xdc, 0x0c, 0x0d, 0xfd, 0x09, 0xf0, 0x10, 0x1f, 0x00, 0x02, 0x08, 0x04, 0x0d, 0x06, 0x08, 0xea, 0xd9, 0xe3, 0xfc, 0xf0, 0xf3, 0xe8, 0xd4, 0x1d, 0xeb, 0xfb, 0xf9, 0xf6, 0xfe, 0xfc, 0xdf, 0xe4, 0xe5, 0x17, 0xfa, 0xf1, 0x02, 0xf4, 0xd5, 0xf7, 0xe7, 0x06, 0xff, 0x05, 0xed, 0xfe, 0xff, 0xf7, 0xe2, 0x1c, 0xf7, 0x00, 0x04, 0xff, 0xf4, 0xfa, 0x01, 0x07, 0x07, 0xf9, 0xf0, 0xfd, 0x11, 0xfc, 0xdd, 0x1d, 0x06, 0x06, 0x08, 0xfd, 0x10, 0xf4, 0x23, 0x13, 0x14, 0x03, 0xfe, 0x0c, 0xcf, 0xf2, 0x01, 0xf3, 0xfb, 0x04, 0xfc, 0x06, 0xd4, 0x28, 0xe1, 0x12, 0xf5, 0xf3, 0xff, 0x12, 0xf0, 0xf9, 0xfb, 0xf8, 0x04, 0xf7, 0x01, 0x0a, 0xe2, 0x20, 0xea, 0x1a, 0x01, 0xfc, 0xfc, 0x0f, 0xbf, 0x05, 0xe2, 0xd9, 0xf2, 0x00, 0x04, 0x01, 0x08, 0x2a, 0x0e, 0x1c, 0x0e, 0x01, 0xf4, 0xfe, 0x01, 0xeb, 0x1a, 0xfa, 0xfa, 0x05, 0xfc, 0x12, 0xf5, 0x09, 0x04, 0xf7, 0xe3, 0xf7, 0xf5, 0x0a, 0xf4, 0xfa, 0x14, 0xfb, 0x10, 0x0e, 0x00, 0x0b, 0xfc, 0xf8, 0x13, 0x0c, 0xe9, 0xfd, 0xf3, 0xfb, 0x0a, 0x02, 0x14, 0xfd, 0xf7, 0x1b, 0xfc, 0x15, 0x14, 0x04, 0x18, 0x13, 0xfe, 0xf0, 0x07, 0xfa, 0xed, 0x03, 0xf2, 0xd1, 0xe3, 0xf9, 0xf3, 0x02, 0x04, 0xfb, 0xf7, 0x03, 0xfb, 0x05, 0x13, 0x16, 0x1f, 0x07, 0x0b, 0x0c, 0x21, 0x25, 0xdb, 0x11, 0x11, 0x06, 0x24, 0x1b, 0xd3, 0xe7, 0xfe, 0x0a, 0xf2, 0x08, 0xd9, 0xe9, 0x16, 0x04, 0xe1, 0x07, 0xef, 0xe5, 0x0a, 0x00, 0xcd, 0xf1, 0xf9, 0xf4, 0xe3, 0xe2, 0xd7, 0xee, 0xe3, 0xef, 0x07, 0xe4, 0x09, 0x0d, 0xee, 0xe3, 0xf6, 0x02, 0x0d, 0x0a, 0x1c, 0x00, 0x04, 0x0f, 0x14, 0x17, 0xf7, 0x08, 0x13, 0xd1, 0x0e, 0x0e, 0xe5, 0xf9, 0xf8, 0xf8, 0xe3, 0xdc, 0xd8, 0xfa, 0x02, 0x09, 0xfe, 0xef, 0xf4, 0xcb, 0xfb, 0xfd, 0xf0, 0xff, 0xec, 0xd5, 0xf1, 0x12, 0xe9, 0xda, 0xef, 0xe6, 0x09, 0xec, 0xef, 0xf7, 0xdb, 0xf5, 0x0a, 0x00, 0x08, 0xf6, 0x10, 0x1d, 0x07, 0xe9, 0x08, 0x0e, 0xfb, 0xfa, 0xff, 0xff, 0xf7, 0xfa, 0xf9, 0x06, 0xfc, 0xdd, 0xc2, 0xff, 0xeb, 0xd7, 0xee, 0xe3, 0x0d, 0xec, 0xe5, 0xf9, 0xed, 0xe8, 0x02, 0x08, 0xf2, 0xf6, 0xf2, 0xd9, 0xee, 0xf1, 0xf5, 0x04, 0xfc, 0x00, 0xdf, 0xe3, 0xf4, 0x15, 0x03, 0xfa, 0x04, 0xfe, 0x02, 0xe5, 0xec, 0xe4, 0x06, 0x13, 0xfd, 0x01, 0xfc, 0xe3, 0x09, 0x17, 0x04, 0xfd, 0x11, 0x15, 0xe9, 0xf1, 0xe7, 0xe3, 0x14, 0x09, 0xfd, 0x02, 0x01, 0xf4, 0xf9, 0x09, 0xe4, 0xea, 0xf7, 0xfd, 0x0c, 0xc7, 0xee, 0xee, 0x0c, 0x1a, 0x06, 0xfd, 0xef, 0xcf, 0x0e, 0x0b, 0xfa, 0x05, 0x01, 0x07, 0x0c, 0xdc, 0xf4, 0xf3, 0x17, 0x23, 0xfa, 0x01, 0xf4, 0xc4, 0x0a, 0x18, 0x00, 0xff, 0x0f, 0x19, 0x00, 0xdd, 0xfe, 0xf6, 0x29, 0x30, 0xf3, 0x08, 0x06, 0xca, 0x11, 0x14, 0xf7, 0x07, 0xf5, 0xf7, 0xf5, 0xea, 0xfd, 0xe7, 0xff, 0x0e, 0x0f, 0xf9, 0xf4, 0xc6, 0xf2, 0x09, 0x17, 0x08, 0x01, 0x00, 0x02, 0xec, 0x05, 0xef, 0x0c, 0x0b, 0x06, 0x06, 0xfc, 0xd0, 0xeb, 0x0a, 0x0d, 0x09, 0x07, 0xfa, 0xe6, 0x02, 0xfd, 0xe7, 0x0c, 0x0a, 0xff, 0x0f, 0x0c, 0xcf, 0xfe, 0x12, 0x1c, 0x11, 0x11, 0xed, 0xe0, 0x0d, 0xc8, 0xde, 0x12, 0xdc, 0x05, 0xeb, 0xee, 0x1e, 0xe5, 0xea, 0xfa, 0x06, 0x03, 0xe1, 0xdb, 0x17, 0xc8, 0xdf, 0xd8, 0xde, 0xfc, 0xdf, 0xf7, 0x26, 0xf1, 0xe0, 0x06, 0x07, 0xfb, 0xd8, 0xd5, 0x14, 0xbb, 0xec, 0xd6, 0xdc, 0x02, 0xd9, 0xfc, 0x0b, 0xe0, 0xe3, 0x00, 0x00, 0xe6, 0xef, 0x01, 0x00, 0x0d, 0x1a, 0x0d, 0xfa, 0x02, 0x0f, 0xfa, 0xde, 0x07, 0x02, 0x05, 0x01, 0xdc, 0xfc, 0x0d, 0x02, 0xff, 0x0f, 0x03, 0x17, 0x0a, 0x0b, 0xf5, 0xd9, 0x08, 0x13, 0xfe, 0x01, 0xdc, 0xfc, 0x05, 0xee, 0x0f, 0x1c, 0x0f, 0x05, 0x07, 0x02, 0x05, 0xde, 0xf9, 0x0c, 0xf7, 0xf7, 0xe3, 0xf7, 0x0c, 0xf4, 0xff, 0x1b, 0x10, 0x0c, 0x02, 0x05, 0xec, 0x05, 0x10, 0x01, 0xfa, 0x03, 0xe8, 0xfb, 0x12, 0x02, 0x04, 0x0a, 0x11, 0x08, 0xfd, 0xf9, 0xf6, 0x10, 0x0a, 0x0a, 0xfb, 0xfe, 0xef, 0xf5, 0x18, 0xf2, 0xfa, 0x19, 0x07, 0xff, 0xfc, 0x0d, 0xed, 0x0d, 0x06, 0x17, 0xf7, 0x03, 0x03, 0xfd, 0xf9, 0xfb, 0xcb, 0xe7, 0xe2, 0xfd, 0x07, 0xd2, 0xc2, 0x25, 0x1e, 0x0d, 0xe2, 0xeb, 0xf8, 0x11, 0xe5, 0xf3, 0xd6, 0xce, 0xe8, 0xf7, 0x08, 0xdf, 0xcf, 0x25, 0x0a, 0x06, 0xd9, 0xf0, 0x07, 0x10, 0xfc, 0xff, 0xc1, 0xeb, 0xf4, 0x02, 0x0d, 0xec, 0xd1, 0x36, 0xfc, 0x03, 0xe7, 0xf7, 0x04, 0x0a, 0xe4, 0xf1, 0xda, 0xd8, 0x02, 0x1f, 0x00, 0xf6, 0xe6, 0x08, 0x18, 0x20, 0xd0, 0xf6, 0x04, 0x0f, 0xf3, 0xfc, 0xe9, 0xda, 0x0e, 0x1f, 0xfa, 0x03, 0xed, 0x0b, 0x18, 0x15, 0xd4, 0xf3, 0x12, 0x1e, 0x0f, 0xf6, 0xf8, 0xec, 0x11, 0x24, 0xf7, 0x12, 0xd9, 0x09, 0x05, 0x27, 0xc0, 0xe0, 0x06, 0xfd, 0xed, 0x05, 0xd8, 0xeb, 0xe4, 0x02, 0x12, 0xe2, 0xe1, 0xfd, 0x0c, 0x16, 0xf6, 0x08, 0x0b, 0x07, 0xfe, 0x0c, 0xf3, 0xdb, 0xf9, 0x0c, 0xfb, 0x03, 0xeb, 0xe8, 0xfd, 0x1a, 0x11, 0xf8, 0x12, 0x0e, 0xf3, 0x01, 0xfc, 0xe6, 0x15, 0x1d, 0xfb, 0x04, 0xf2, 0xeb, 0x08, 0x17, 0x07, 0xf1, 0x08, 0x0c, 0xd5, 0xef, 0xed, 0xef, 0x0e, 0x23, 0xf6, 0x09, 0x00, 0x05, 0xde, 0x14, 0x0f, 0xfe, 0x0e, 0x10, 0x0a, 0x11, 0xf4, 0xfd, 0x20, 0x1e, 0xeb, 0x02, 0x01, 0xf0, 0x08, 0x13, 0xeb, 0xf5, 0x04, 0x06, 0xf1, 0x0b, 0xe5, 0xe6, 0x12, 0x13, 0x00, 0x04, 0xfb, 0xfd, 0xde, 0x1d, 0x02, 0x05, 0x06, 0xfc, 0xcb, 0xe6, 0xf9, 0xe2, 0xf0, 0xfd, 0x02, 0x03, 0x0c, 0xf7, 0xdc, 0x06, 0xf5, 0xf6, 0xfe, 0x0e, 0xfd, 0x06, 0xf7, 0x0b, 0x11, 0x0e, 0xef, 0xfc, 0x0a, 0xef, 0xfe, 0x01, 0xee, 0xed, 0x06, 0x06, 0xca, 0xfd, 0xea, 0xf3, 0x0a, 0x05, 0xfa, 0xfe, 0xff, 0xfb, 0xe8, 0x06, 0xf0, 0x03, 0xff, 0x04, 0xf7, 0xf6, 0x02, 0xe5, 0xf7, 0x06, 0x05, 0x0b, 0x11, 0xf2, 0x00, 0x08, 0x04, 0xf1, 0x03, 0x12, 0x22, 0x0f, 0x1a, 0x00, 0x20, 0x11, 0xed, 0x02, 0x16, 0xd1, 0x03, 0x0e, 0xfd, 0x01, 0x02, 0x06, 0xda, 0x04, 0xf6, 0xd5, 0x12, 0x02, 0xfa, 0x04, 0xf8, 0xd5, 0xe0, 0x06, 0xff, 0xfa, 0x04, 0xfe, 0x05, 0x05, 0xfd, 0xff, 0x08, 0x17, 0x0a, 0xfe, 0xf8, 0xfe, 0xf1, 0x0c, 0x05, 0x15, 0xf9, 0xf6, 0xef, 0xf7, 0xfc, 0x07, 0x00, 0x09, 0xfa, 0xf8, 0x10, 0xe4, 0xf9, 0xf6, 0xf0, 0x05, 0x0a, 0x0c, 0xee, 0xeb, 0x02, 0x01, 0x0f, 0x10, 0xfb, 0x06, 0xf3, 0xf8, 0xf8, 0x01, 0x08, 0xff, 0x06, 0x01, 0x06, 0x0a, 0xf5, 0xf9, 0x02, 0x0f, 0x02, 0x0c, 0x00, 0x03, 0xf5, 0xf5, 0x0b, 0x0b, 0xfb, 0x07, 0xf5, 0x00, 0xf6, 0x06, 0xf0, 0x00, 0xf9, 0xfb, 0x12, 0xf5, 0xf8, 0x00, 0xea, 0xfe, 0x07, 0x09, 0x02, 0xf5, 0x03, 0x02, 0x03, 0xfc, 0xe7, 0x02, 0xfe, 0xf7, 0xf9, 0xf6, 0xf0, 0xda, 0xfa, 0x07, 0x13, 0x12, 0xfb, 0xf6, 0xfd, 0x0b, 0x02, 0x0b, 0x00, 0xfa, 0xed, 0x05, 0x0f, 0x05, 0xfc, 0x00, 0x00, 0xfd, 0xf9, 0x03, 0xf8, 0xfb, 0xfa, 0xf5, 0x1e, 0xe9, 0xf4, 0x01, 0xf2, 0xf8, 0x06, 0x0b, 0xfe, 0x02, 0x0f, 0xf4, 0x05, 0x0d, 0xe9, 0x08, 0x0e, 0xd9, 0xf6, 0xf8, 0x00, 0xe3, 0xf8, 0x0a, 0x0c, 0xee, 0x12, 0x0e, 0x09, 0x12, 0xe2, 0x07, 0x08, 0xa6, 0x08, 0x06, 0xd5, 0xb9, 0xf6, 0x06, 0x13, 0x07, 0x0a, 0x11, 0x09, 0xfa, 0xe3, 0xff, 0xf5, 0xcb, 0xff, 0xf5, 0xcd, 0xb9, 0x06, 0x12, 0x05, 0xed, 0xfa, 0xff, 0x08, 0xfc, 0xe5, 0x09, 0x04, 0xd8, 0xed, 0x06, 0xeb, 0xce, 0x08, 0x02, 0x07, 0x0e, 0xeb, 0x10, 0x03, 0x06, 0xd7, 0xfd, 0x02, 0x18, 0x05, 0x03, 0xe8, 0xd2, 0x0a, 0xfe, 0x00, 0x14, 0xdc, 0x08, 0x00, 0x03, 0xd1, 0xf9, 0xfc, 0x0d, 0xfd, 0xfb, 0xfa, 0xda, 0x11, 0x0a, 0x03, 0xff, 0xe2, 0xf9, 0x05, 0x04, 0xe9, 0xfa, 0xf2, 0x18, 0xed, 0x07, 0xed, 0xe8, 0x07, 0x05, 0x0d, 0x18, 0xea, 0x0b, 0x08, 0xfb, 0x07, 0xf2, 0xf6, 0x1f, 0x07, 0x0c, 0x08, 0xfa, 0x04, 0xff, 0x09, 0x2c, 0xdb, 0xf3, 0x0a, 0x02, 0x14, 0xe5, 0xf7, 0x0e, 0xfb, 0x05, 0xf9, 0x07, 0x0b, 0x05, 0xfa, 0x07, 0xdb, 0xe9, 0xf8, 0xf0, 0x0d, 0xeb, 0x08, 0x17, 0xe3, 0x02, 0xfe, 0x04, 0x06, 0xfb, 0xe6, 0xf8, 0xe0, 0xc4, 0xfd, 0x05, 0xfb, 0xf1, 0xcf, 0xef, 0xee, 0x10, 0xec, 0xe4, 0x10, 0x01, 0xfc, 0x03, 0xe6, 0xd4, 0x09, 0x19, 0xf9, 0x04, 0xfd, 0xf5, 0xfb, 0x0d, 0xfd, 0xf9, 0x0e, 0x09, 0xcd, 0xf5, 0xe9, 0xd9, 0x0d, 0x24, 0xf9, 0x00, 0xe6, 0xf5, 0x01, 0x10, 0xf9, 0x01, 0xf3, 0x06, 0xe9, 0xe9, 0xe1, 0xd4, 0xf6, 0x0b, 0x08, 0xff, 0xe9, 0xe2, 0x00, 0x06, 0xf2, 0x00, 0xfb, 0x0b, 0xff, 0xfa, 0xf8, 0xdf, 0x10, 0x11, 0xff, 0x00, 0xf4, 0xdd, 0x09, 0x14, 0xff, 0xfa, 0xf9, 0x00, 0xd5, 0xf3, 0xe7, 0xd6, 0xfd, 0x03, 0x06, 0x07, 0xda, 0xdb, 0x00, 0x06, 0xfe, 0x09, 0xf9, 0x05, 0x03, 0xef, 0xf2, 0xf1, 0x0b, 0x16, 0xff, 0xfe, 0xe9, 0xdb, 0x26, 0x15, 0xf9, 0x0e, 0x03, 0x0a, 0x2e, 0xf5, 0xfb, 0xff, 0x24, 0x24, 0xfd, 0x12, 0xfe, 0xe2, 0x2b, 0x16, 0x14, 0xfe, 0xf2, 0x05, 0x02, 0xed, 0xf9, 0xe9, 0x0a, 0x06, 0xfa, 0x05, 0xea, 0xda, 0x12, 0x13, 0x13, 0x08, 0x01, 0xed, 0xf5, 0x0a, 0xf3, 0xf8, 0xf9, 0xf3, 0x0b, 0xfa, 0xe9, 0x24, 0x02, 0xfc, 0x00, 0x0d, 0xf6, 0x04, 0x04, 0x0c, 0xf9, 0x0c, 0x04, 0x07, 0xfe, 0xfa, 0xfe, 0x16, 0x0d, 0x08, 0xff, 0x05, 0xf7, 0xef, 0x14, 0x10, 0xfe, 0x03, 0x02, 0x04, 0xfd, 0xf3, 0x07, 0x21, 0x15, 0x0c, 0x06, 0x03, 0xf5, 0xf9, 0xfb, 0x05, 0xe5, 0x08, 0xed, 0xf0, 0x08, 0xec, 0xdf, 0x18, 0xf7, 0xf1, 0x04, 0xfc, 0xef, 0xfe, 0xfc, 0xfd, 0xf9, 0x0c, 0x06, 0x09, 0x09, 0xfc, 0xfc, 0x0f, 0x07, 0x03, 0xfa, 0xfc, 0xe8, 0xfd, 0x0a, 0x0e, 0xfe, 0x15, 0x1a, 0x0f, 0x00, 0xf1, 0x07, 0x1a, 0x19, 0x03, 0x02, 0xfc, 0xf5, 0xe7, 0xbe, 0xf9, 0xac, 0xe1, 0xc5, 0xcf, 0xfe, 0xda, 0xd9, 0xf9, 0xe0, 0xda, 0xfc, 0xff, 0x04, 0xfb, 0xf3, 0xf1, 0xd5, 0xff, 0xf1, 0x09, 0xf3, 0xe5, 0xfd, 0xe9, 0x0a, 0x00, 0xf6, 0x01, 0xf6, 0xfb, 0x01, 0x0c, 0xd5, 0x03, 0x16, 0x0e, 0xf5, 0xf1, 0x05, 0xec, 0x0d, 0xfe, 0xfc, 0xfb, 0xdf, 0xf3, 0x05, 0xdc, 0xec, 0x17, 0x14, 0x08, 0x03, 0xf6, 0x0a, 0x9f, 0x13, 0x02, 0xf4, 0xf2, 0xf7, 0xf8, 0x0d, 0xda, 0xe4, 0x06, 0x0f, 0x09, 0x00, 0xf8, 0x01, 0xa8, 0x04, 0xfb, 0x02, 0xf8, 0xfb, 0x04, 0x00, 0x08, 0xed, 0xf1, 0x19, 0x03, 0xff, 0x02, 0x00, 0xba, 0xfa, 0xec, 0x02, 0x08, 0xed, 0x0e, 0x05, 0xda, 0xea, 0x0a, 0x13, 0xff, 0xfd, 0xf5, 0xf7, 0xdf, 0x0e, 0x0b, 0xf4, 0xfc, 0xfa, 0x0a, 0x04, 0xed, 0xe0, 0xfd, 0x03, 0x0b, 0xf4, 0xf5, 0x09, 0xe1, 0x05, 0x09, 0xf1, 0xf2, 0x03, 0x08, 0x02, 0x00, 0xeb, 0xfe, 0x0b, 0xfb, 0x0e, 0x05, 0xf3, 0xf6, 0xf1, 0xf7, 0x05, 0x04, 0xff, 0xf8, 0x11, 0xe7, 0xe5, 0x01, 0x09, 0x09, 0x07, 0xf7, 0xfe, 0x10, 0x0f, 0xff, 0x01, 0x06, 0xfb, 0xfc, 0x07, 0xf1, 0xdc, 0xfc, 0x06, 0x0a, 0xff, 0xfe, 0x06, 0xe2, 0x0b, 0x07, 0xfe, 0x06, 0xec, 0xf7, 0x09, 0xec, 0xe9, 0x02, 0x14, 0xfa, 0x03, 0xf5, 0xf6, 0xdc, 0x05, 0xfc, 0x04, 0x00, 0x82, 0xf9, 0xff, 0xff, 0x04, 0x00, 0x00, 0x00, 0x80, 0x00, 0x00, 0x00, 0xaf, 0xfc, 0xff, 0xff, 0xa4, 0xff, 0xff, 0xff, 0x07, 0xfd, 0xff, 0xff, 0x27, 0xfd, 0xff, 0xff, 0x68, 0x00, 0x00, 0x00, 0xb6, 0x02, 0x00, 0x00, 0x70, 0xff, 0xff, 0xff, 0xd8, 0xfe, 0xff, 0xff, 0x43, 0x00, 0x00, 0x00, 0x7b, 0xfc, 0xff, 0xff, 0xd0, 0xfa, 0xff, 0xff, 0xb8, 0x00, 0x00, 0x00, 0x5b, 0xff, 0xff, 0xff, 0xb5, 0xfe, 0xff, 0xff, 0x21, 0x03, 0x00, 0x00, 0xa5, 0xfe, 0xff, 0xff, 0x9a, 0x04, 0x00, 0x00, 0x15, 0x01, 0x00, 0x00, 0xd3, 0xfe, 0xff, 0xff, 0x85, 0x00, 0x00, 0x00, 0x95, 0xfd, 0xff, 0xff, 0x8d, 0xff, 0xff, 0xff, 0x6c, 0xff, 0xff, 0xff, 0x61, 0xfc, 0xff, 0xff, 0xa2, 0xff, 0xff, 0xff, 0xac, 0xff, 0xff, 0xff, 0x4f, 0xfc, 0xff, 0xff, 0xdb, 0xfb, 0xff, 0xff, 0xd0, 0xfd, 0xff, 0xff, 0xaf, 0xff, 0xff, 0xff, 0x52, 0xfe, 0xff, 0xff, 0x39, 0xfc, 0xff, 0xff, 0x0e, 0xfa, 0xff, 0xff, 0x04, 0x00, 0x00, 0x00, 0x00, 0x04, 0x00, 0x00, 0x43, 0xec, 0x0e, 0xf8, 0xee, 0x0f, 0x1b, 0x0f, 0xd7, 0x04, 0xfc, 0x00, 0x47, 0xff, 0x0e, 0x36, 0x43, 0xe4, 0xdc, 0x10, 0x1e, 0x05, 0xeb, 0xfd, 0x0b, 0xeb, 0xe7, 0xe8, 0x0a, 0x04, 0x19, 0x0b, 0xed, 0xef, 0xdc, 0x16, 0x0b, 0x02, 0xfa, 0xe0, 0x06, 0x01, 0x09, 0xfb, 0x01, 0xe0, 0xf6, 0x0a, 0xfb, 0x08, 0xf1, 0x05, 0x01, 0x06, 0xf3, 0xe7, 0x0f, 0xe0, 0xeb, 0xf0, 0x0e, 0xe2, 0xe0, 0xf8, 0x56, 0xf8, 0x00, 0xeb, 0xf1, 0x26, 0x11, 0xfa, 0xef, 0xef, 0x06, 0xd2, 0x1e, 0x04, 0x08, 0x21, 0x3f, 0xda, 0xee, 0xf4, 0x1b, 0x0b, 0x08, 0xf5, 0x14, 0xab, 0xea, 0x0a, 0x09, 0x17, 0x05, 0x16, 0xca, 0xfb, 0xeb, 0x0c, 0x57, 0x14, 0x15, 0xde, 0x2f, 0xe3, 0xf4, 0x21, 0xca, 0xf0, 0x0f, 0xd9, 0xd8, 0xef, 0xfb, 0xf6, 0xea, 0xf5, 0x44, 0x06, 0xca, 0x1a, 0x04, 0xe7, 0xcc, 0x2b, 0xde, 0xd7, 0xfa, 0x04, 0xe9, 0xe1, 0x00, 0xe7, 0x05, 0xe2, 0x04, 0xf7, 0xeb, 0x07, 0xef, 0xe5, 0x15, 0x0c, 0x0f, 0xe2, 0x07, 0xe5, 0xe2, 0xf4, 0xec, 0xf6, 0x11, 0x0f, 0x02, 0xf0, 0x18, 0x0b, 0xea, 0xe7, 0xfa, 0xfd, 0xe8, 0xfc, 0x00, 0xea, 0xf4, 0x0a, 0xd6, 0xdd, 0xec, 0x01, 0xeb, 0x0e, 0xfa, 0x19, 0x0c, 0x02, 0xe2, 0x0f, 0x0b, 0xfe, 0xf3, 0xd7, 0xe4, 0x04, 0xfb, 0xdd, 0xf0, 0xd6, 0xdf, 0xe8, 0x13, 0xcf, 0xfd, 0x2a, 0x12, 0x03, 0xff, 0xf9, 0xe2, 0x07, 0x10, 0xf9, 0x34, 0x05, 0x11, 0x0d, 0x24, 0x08, 0x0b, 0xd2, 0x0f, 0xe3, 0x4a, 0x3c, 0xf0, 0x10, 0x07, 0x17, 0xe0, 0x14, 0x16, 0x13, 0xb8, 0x12, 0xc3, 0xdc, 0xda, 0x24, 0x08, 0xd1, 0xfb, 0xe2, 0xcb, 0x13, 0xdf, 0x15, 0x11, 0xd3, 0x03, 0x03, 0x07, 0x26, 0xfe, 0x32, 0xe5, 0xd8, 0xe5, 0x19, 0xd9, 0x07, 0x04, 0xfb, 0xf5, 0x19, 0x14, 0xf2, 0x0b, 0x24, 0xed, 0x19, 0xfe, 0x14, 0xd3, 0xd4, 0x1a, 0xfc, 0x58, 0xf2, 0xda, 0x1d, 0x48, 0x14, 0xf1, 0xe1, 0x1d, 0xf4, 0x0a, 0x24, 0x2e, 0x03, 0x36, 0xf2, 0xca, 0x2d, 0x1c, 0xe6, 0xd2, 0xf8, 0xe7, 0xfd, 0x3b, 0x11, 0x07, 0xf8, 0xf6, 0xfc, 0xf4, 0x2c, 0xfd, 0x0b, 0x2b, 0xdf, 0x00, 0xe5, 0xfe, 0x01, 0x13, 0xe3, 0x3d, 0x28, 0xe2, 0x2d, 0xf9, 0xf2, 0xde, 0x2e, 0xd5, 0xc6, 0xe4, 0x17, 0xa4, 0xbd, 0xfd, 0x03, 0x0e, 0xe4, 0xf6, 0xfe, 0xd7, 0x1e, 0xd1, 0x00, 0x19, 0xef, 0x0a, 0x15, 0xe5, 0x19, 0x16, 0x48, 0xf0, 0xff, 0xb8, 0x0c, 0xc3, 0xed, 0x18, 0xf8, 0xd4, 0x04, 0x05, 0xd2, 0x11, 0x0b, 0x03, 0xf9, 0xf9, 0x26, 0xdf, 0xdd, 0x0f, 0xee, 0x2e, 0xf7, 0xef, 0x02, 0x3d, 0x18, 0xfc, 0xf9, 0xf0, 0x1f, 0x20, 0x21, 0x1f, 0x15, 0x30, 0x10, 0xe6, 0x33, 0xf2, 0x02, 0x32, 0x0a, 0xfe, 0xf2, 0xe2, 0x1e, 0xf7, 0x11, 0xde, 0x18, 0x05, 0xd4, 0xff, 0x1f, 0x0b, 0x3c, 0x29, 0xeb, 0x0d, 0xf8, 0x18, 0x06, 0x11, 0x00, 0x1c, 0xb3, 0xde, 0xdb, 0x1d, 0xf0, 0x16, 0xf3, 0x0c, 0xf0, 0xf8, 0xe5, 0xf6, 0xf3, 0x02, 0xe9, 0xfa, 0x01, 0xf2, 0xed, 0xe8, 0x14, 0xe2, 0x12, 0x0e, 0xee, 0x04, 0x03, 0xea, 0xf3, 0xfc, 0xff, 0x0e, 0x16, 0xe7, 0x1b, 0xe6, 0x11, 0xfd, 0xff, 0xe1, 0x11, 0xf8, 0x09, 0x19, 0x1e, 0xfc, 0xef, 0x06, 0x2a, 0xe2, 0xd3, 0xba, 0xfd, 0x24, 0x0b, 0xa5, 0xd0, 0x1e, 0xea, 0x1c, 0x37, 0x0e, 0xda, 0x06, 0x81, 0xf7, 0xfa, 0xfb, 0xf8, 0x0a, 0x09, 0x0e, 0xf9, 0x0b, 0xf6, 0x23, 0x22, 0xee, 0xef, 0x06, 0x28, 0xdc, 0xd6, 0xc7, 0x25, 0x13, 0xc0, 0xab, 0xe1, 0x27, 0x15, 0x15, 0x08, 0x05, 0xda, 0x1a, 0xac, 0xf1, 0xde, 0xfd, 0xcb, 0x0e, 0xe6, 0x2a, 0xe1, 0x22, 0xd3, 0x15, 0x17, 0xfa, 0xf0, 0x16, 0x1e, 0xcc, 0x02, 0xee, 0xf8, 0xe3, 0xea, 0xf0, 0xac, 0x07, 0x03, 0x0e, 0x22, 0x09, 0xec, 0x17, 0xd9, 0xcc, 0xd8, 0x0c, 0xcb, 0x27, 0xea, 0xeb, 0x01, 0xf6, 0x0b, 0x52, 0x05, 0x0f, 0xff, 0x1b, 0x0b, 0x0c, 0x10, 0xde, 0xec, 0x23, 0xe9, 0xa7, 0xd9, 0x11, 0xfa, 0x06, 0x15, 0x3a, 0x03, 0xfe, 0x10, 0x16, 0xfb, 0xe2, 0x06, 0xea, 0x03, 0xd8, 0xc1, 0xf1, 0x11, 0x51, 0x14, 0x0b, 0xd9, 0x26, 0x0c, 0x1f, 0x21, 0xda, 0x06, 0x25, 0xc3, 0x05, 0x1b, 0xe2, 0xd3, 0xd4, 0xd0, 0x43, 0x1d, 0xd8, 0xf0, 0xf8, 0xed, 0xbd, 0x31, 0x05, 0xbd, 0xff, 0x06, 0xfc, 0xfc, 0x1e, 0x0d, 0xf6, 0x12, 0x00, 0xf4, 0x0d, 0xff, 0xe3, 0x1a, 0x03, 0x02, 0xa1, 0xcb, 0x10, 0x07, 0x25, 0x1b, 0x08, 0xe9, 0xed, 0x86, 0x29, 0xf6, 0xe6, 0xef, 0x17, 0xf8, 0x44, 0xfd, 0x03, 0x15, 0xdf, 0x01, 0x01, 0x22, 0xd4, 0xfd, 0x09, 0xd2, 0x2d, 0x1e, 0xe2, 0x29, 0x43, 0x09, 0x07, 0xe8, 0x1b, 0xfd, 0x11, 0xf9, 0x22, 0xbb, 0x1e, 0x18, 0x0a, 0xd7, 0x0e, 0x05, 0x68, 0xdd, 0xd9, 0xea, 0x13, 0xf7, 0xe5, 0xfe, 0xe2, 0x0e, 0x04, 0xca, 0x4e, 0x06, 0xff, 0x3e, 0x63, 0xda, 0x04, 0x08, 0xf0, 0xfa, 0x21, 0xfc, 0x0d, 0xea, 0xfd, 0xe3, 0x0f, 0x04, 0xfa, 0x19, 0x48, 0xd9, 0x08, 0x2a, 0x1b, 0x07, 0xf9, 0x02, 0xfc, 0x10, 0x02, 0xe5, 0x22, 0x26, 0x11, 0x2d, 0x1d, 0xf7, 0xf2, 0xcc, 0xfa, 0xf9, 0x58, 0x30, 0xf4, 0xe2, 0x19, 0x02, 0xf1, 0x05, 0x0a, 0x06, 0xf1, 0x14, 0xc8, 0xe9, 0xea, 0x1f, 0xf2, 0xb6, 0x12, 0xc3, 0xd9, 0x11, 0xe4, 0xd8, 0x1a, 0x03, 0xee, 0x21, 0xc8, 0x08, 0x05, 0x27, 0xf9, 0xdb, 0xde, 0x15, 0xe2, 0xd7, 0x0b, 0x12, 0xba, 0x23, 0x0a, 0x1b, 0x04, 0xd6, 0xa2, 0xfc, 0xe5, 0xf2, 0xe0, 0x06, 0xfb, 0xfb, 0x15, 0x27, 0x1f, 0x04, 0x08, 0x0d, 0x18, 0x1c, 0x1d, 0x39, 0xc2, 0xd3, 0xec, 0xdb, 0xd0, 0xfa, 0x19, 0xf8, 0xe3, 0xf6, 0xcc, 0x10, 0xc5, 0xaf, 0xdb, 0x13, 0x0c, 0xd0, 0x1e, 0x07, 0xcb, 0xf8, 0xf2, 0x17, 0x22, 0xea, 0xf4, 0x20, 0xe4, 0x20, 0x17, 0x1c, 0xb0, 0xfa, 0xe7, 0xed, 0xd6, 0x00, 0xf9, 0xe0, 0xdc, 0x15, 0x18, 0x10, 0x1f, 0xf6, 0xe2, 0xef, 0x04, 0x0c, 0xe4, 0x23, 0x14, 0xdd, 0x19, 0x28, 0xfa, 0x10, 0x14, 0xed, 0x17, 0xea, 0x0b, 0x0a, 0x14, 0x1e, 0x07, 0xbd, 0x0e, 0x01, 0xf8, 0xeb, 0xfb, 0x06, 0xfb, 0x0a, 0xb6, 0xdb, 0x04, 0x1d, 0x06, 0xcb, 0x1f, 0xd4, 0xe5, 0xfa, 0xcc, 0xec, 0xf7, 0x04, 0x14, 0x21, 0xc7, 0x09, 0xd4, 0x21, 0x16, 0x0e, 0xd1, 0x21, 0xe4, 0xe5, 0x00, 0x28, 0xbb, 0x2b, 0x1d, 0xfc, 0x0d, 0x2c, 0xf4, 0x0b, 0x1b, 0x0b, 0x07, 0x1b, 0x06, 0xc1, 0x1e, 0x16, 0xd8, 0x26, 0x21, 0x0b, 0xfb, 0xf7, 0xf4, 0xf0, 0x1f, 0xfe, 0x25, 0x9c, 0x1d, 0x05, 0x16, 0xd3, 0x1f, 0xfc, 0xe1, 0x09, 0xf7, 0xde, 0xb1, 0x28, 0xe5, 0xfa, 0x03, 0x1f, 0xe8, 0xf0, 0xe1, 0x14, 0x29, 0xb1, 0xd0, 0xfe, 0x04, 0x22, 0x23, 0x21, 0xac, 0xbd, 0xf8, 0xde, 0x09, 0xe1, 0x05, 0xcf, 0x16, 0x01, 0xdf, 0xf0, 0xd6, 0x1f, 0x5f, 0x20, 0x03, 0xd0, 0x2b, 0xee, 0x02, 0x1b, 0xb1, 0xe8, 0x2b, 0xbf, 0xf2, 0x00, 0xfc, 0xdc, 0xd2, 0x07, 0x36, 0xf7, 0xd4, 0x0f, 0x01, 0xf8, 0xce, 0x2a, 0xdc, 0xbf, 0xe7, 0x13, 0x06, 0x07, 0x4c, 0x09, 0x14, 0x12, 0x11, 0x0a, 0xf9, 0x12, 0xdf, 0xe9, 0x1b, 0xe0, 0xb3, 0xe7, 0xf8, 0xe0, 0x07, 0xf6, 0x46, 0xf1, 0xf9, 0x16, 0x1e, 0xf1, 0xdf, 0x1e, 0x1d, 0xfe, 0x1a, 0xfe, 0xff, 0xff, 0x04, 0x00, 0x00, 0x00, 0x80, 0x00, 0x00, 0x00, 0x5e, 0x00, 0x00, 0x00, 0x4b, 0xfe, 0xff, 0xff, 0x6d, 0xff, 0xff, 0xff, 0xe9, 0x04, 0x00, 0x00, 0x21, 0xfd, 0xff, 0xff, 0x68, 0xfe, 0xff, 0xff, 0x59, 0xfc, 0xff, 0xff, 0xc6, 0x03, 0x00, 0x00, 0xff, 0xfe, 0xff, 0xff, 0x71, 0xff, 0xff, 0xff, 0xc9, 0x05, 0x00, 0x00, 0x6e, 0x00, 0x00, 0x00, 0xda, 0x01, 0x00, 0x00, 0x9c, 0xff, 0xff, 0xff, 0x2d, 0x02, 0x00, 0x00, 0xfc, 0x05, 0x00, 0x00, 0xb3, 0xfe, 0xff, 0xff, 0x0c, 0xfe, 0xff, 0xff, 0x7b, 0x02, 0x00, 0x00, 0x98, 0x03, 0x00, 0x00, 0x41, 0xff, 0xff, 0xff, 0xe1, 0xff, 0xff, 0xff, 0x86, 0xfb, 0xff, 0xff, 0xaa, 0x03, 0x00, 0x00, 0x0f, 0x03, 0x00, 0x00, 0xd1, 0x02, 0x00, 0x00, 0xac, 0x00, 0x00, 0x00, 0xf5, 0x03, 0x00, 0x00, 0x25, 0xff, 0xff, 0xff, 0x9f, 0x05, 0x00, 0x00, 0x4f, 0x02, 0x00, 0x00, 0x34, 0xff, 0xff, 0xff, 0xa6, 0xfe, 0xff, 0xff, 0x04, 0x00, 0x00, 0x00, 0x80, 0x00, 0x00, 0x00, 0xa9, 0xe6, 0xa0, 0x4e, 0xe2, 0xe2, 0x2a, 0xcd, 0x12, 0x3d, 0xf0, 0x1a, 0xad, 0xf6, 0xd3, 0xd3, 0xf9, 0x2a, 0x4b, 0xcf, 0xc1, 0xd0, 0x34, 0xf0, 0xb4, 0xe5, 0xbc, 0x19, 0xdc, 0xbf, 0x28, 0x41, 0x10, 0xf6, 0x0e, 0x1a, 0x03, 0x15, 0x99, 0x14, 0xb2, 0xdb, 0x08, 0xb9, 0x19, 0xf3, 0x57, 0x48, 0x34, 0x20, 0xff, 0x47, 0x0d, 0x0d, 0x18, 0xdd, 0x03, 0x14, 0x0d, 0xbe, 0x11, 0x3d, 0xf4, 0x2d, 0x10, 0xd9, 0xed, 0x18, 0x05, 0xf2, 0xbd, 0x3f, 0xf9, 0xfa, 0x3f, 0x01, 0xfb, 0xf0, 0xf0, 0x00, 0x35, 0xba, 0x20, 0xc6, 0xe0, 0xee, 0xbc, 0x4e, 0x0e, 0x36, 0xdf, 0x57, 0xd0, 0x3c, 0x05, 0xbb, 0x44, 0xfb, 0x25, 0x97, 0xf3, 0xf0, 0x27, 0xa9, 0x27, 0x94, 0xbd, 0x1c, 0x17, 0x2b, 0xe8, 0xcd, 0xc3, 0xcb, 0xce, 0xce, 0x39, 0x5b, 0x40, 0xa3, 0xf1, 0xba, 0x0a, 0xc2, 0x23, 0xcf, 0x81, 0xd2, 0x32, 0xff, 0xff, 0xff, 0x04, 0x00, 0x00, 0x00, 0x10, 0x00, 0x00, 0x00, 0xa3, 0xfe, 0xff, 0xff, 0x2b, 0xfc, 0xff, 0xff, 0xdb, 0x00, 0x00, 0x00, 0x1c, 0x04, 0x00, 0x00, 0x4e, 0xff, 0xff, 0xff, 0x04, 0x00, 0x00, 0x00, 0x08, 0x00, 0x00, 0x00, 0x01, 0x00, 0x00, 0x00, 0x02, 0x00, 0x00, 0x00, 0xb4, 0xf1, 0xff, 0xff, 0xb8, 0xf1, 0xff, 0xff, 0x0f, 0x00, 0x00, 0x00, 0x4d, 0x4c, 0x49, 0x52, 0x20, 0x43, 0x6f, 0x6e, 0x76, 0x65, 0x72, 0x74, 0x65, 0x64, 0x2e, 0x00, 0x01, 0x00, 0x00, 0x00, 0x14, 0x00, 0x00, 0x00, 0x00, 0x00, 0x0e, 0x00, 0x18, 0x00, 0x14, 0x00, 0x10, 0x00, 0x0c, 0x00, 0x08, 0x00, 0x04, 0x00, 0x0e, 0x00, 0x00, 0x00, 0x14, 0x00, 0x00, 0x00, 0x1c, 0x00, 0x00, 0x00, 0xe0, 0x02, 0x00, 0x00, 0xe4, 0x02, 0x00, 0x00, 0xe8, 0x02, 0x00, 0x00, 0x04, 0x00, 0x00, 0x00, 0x6d, 0x61, 0x69, 0x6e, 0x00, 0x00, 0x00, 0x00, 0x0a, 0x00, 0x00, 0x00, 0x7c, 0x02, 0x00, 0x00, 0x18, 0x02, 0x00, 0x00, 0xc8, 0x01, 0x00, 0x00, 0x84, 0x01, 0x00, 0x00, 0x34, 0x01, 0x00, 0x00, 0xf0, 0x00, 0x00, 0x00, 0xbc, 0x00, 0x00, 0x00, 0x78, 0x00, 0x00, 0x00, 0x40, 0x00, 0x00, 0x00, 0x04, 0x00, 0x00, 0x00, 0x1a, 0xfe, 0xff, 0xff, 0x1c, 0x00, 0x00, 0x00, 0x00, 0x00, 0x00, 0x09, 0x1c, 0x00, 0x00, 0x00, 0x20, 0x00, 0x00, 0x00, 0x04, 0x00, 0x00, 0x00, 0x00, 0x00, 0x06, 0x00, 0x08, 0x00, 0x04, 0x00, 0x06, 0x00, 0x00, 0x00, 0x00, 0x00, 0x80, 0x3f, 0x01, 0x00, 0x00, 0x00, 0x15, 0x00, 0x00, 0x00, 0x01, 0x00, 0x00, 0x00, 0x14, 0x00, 0x00, 0x00, 0xde, 0xfe, 0xff, 0xff, 0x14, 0x00, 0x00, 0x00, 0x00, 0x00, 0x00, 0x08, 0x10, 0x00, 0x00, 0x00, 0x14, 0x00, 0x00, 0x00, 0x03, 0x00, 0x00, 0x00, 0x88, 0xf2, 0xff, 0xff, 0x01, 0x00, 0x00, 0x00, 0x14, 0x00, 0x00, 0x00, 0x03, 0x00, 0x00, 0x00, 0x13, 0x00, 0x00, 0x00, 0x03, 0x00, 0x00, 0x00, 0x02, 0x00, 0x00, 0x00, 0x86, 0xfe, 0xff, 0xff, 0x1c, 0x00, 0x00, 0x00, 0x00, 0x00, 0x00, 0x08, 0x1c, 0x00, 0x00, 0x00, 0x20, 0x00, 0x00, 0x00, 0x03, 0x00, 0x00, 0x00, 0x00, 0x00, 0x06, 0x00, 0x08, 0x00, 0x07, 0x00, 0x06, 0x00, 0x00, 0x00, 0x00, 0x00, 0x00, 0x01, 0x01, 0x00, 0x00, 0x00, 0x13, 0x00, 0x00, 0x00, 0x03, 0x00, 0x00, 0x00, 0x12, 0x00, 0x00, 0x00, 0x05, 0x00, 0x00, 0x00, 0x04, 0x00, 0x00, 0x00, 0x52, 0xff, 0xff, 0xff, 0x14, 0x00, 0x00, 0x00, 0x00, 0x00, 0x00, 0x1b, 0x10, 0x00, 0x00, 0x00, 0x14, 0x00, 0x00, 0x00, 0x02, 0x00, 0x00, 0x00, 0xfc, 0xf2, 0xff, 0xff, 0x01, 0x00, 0x00, 0x00, 0x12, 0x00, 0x00, 0x00, 0x02, 0x00, 0x00, 0x00, 0x11, 0x00, 0x00, 0x00, 0x01, 0x00, 0x00, 0x00, 0x82, 0xff, 0xff, 0xff, 0x14, 0x00, 0x00, 0x00, 0x00, 0x00, 0x00, 0x05, 0x24, 0x00, 0x00, 0x00, 0x28, 0x00, 0x00, 0x00, 0x01, 0x00, 0x00, 0x00, 0xe6, 0xfe, 0xff, 0xff, 0x02, 0x00, 0x00, 0x00, 0x02, 0x00, 0x00, 0x00, 0x02, 0x00, 0x00, 0x00, 0x02, 0x00, 0x00, 0x00, 0x00, 0x00, 0x00, 0x01, 0x01, 0x00, 0x00, 0x00, 0x11, 0x00, 0x00, 0x00, 0x01, 0x00, 0x00, 0x00, 0x10, 0x00, 0x00, 0x00, 0xd6, 0xfe, 0xff, 0xff, 0x10, 0x00, 0x00, 0x00, 0x00, 0x00, 0x00, 0x01, 0x18, 0x00, 0x00, 0x00, 0x1c, 0x00, 0x00, 0x00, 0xc8, 0xfe, 0xff, 0xff, 0x00, 0x00, 0x00, 0x01, 0x01, 0x00, 0x00, 0x00, 0x01, 0x00, 0x00, 0x00, 0x01, 0x00, 0x00, 0x00, 0x10, 0x00, 0x00, 0x00, 0x03, 0x00, 0x00, 0x00, 0x0f, 0x00, 0x00, 0x00, 0x07, 0x00, 0x00, 0x00, 0x06, 0x00, 0x00, 0x00, 0x00, 0x00, 0x0e, 0x00, 0x18, 0x00, 0x14, 0x00, 0x10, 0x00, 0x0c, 0x00, 0x0b, 0x00, 0x04, 0x00, 0x0e, 0x00, 0x00, 0x00, 0x14, 0x00, 0x00, 0x00, 0x00, 0x00, 0x00, 0x05, 0x24, 0x00, 0x00, 0x00, 0x28, 0x00, 0x00, 0x00, 0x01, 0x00, 0x00, 0x00, 0x72, 0xff, 0xff, 0xff, 0x02, 0x00, 0x00, 0x00, 0x02, 0x00, 0x00, 0x00, 0x02, 0x00, 0x00, 0x00, 0x02, 0x00, 0x00, 0x00, 0x00, 0x00, 0x00, 0x01, 0x01, 0x00, 0x00, 0x00, 0x0f, 0x00, 0x00, 0x00, 0x01, 0x00, 0x00, 0x00, 0x0e, 0x00, 0x00, 0x00, 0x62, 0xff, 0xff, 0xff, 0x10, 0x00, 0x00, 0x00, 0x00, 0x00, 0x00, 0x01, 0x18, 0x00, 0x00, 0x00, 0x1c, 0x00, 0x00, 0x00, 0x54, 0xff, 0xff, 0xff, 0x00, 0x00, 0x00, 0x01, 0x01, 0x00, 0x00, 0x00, 0x01, 0x00, 0x00, 0x00, 0x01, 0x00, 0x00, 0x00, 0x0e, 0x00, 0x00, 0x00, 0x03, 0x00, 0x00, 0x00, 0x0d, 0x00, 0x00, 0x00, 0x09, 0x00, 0x00, 0x00, 0x08, 0x00, 0x00, 0x00, 0x00, 0x00, 0x0e, 0x00, 0x1a, 0x00, 0x14, 0x00, 0x10, 0x00, 0x0c, 0x00, 0x0b, 0x00, 0x04, 0x00, 0x0e, 0x00, 0x00, 0x00, 0x24, 0x00, 0x00, 0x00, 0x00, 0x00, 0x00, 0x05, 0x34, 0x00, 0x00, 0x00, 0x38, 0x00, 0x00, 0x00, 0x01, 0x00, 0x00, 0x00, 0x00, 0x00, 0x0e, 0x00, 0x18, 0x00, 0x17, 0x00, 0x10, 0x00, 0x0c, 0x00, 0x08, 0x00, 0x04, 0x00, 0x0e, 0x00, 0x00, 0x00, 0x02, 0x00, 0x00, 0x00, 0x02, 0x00, 0x00, 0x00, 0x02, 0x00, 0x00, 0x00, 0x02, 0x00, 0x00, 0x00, 0x00, 0x00, 0x00, 0x01, 0x01, 0x00, 0x00, 0x00, 0x0d, 0x00, 0x00, 0x00, 0x01, 0x00, 0x00, 0x00, 0x0c, 0x00, 0x00, 0x00, 0x00, 0x00, 0x0e, 0x00, 0x14, 0x00, 0x00, 0x00, 0x10, 0x00, 0x0c, 0x00, 0x0b, 0x00, 0x04, 0x00, 0x0e, 0x00, 0x00, 0x00, 0x1c, 0x00, 0x00, 0x00, 0x00, 0x00, 0x00, 0x01, 0x24, 0x00, 0x00, 0x00, 0x28, 0x00, 0x00, 0x00, 0x0c, 0x00, 0x10, 0x00, 0x00, 0x00, 0x0c, 0x00, 0x08, 0x00, 0x07, 0x00, 0x0c, 0x00, 0x00, 0x00, 0x00, 0x00, 0x00, 0x01, 0x01, 0x00, 0x00, 0x00, 0x01, 0x00, 0x00, 0x00, 0x01, 0x00, 0x00, 0x00, 0x0c, 0x00, 0x00, 0x00, 0x03, 0x00, 0x00, 0x00, 0x00, 0x00, 0x00, 0x00, 0x0b, 0x00, 0x00, 0x00, 0x0a, 0x00, 0x00, 0x00, 0x01, 0x00, 0x00, 0x00, 0x15, 0x00, 0x00, 0x00, 0x01, 0x00, 0x00, 0x00, 0x00, 0x00, 0x00, 0x00, 0x16, 0x00, 0x00, 0x00, 0x54, 0x0b, 0x00, 0x00, 0xf8, 0x0a, 0x00, 0x00, 0x80, 0x0a, 0x00, 0x00, 0x1c, 0x0a, 0x00, 0x00, 0xb8, 0x09, 0x00, 0x00, 0x54, 0x09, 0x00, 0x00, 0xf0, 0x08, 0x00, 0x00, 0x84, 0x08, 0x00, 0x00, 0x20, 0x08, 0x00, 0x00, 0xb4, 0x07, 0x00, 0x00, 0x50, 0x07, 0x00, 0x00, 0xe4, 0x06, 0x00, 0x00, 0x08, 0x06, 0x00, 0x00, 0x6c, 0x05, 0x00, 0x00, 0x90, 0x04, 0x00, 0x00, 0xf4, 0x03, 0x00, 0x00, 0x18, 0x03, 0x00, 0x00, 0x7c, 0x02, 0x00, 0x00, 0xe8, 0x01, 0x00, 0x00, 0x24, 0x01, 0x00, 0x00, 0x80, 0x00, 0x00, 0x00, 0x04, 0x00, 0x00, 0x00, 0x1a, 0xf5, 0xff, 0xff, 0x00, 0x00, 0x00, 0x01, 0x18, 0x00, 0x00, 0x00, 0x20, 0x00, 0x00, 0x00, 0x3c, 0x00, 0x00, 0x00, 0x16, 0x00, 0x00, 0x00, 0x00, 0x00, 0x00, 0x09, 0x50, 0x00, 0x00, 0x00, 0x02, 0x00, 0x00, 0x00, 0xff, 0xff, 0xff, 0xff, 0x04, 0x00, 0x00, 0x00, 0xfc, 0xf4, 0xff, 0xff, 0x08, 0x00, 0x00, 0x00, 0x10, 0x00, 0x00, 0x00, 0x01, 0x00, 0x00, 0x00, 0x80, 0xff, 0xff, 0xff, 0xff, 0xff, 0xff, 0xff, 0x01, 0x00, 0x00, 0x00, 0x00, 0x00, 0x80, 0x3b, 0x1b, 0x00, 0x00, 0x00, 0x53, 0x74, 0x61, 0x74, 0x65, 0x66, 0x75, 0x6c, 0x50, 0x61, 0x72, 0x74, 0x69, 0x74, 0x69, 0x6f, 0x6e, 0x65, 0x64, 0x43, 0x61, 0x6c, 0x6c, 0x5f, 0x31, 0x3a, 0x30, 0x00, 0x02, 0x00, 0x00, 0x00, 0x01, 0x00, 0x00, 0x00, 0x04, 0x00, 0x00, 0x00, 0x92, 0xf5, 0xff, 0xff, 0x00, 0x00, 0x00, 0x01, 0x18, 0x00, 0x00, 0x00, 0x20, 0x00, 0x00, 0x00, 0x3c, 0x00, 0x00, 0x00, 0x15, 0x00, 0x00, 0x00, 0x00, 0x00, 0x00, 0x09, 0x78, 0x00, 0x00, 0x00, 0x02, 0x00, 0x00, 0x00, 0xff, 0xff, 0xff, 0xff, 0x04, 0x00, 0x00, 0x00, 0x74, 0xf5, 0xff, 0xff, 0x08, 0x00, 0x00, 0x00, 0x10, 0x00, 0x00, 0x00, 0x01, 0x00, 0x00, 0x00, 0xf9, 0xff, 0xff, 0xff, 0xff, 0xff, 0xff, 0xff, 0x01, 0x00, 0x00, 0x00, 0x22, 0x8b, 0x87, 0x3d, 0x40, 0x00, 0x00, 0x00, 0x73, 0x65, 0x71, 0x75, 0x65, 0x6e, 0x74, 0x69, 0x61, 0x6c, 0x5f, 0x34, 0x5f, 0x31, 0x2f, 0x64, 0x65, 0x6e, 0x73, 0x65, 0x5f, 0x35, 0x5f, 0x31, 0x2f, 0x4d, 0x61, 0x74, 0x4d, 0x75, 0x6c, 0x3b, 0x73, 0x65, 0x71, 0x75, 0x65, 0x6e, 0x74, 0x69, 0x61, 0x6c, 0x5f, 0x34, 0x5f, 0x31, 0x2f, 0x64, 0x65, 0x6e, 0x73, 0x65, 0x5f, 0x35, 0x5f, 0x31, 0x2f, 0x42, 0x69, 0x61, 0x73, 0x41, 0x64, 0x64, 0x00, 0x00, 0x00, 0x00, 0x02, 0x00, 0x00, 0x00, 0x01, 0x00, 0x00, 0x00, 0x04, 0x00, 0x00, 0x00, 0x32, 0xf6, 0xff, 0xff, 0x00, 0x00, 0x00, 0x01, 0x18, 0x00, 0x00, 0x00, 0x20, 0x00, 0x00, 0x00, 0x40, 0x00, 0x00, 0x00, 0x14, 0x00, 0x00, 0x00, 0x00, 0x00, 0x00, 0x09, 0x98, 0x00, 0x00, 0x00, 0x02, 0x00, 0x00, 0x00, 0xff, 0xff, 0xff, 0xff, 0x20, 0x00, 0x00, 0x00, 0x14, 0xf6, 0xff, 0xff, 0x08, 0x00, 0x00, 0x00, 0x14, 0x00, 0x00, 0x00, 0x01, 0x00, 0x00, 0x00, 0x80, 0xff, 0xff, 0xff, 0xff, 0xff, 0xff, 0xff, 0x00, 0x00, 0x00, 0x00, 0x01, 0x00, 0x00, 0x00, 0x20, 0xad, 0x78, 0x3c, 0x5e, 0x00, 0x00, 0x00, 0x73, 0x65, 0x71, 0x75, 0x65, 0x6e, 0x74, 0x69, 0x61, 0x6c, 0x5f, 0x34, 0x5f, 0x31, 0x2f, 0x64, 0x65, 0x6e, 0x73, 0x65, 0x5f, 0x34, 0x5f, 0x31, 0x2f, 0x4d, 0x61, 0x74, 0x4d, 0x75, 0x6c, 0x3b, 0x73, 0x65, 0x71, 0x75, 0x65, 0x6e, 0x74, 0x69, 0x61, 0x6c, 0x5f, 0x34, 0x5f, 0x31, 0x2f, 0x64, 0x65, 0x6e, 0x73, 0x65, 0x5f, 0x34, 0x5f, 0x31, 0x2f, 0x52, 0x65, 0x6c, 0x75, 0x3b, 0x73, 0x65, 0x71, 0x75, 0x65, 0x6e, 0x74, 0x69, 0x61, 0x6c, 0x5f, 0x34, 0x5f, 0x31, 0x2f, 0x64, 0x65, 0x6e, 0x73, 0x65, 0x5f, 0x34, 0x5f, 0x31, 0x2f, 0x42, 0x69, 0x61, 0x73, 0x41, 0x64, 0x64, 0x00, 0x00, 0x02, 0x00, 0x00, 0x00, 0x01, 0x00, 0x00, 0x00, 0x20, 0x00, 0x00, 0x00, 0xf2, 0xf6, 0xff, 0xff, 0x00, 0x00, 0x00, 0x01, 0x18, 0x00, 0x00, 0x00, 0x20, 0x00, 0x00, 0x00, 0x3c, 0x00, 0x00, 0x00, 0x13, 0x00, 0x00, 0x00, 0x00, 0x00, 0x00, 0x09, 0x68, 0x00, 0x00, 0x00, 0x02, 0x00, 0x00, 0x00, 0xff, 0xff, 0xff, 0xff, 0x20, 0x00, 0x00, 0x00, 0xd4, 0xf6, 0xff, 0xff, 0x08, 0x00, 0x00, 0x00, 0x10, 0x00, 0x00, 0x00, 0x01, 0x00, 0x00, 0x00, 0x80, 0xff, 0xff, 0xff, 0xff, 0xff, 0xff, 0xff, 0x01, 0x00, 0x00, 0x00, 0x52, 0xa5, 0x56, 0x3c, 0x30, 0x00, 0x00, 0x00, 0x73, 0x65, 0x71, 0x75, 0x65, 0x6e, 0x74, 0x69, 0x61, 0x6c, 0x5f, 0x34, 0x5f, 0x31, 0x2f, 0x67, 0x6c, 0x6f, 0x62, 0x61, 0x6c, 0x5f, 0x61, 0x76, 0x65, 0x72, 0x61, 0x67, 0x65, 0x5f, 0x70, 0x6f, 0x6f, 0x6c, 0x69, 0x6e, 0x67, 0x32, 0x64, 0x5f, 0x32, 0x5f, 0x31, 0x2f, 0x4d, 0x65, 0x61, 0x6e, 0x00, 0x00, 0x00, 0x00, 0x02, 0x00, 0x00, 0x00, 0x01, 0x00, 0x00, 0x00, 0x20, 0x00, 0x00, 0x00, 0x82, 0xf7, 0xff, 0xff, 0x00, 0x00, 0x00, 0x01, 0x18, 0x00, 0x00, 0x00, 0x28, 0x00, 0x00, 0x00, 0x44, 0x00, 0x00, 0x00, 0x12, 0x00, 0x00, 0x00, 0x00, 0x00, 0x00, 0x09, 0x68, 0x00, 0x00, 0x00, 0x04, 0x00, 0x00, 0x00, 0xff, 0xff, 0xff, 0xff, 0x0c, 0x00, 0x00, 0x00, 0x0c, 0x00, 0x00, 0x00, 0x20, 0x00, 0x00, 0x00, 0x6c, 0xf7, 0xff, 0xff, 0x08, 0x00, 0x00, 0x00, 0x10, 0x00, 0x00, 0x00, 0x01, 0x00, 0x00, 0x00, 0x80, 0xff, 0xff, 0xff, 0xff, 0xff, 0xff, 0xff, 0x01, 0x00, 0x00, 0x00, 0xd5, 0x07, 0x3f, 0x3d, 0x2a, 0x00, 0x00, 0x00, 0x73, 0x65, 0x71, 0x75, 0x65, 0x6e, 0x74, 0x69, 0x61, 0x6c, 0x5f, 0x34, 0x5f, 0x31, 0x2f, 0x6d, 0x61, 0x78, 0x5f, 0x70, 0x6f, 0x6f, 0x6c, 0x69, 0x6e, 0x67, 0x32, 0x64, 0x5f, 0x38, 0x5f, 0x31, 0x2f, 0x4d, 0x61, 0x78, 0x50, 0x6f, 0x6f, 0x6c, 0x32, 0x64, 0x00, 0x00, 0x04, 0x00, 0x00, 0x00, 0x01, 0x00, 0x00, 0x00, 0x0c, 0x00, 0x00, 0x00, 0x0c, 0x00, 0x00, 0x00, 0x20, 0x00, 0x00, 0x00, 0x1a, 0xf8, 0xff, 0xff, 0x00, 0x00, 0x00, 0x01, 0x18, 0x00, 0x00, 0x00, 0x28, 0x00, 0x00, 0x00, 0x48, 0x00, 0x00, 0x00, 0x11, 0x00, 0x00, 0x00, 0x00, 0x00, 0x00, 0x09, 0xa8, 0x00, 0x00, 0x00, 0x04, 0x00, 0x00, 0x00, 0xff, 0xff, 0xff, 0xff, 0x18, 0x00, 0x00, 0x00, 0x18, 0x00, 0x00, 0x00, 0x20, 0x00, 0x00, 0x00, 0x04, 0xf8, 0xff, 0xff, 0x08, 0x00, 0x00, 0x00, 0x14, 0x00, 0x00, 0x00, 0x01, 0x00, 0x00, 0x00, 0x80, 0xff, 0xff, 0xff, 0xff, 0xff, 0xff, 0xff, 0x00, 0x00, 0x00, 0x00, 0x01, 0x00, 0x00, 0x00, 0xd5, 0x07, 0x3f, 0x3d, 0x67, 0x00, 0x00, 0x00, 0x73, 0x65, 0x71, 0x75, 0x65, 0x6e, 0x74, 0x69, 0x61, 0x6c, 0x5f, 0x34, 0x5f, 0x31, 0x2f, 0x63, 0x6f, 0x6e, 0x76, 0x32, 0x64, 0x5f, 0x38, 0x5f, 0x31, 0x2f, 0x52, 0x65, 0x6c, 0x75, 0x3b, 0x73, 0x65, 0x71, 0x75, 0x65, 0x6e, 0x74, 0x69, 0x61, 0x6c, 0x5f, 0x34, 0x5f, 0x31, 0x2f, 0x63, 0x6f, 0x6e, 0x76, 0x32, 0x64, 0x5f, 0x38, 0x5f, 0x31, 0x2f, 0x42, 0x69, 0x61, 0x73, 0x41, 0x64, 0x64, 0x3b, 0x73, 0x65, 0x71, 0x75, 0x65, 0x6e, 0x74, 0x69, 0x61, 0x6c, 0x5f, 0x34, 0x5f, 0x31, 0x2f, 0x63, 0x6f, 0x6e, 0x76, 0x32, 0x64, 0x5f, 0x38, 0x5f, 0x31, 0x2f, 0x63, 0x6f, 0x6e, 0x76, 0x6f, 0x6c, 0x75, 0x74, 0x69, 0x6f, 0x6e, 0x3b, 0x00, 0x04, 0x00, 0x00, 0x00, 0x01, 0x00, 0x00, 0x00, 0x18, 0x00, 0x00, 0x00, 0x18, 0x00, 0x00, 0x00, 0x20, 0x00, 0x00, 0x00, 0xf2, 0xf8, 0xff, 0xff, 0x00, 0x00, 0x00, 0x01, 0x18, 0x00, 0x00, 0x00, 0x28, 0x00, 0x00, 0x00, 0x44, 0x00, 0x00, 0x00, 0x10, 0x00, 0x00, 0x00, 0x00, 0x00, 0x00, 0x09, 0x68, 0x00, 0x00, 0x00, 0x04, 0x00, 0x00, 0x00, 0xff, 0xff, 0xff, 0xff, 0x18, 0x00, 0x00, 0x00, 0x18, 0x00, 0x00, 0x00, 0x10, 0x00, 0x00, 0x00, 0xdc, 0xf8, 0xff, 0xff, 0x08, 0x00, 0x00, 0x00, 0x10, 0x00, 0x00, 0x00, 0x01, 0x00, 0x00, 0x00, 0x80, 0xff, 0xff, 0xff, 0xff, 0xff, 0xff, 0xff, 0x01, 0x00, 0x00, 0x00, 0xf5, 0x26, 0x53, 0x3c, 0x2a, 0x00, 0x00, 0x00, 0x73, 0x65, 0x71, 0x75, 0x65, 0x6e, 0x74, 0x69, 0x61, 0x6c, 0x5f, 0x34, 0x5f, 0x31, 0x2f, 0x6d, 0x61, 0x78, 0x5f, 0x70, 0x6f, 0x6f, 0x6c, 0x69, 0x6e, 0x67, 0x32, 0x64, 0x5f, 0x37, 0x5f, 0x31, 0x2f, 0x4d, 0x61, 0x78, 0x50, 0x6f, 0x6f, 0x6c, 0x32, 0x64, 0x00, 0x00, 0x04, 0x00, 0x00, 0x00, 0x01, 0x00, 0x00, 0x00, 0x18, 0x00, 0x00, 0x00, 0x18, 0x00, 0x00, 0x00, 0x10, 0x00, 0x00, 0x00, 0x8a, 0xf9, 0xff, 0xff, 0x00, 0x00, 0x00, 0x01, 0x18, 0x00, 0x00, 0x00, 0x28, 0x00, 0x00, 0x00, 0x48, 0x00, 0x00, 0x00, 0x0f, 0x00, 0x00, 0x00, 0x00, 0x00, 0x00, 0x09, 0xa8, 0x00, 0x00, 0x00, 0x04, 0x00, 0x00, 0x00, 0xff, 0xff, 0xff, 0xff, 0x30, 0x00, 0x00, 0x00, 0x30, 0x00, 0x00, 0x00, 0x10, 0x00, 0x00, 0x00, 0x74, 0xf9, 0xff, 0xff, 0x08, 0x00, 0x00, 0x00, 0x14, 0x00, 0x00, 0x00, 0x01, 0x00, 0x00, 0x00, 0x80, 0xff, 0xff, 0xff, 0xff, 0xff, 0xff, 0xff, 0x00, 0x00, 0x00, 0x00, 0x01, 0x00, 0x00, 0x00, 0xf5, 0x26, 0x53, 0x3c, 0x67, 0x00, 0x00, 0x00, 0x73, 0x65, 0x71, 0x75, 0x65, 0x6e, 0x74, 0x69, 0x61, 0x6c, 0x5f, 0x34, 0x5f, 0x31, 0x2f, 0x63, 0x6f, 0x6e, 0x76, 0x32, 0x64, 0x5f, 0x37, 0x5f, 0x31, 0x2f, 0x52, 0x65, 0x6c, 0x75, 0x3b, 0x73, 0x65, 0x71, 0x75, 0x65, 0x6e, 0x74, 0x69, 0x61, 0x6c, 0x5f, 0x34, 0x5f, 0x31, 0x2f, 0x63, 0x6f, 0x6e, 0x76, 0x32, 0x64, 0x5f, 0x37, 0x5f, 0x31, 0x2f, 0x42, 0x69, 0x61, 0x73, 0x41, 0x64, 0x64, 0x3b, 0x73, 0x65, 0x71, 0x75, 0x65, 0x6e, 0x74, 0x69, 0x61, 0x6c, 0x5f, 0x34, 0x5f, 0x31, 0x2f, 0x63, 0x6f, 0x6e, 0x76, 0x32, 0x64, 0x5f, 0x37, 0x5f, 0x31, 0x2f, 0x63, 0x6f, 0x6e, 0x76, 0x6f, 0x6c, 0x75, 0x74, 0x69, 0x6f, 0x6e, 0x3b, 0x00, 0x04, 0x00, 0x00, 0x00, 0x01, 0x00, 0x00, 0x00, 0x30, 0x00, 0x00, 0x00, 0x30, 0x00, 0x00, 0x00, 0x10, 0x00, 0x00, 0x00, 0x62, 0xfa, 0xff, 0xff, 0x00, 0x00, 0x00, 0x01, 0x18, 0x00, 0x00, 0x00, 0x28, 0x00, 0x00, 0x00, 0x44, 0x00, 0x00, 0x00, 0x0e, 0x00, 0x00, 0x00, 0x00, 0x00, 0x00, 0x09, 0x68, 0x00, 0x00, 0x00, 0x04, 0x00, 0x00, 0x00, 0xff, 0xff, 0xff, 0xff, 0x30, 0x00, 0x00, 0x00, 0x30, 0x00, 0x00, 0x00, 0x08, 0x00, 0x00, 0x00, 0x4c, 0xfa, 0xff, 0xff, 0x08, 0x00, 0x00, 0x00, 0x10, 0x00, 0x00, 0x00, 0x01, 0x00, 0x00, 0x00, 0x80, 0xff, 0xff, 0xff, 0xff, 0xff, 0xff, 0xff, 0x01, 0x00, 0x00, 0x00, 0xdf, 0x02, 0xd8, 0x3b, 0x2a, 0x00, 0x00, 0x00, 0x73, 0x65, 0x71, 0x75, 0x65, 0x6e, 0x74, 0x69, 0x61, 0x6c, 0x5f, 0x34, 0x5f, 0x31, 0x2f, 0x6d, 0x61, 0x78, 0x5f, 0x70, 0x6f, 0x6f, 0x6c, 0x69, 0x6e, 0x67, 0x32, 0x64, 0x5f, 0x36, 0x5f, 0x31, 0x2f, 0x4d, 0x61, 0x78, 0x50, 0x6f, 0x6f, 0x6c, 0x32, 0x64, 0x00, 0x00, 0x04, 0x00, 0x00, 0x00, 0x01, 0x00, 0x00, 0x00, 0x30, 0x00, 0x00, 0x00, 0x30, 0x00, 0x00, 0x00, 0x08, 0x00, 0x00, 0x00, 0xfa, 0xfa, 0xff, 0xff, 0x00, 0x00, 0x00, 0x01, 0x18, 0x00, 0x00, 0x00, 0x28, 0x00, 0x00, 0x00, 0x44, 0x00, 0x00, 0x00, 0x0d, 0x00, 0x00, 0x00, 0x00, 0x00, 0x00, 0x09, 0xa8, 0x00, 0x00, 0x00, 0x04, 0x00, 0x00, 0x00, 0xff, 0xff, 0xff, 0xff, 0x60, 0x00, 0x00, 0x00, 0x60, 0x00, 0x00, 0x00, 0x08, 0x00, 0x00, 0x00, 0xe4, 0xfa, 0xff, 0xff, 0x08, 0x00, 0x00, 0x00, 0x10, 0x00, 0x00, 0x00, 0x01, 0x00, 0x00, 0x00, 0x80, 0xff, 0xff, 0xff, 0xff, 0xff, 0xff, 0xff, 0x01, 0x00, 0x00, 0x00, 0xdf, 0x02, 0xd8, 0x3b, 0x68, 0x00, 0x00, 0x00, 0x73, 0x65, 0x71, 0x75, 0x65, 0x6e, 0x74, 0x69, 0x61, 0x6c, 0x5f, 0x34, 0x5f, 0x31, 0x2f, 0x63, 0x6f, 0x6e, 0x76, 0x32, 0x64, 0x5f, 0x36, 0x5f, 0x31, 0x2f, 0x52, 0x65, 0x6c, 0x75, 0x3b, 0x73, 0x65, 0x71, 0x75, 0x65, 0x6e, 0x74, 0x69, 0x61, 0x6c, 0x5f, 0x34, 0x5f, 0x31, 0x2f, 0x63, 0x6f, 0x6e, 0x76, 0x32, 0x64, 0x5f, 0x36, 0x5f, 0x31, 0x2f, 0x42, 0x69, 0x61, 0x73, 0x41, 0x64, 0x64, 0x3b, 0x73, 0x65, 0x71, 0x75, 0x65, 0x6e, 0x74, 0x69, 0x61, 0x6c, 0x5f, 0x34, 0x5f, 0x31, 0x2f, 0x63, 0x6f, 0x6e, 0x76, 0x32, 0x64, 0x5f, 0x36, 0x5f, 0x31, 0x2f, 0x63, 0x6f, 0x6e, 0x76, 0x6f, 0x6c, 0x75, 0x74, 0x69, 0x6f, 0x6e, 0x3b, 0x31, 0x00, 0x00, 0x00, 0x00, 0x04, 0x00, 0x00, 0x00, 0x01, 0x00, 0x00, 0x00, 0x60, 0x00, 0x00, 0x00, 0x60, 0x00, 0x00, 0x00, 0x08, 0x00, 0x00, 0x00, 0x2a, 0xfc, 0xff, 0xff, 0x00, 0x00, 0x00, 0x01, 0x14, 0x00, 0x00, 0x00, 0x30, 0x00, 0x00, 0x00, 0x0c, 0x00, 0x00, 0x00, 0x00, 0x00, 0x00, 0x09, 0x3c, 0x00, 0x00, 0x00, 0xa4, 0xfb, 0xff, 0xff, 0x08, 0x00, 0x00, 0x00, 0x10, 0x00, 0x00, 0x00, 0x01, 0x00, 0x00, 0x00, 0x00, 0x00, 0x00, 0x00, 0x00, 0x00, 0x00, 0x00, 0x01, 0x00, 0x00, 0x00, 0xac, 0x7c, 0xd7, 0x3b, 0x12, 0x00, 0x00, 0x00, 0x74, 0x66, 0x6c, 0x2e, 0x70, 0x73, 0x65, 0x75, 0x64, 0x6f, 0x5f, 0x71, 0x63, 0x6f, 0x6e, 0x73, 0x74, 0x39, 0x00, 0x00, 0x04, 0x00, 0x00, 0x00, 0x08, 0x00, 0x00, 0x00, 0x03, 0x00, 0x00, 0x00, 0x03, 0x00, 0x00, 0x00, 0x01, 0x00, 0x00, 0x00, 0x92, 0xfc, 0xff, 0xff, 0x00, 0x00, 0x00, 0x01, 0x14, 0x00, 0x00, 0x00, 0x34, 0x00, 0x00, 0x00, 0x0b, 0x00, 0x00, 0x00, 0x00, 0x00, 0x00, 0x02, 0x40, 0x00, 0x00, 0x00, 0x0c, 0xfc, 0xff, 0xff, 0x08, 0x00, 0x00, 0x00, 0x14, 0x00, 0x00, 0x00, 0x01, 0x00, 0x00, 0x00, 0x00, 0x00, 0x00, 0x00, 0x00, 0x00, 0x00, 0x00, 0x00, 0x00, 0x00, 0x00, 0x01, 0x00, 0x00, 0x00, 0x02, 0x55, 0xd8, 0x37, 0x12, 0x00, 0x00, 0x00, 0x74, 0x66, 0x6c, 0x2e, 0x70, 0x73, 0x65, 0x75, 0x64, 0x6f, 0x5f, 0x71, 0x63, 0x6f, 0x6e, 0x73, 0x74, 0x38, 0x00, 0x00, 0x01, 0x00, 0x00, 0x00, 0x08, 0x00, 0x00, 0x00, 0xf2, 0xfc, 0xff, 0xff, 0x00, 0x00, 0x00, 0x01, 0x14, 0x00, 0x00, 0x00, 0x30, 0x00, 0x00, 0x00, 0x0a, 0x00, 0x00, 0x00, 0x00, 0x00, 0x00, 0x09, 0x3c, 0x00, 0x00, 0x00, 0x6c, 0xfc, 0xff, 0xff, 0x08, 0x00, 0x00, 0x00, 0x10, 0x00, 0x00, 0x00, 0x01, 0x00, 0x00, 0x00, 0x00, 0x00, 0x00, 0x00, 0x00, 0x00, 0x00, 0x00, 0x01, 0x00, 0x00, 0x00, 0x88, 0x51, 0x32, 0x3c, 0x12, 0x00, 0x00, 0x00, 0x74, 0x66, 0x6c, 0x2e, 0x70, 0x73, 0x65, 0x75, 0x64, 0x6f, 0x5f, 0x71, 0x63, 0x6f, 0x6e, 0x73, 0x74, 0x37, 0x00, 0x00, 0x04, 0x00, 0x00, 0x00, 0x10, 0x00, 0x00, 0x00, 0x03, 0x00, 0x00, 0x00, 0x03, 0x00, 0x00, 0x00, 0x08, 0x00, 0x00, 0x00, 0x5a, 0xfd, 0xff, 0xff, 0x00, 0x00, 0x00, 0x01, 0x14, 0x00, 0x00, 0x00, 0x34, 0x00, 0x00, 0x00, 0x09, 0x00, 0x00, 0x00, 0x00, 0x00, 0x00, 0x02, 0x40, 0x00, 0x00, 0x00, 0xd4, 0xfc, 0xff, 0xff, 0x08, 0x00, 0x00, 0x00, 0x14, 0x00, 0x00, 0x00, 0x01, 0x00, 0x00, 0x00, 0x00, 0x00, 0x00, 0x00, 0x00, 0x00, 0x00, 0x00, 0x00, 0x00, 0x00, 0x00, 0x01, 0x00, 0x00, 0x00, 0xcb, 0x76, 0x96, 0x38, 0x12, 0x00, 0x00, 0x00, 0x74, 0x66, 0x6c, 0x2e, 0x70, 0x73, 0x65, 0x75, 0x64, 0x6f, 0x5f, 0x71, 0x63, 0x6f, 0x6e, 0x73, 0x74, 0x36, 0x00, 0x00, 0x01, 0x00, 0x00, 0x00, 0x10, 0x00, 0x00, 0x00, 0xba, 0xfd, 0xff, 0xff, 0x00, 0x00, 0x00, 0x01, 0x14, 0x00, 0x00, 0x00, 0x30, 0x00, 0x00, 0x00, 0x08, 0x00, 0x00, 0x00, 0x00, 0x00, 0x00, 0x09, 0x3c, 0x00, 0x00, 0x00, 0x34, 0xfd, 0xff, 0xff, 0x08, 0x00, 0x00, 0x00, 0x10, 0x00, 0x00, 0x00, 0x01, 0x00, 0x00, 0x00, 0x00, 0x00, 0x00, 0x00, 0x00, 0x00, 0x00, 0x00, 0x01, 0x00, 0x00, 0x00, 0x6f, 0xd6, 0x4e, 0x3c, 0x12, 0x00, 0x00, 0x00, 0x74, 0x66, 0x6c, 0x2e, 0x70, 0x73, 0x65, 0x75, 0x64, 0x6f, 0x5f, 0x71, 0x63, 0x6f, 0x6e, 0x73, 0x74, 0x35, 0x00, 0x00, 0x04, 0x00, 0x00, 0x00, 0x20, 0x00, 0x00, 0x00, 0x03, 0x00, 0x00, 0x00, 0x03, 0x00, 0x00, 0x00, 0x10, 0x00, 0x00, 0x00, 0x22, 0xfe, 0xff, 0xff, 0x00, 0x00, 0x00, 0x01, 0x14, 0x00, 0x00, 0x00, 0x34, 0x00, 0x00, 0x00, 0x07, 0x00, 0x00, 0x00, 0x00, 0x00, 0x00, 0x02, 0x40, 0x00, 0x00, 0x00, 0x9c, 0xfd, 0xff, 0xff, 0x08, 0x00, 0x00, 0x00, 0x14, 0x00, 0x00, 0x00, 0x01, 0x00, 0x00, 0x00, 0x00, 0x00, 0x00, 0x00, 0x00, 0x00, 0x00, 0x00, 0x00, 0x00, 0x00, 0x00, 0x01, 0x00, 0x00, 0x00, 0x37, 0x9a, 0x2a, 0x39, 0x12, 0x00, 0x00, 0x00, 0x74, 0x66, 0x6c, 0x2e, 0x70, 0x73, 0x65, 0x75, 0x64, 0x6f, 0x5f, 0x71, 0x63, 0x6f, 0x6e, 0x73, 0x74, 0x34, 0x00, 0x00, 0x01, 0x00, 0x00, 0x00, 0x20, 0x00, 0x00, 0x00, 0x82, 0xfe, 0xff, 0xff, 0x00, 0x00, 0x00, 0x01, 0x14, 0x00, 0x00, 0x00, 0x30, 0x00, 0x00, 0x00, 0x06, 0x00, 0x00, 0x00, 0x00, 0x00, 0x00, 0x09, 0x3c, 0x00, 0x00, 0x00, 0xfc, 0xfd, 0xff, 0xff, 0x08, 0x00, 0x00, 0x00, 0x10, 0x00, 0x00, 0x00, 0x01, 0x00, 0x00, 0x00, 0x00, 0x00, 0x00, 0x00, 0x00, 0x00, 0x00, 0x00, 0x01, 0x00, 0x00, 0x00, 0x43, 0x62, 0x25, 0x3c, 0x12, 0x00, 0x00, 0x00, 0x74, 0x66, 0x6c, 0x2e, 0x70, 0x73, 0x65, 0x75, 0x64, 0x6f, 0x5f, 0x71, 0x63, 0x6f, 0x6e, 0x73, 0x74, 0x33, 0x00, 0x00, 0x02, 0x00, 0x00, 0x00, 0x20, 0x00, 0x00, 0x00, 0x20, 0x00, 0x00, 0x00, 0xe2, 0xfe, 0xff, 0xff, 0x00, 0x00, 0x00, 0x01, 0x14, 0x00, 0x00, 0x00, 0x34, 0x00, 0x00, 0x00, 0x05, 0x00, 0x00, 0x00, 0x00, 0x00, 0x00, 0x02, 0x40, 0x00, 0x00, 0x00, 0x5c, 0xfe, 0xff, 0xff, 0x08, 0x00, 0x00, 0x00, 0x14, 0x00, 0x00, 0x00, 0x01, 0x00, 0x00, 0x00, 0x00, 0x00, 0x00, 0x00, 0x00, 0x00, 0x00, 0x00, 0x00, 0x00, 0x00, 0x00, 0x01, 0x00, 0x00, 0x00, 0xf1, 0xaa, 0x0a, 0x39, 0x12, 0x00, 0x00, 0x00, 0x74, 0x66, 0x6c, 0x2e, 0x70, 0x73, 0x65, 0x75, 0x64, 0x6f, 0x5f, 0x71, 0x63, 0x6f, 0x6e, 0x73, 0x74, 0x32, 0x00, 0x00, 0x01, 0x00, 0x00, 0x00, 0x20, 0x00, 0x00, 0x00, 0x42, 0xff, 0xff, 0xff, 0x00, 0x00, 0x00, 0x01, 0x14, 0x00, 0x00, 0x00, 0x30, 0x00, 0x00, 0x00, 0x04, 0x00, 0x00, 0x00, 0x00, 0x00, 0x00, 0x09, 0x3c, 0x00, 0x00, 0x00, 0xbc, 0xfe, 0xff, 0xff, 0x08, 0x00, 0x00, 0x00, 0x10, 0x00, 0x00, 0x00, 0x01, 0x00, 0x00, 0x00, 0x00, 0x00, 0x00, 0x00, 0x00, 0x00, 0x00, 0x00, 0x01, 0x00, 0x00, 0x00, 0xdb, 0xf5, 0x1e, 0x3c, 0x12, 0x00, 0x00, 0x00, 0x74, 0x66, 0x6c, 0x2e, 0x70, 0x73, 0x65, 0x75, 0x64, 0x6f, 0x5f, 0x71, 0x63, 0x6f, 0x6e, 0x73, 0x74, 0x31, 0x00, 0x00, 0x02, 0x00, 0x00, 0x00, 0x04, 0x00, 0x00, 0x00, 0x20, 0x00, 0x00, 0x00, 0xa2, 0xff, 0xff, 0xff, 0x00, 0x00, 0x00, 0x01, 0x14, 0x00, 0x00, 0x00, 0x30, 0x00, 0x00, 0x00, 0x03, 0x00, 0x00, 0x00, 0x00, 0x00, 0x00, 0x02, 0x3c, 0x00, 0x00, 0x00, 0x1c, 0xff, 0xff, 0xff, 0x08, 0x00, 0x00, 0x00, 0x10, 0x00, 0x00, 0x00, 0x01, 0x00, 0x00, 0x00, 0x00, 0x00, 0x00, 0x00, 0x00, 0x00, 0x00, 0x00, 0x01, 0x00, 0x00, 0x00, 0xac, 0x69, 0x1a, 0x39, 0x11, 0x00, 0x00, 0x00, 0x74, 0x66, 0x6c, 0x2e, 0x70, 0x73, 0x65, 0x75, 0x64, 0x6f, 0x5f, 0x71, 0x63, 0x6f, 0x6e, 0x73, 0x74, 0x00, 0x00, 0x00, 0x01, 0x00, 0x00, 0x00, 0x04, 0x00, 0x00, 0x00, 0x00, 0x00, 0x16, 0x00, 0x1c, 0x00, 0x18, 0x00, 0x17, 0x00, 0x10, 0x00, 0x0c, 0x00, 0x08, 0x00, 0x00, 0x00, 0x00, 0x00, 0x00, 0x00, 0x07, 0x00, 0x16, 0x00, 0x00, 0x00, 0x00, 0x00, 0x00, 0x01, 0x18, 0x00, 0x00, 0x00, 0x18, 0x00, 0x00, 0x00, 0x02, 0x00, 0x00, 0x00, 0x00, 0x00, 0x00, 0x02, 0x20, 0x00, 0x00, 0x00, 0x04, 0x00, 0x04, 0x00, 0x04, 0x00, 0x00, 0x00, 0x0e, 0x00, 0x00, 0x00, 0x61, 0x72, 0x69, 0x74, 0x68, 0x2e, 0x63, 0x6f, 0x6e, 0x73, 0x74, 0x61, 0x6e, 0x74, 0x00, 0x00, 0x01, 0x00, 0x00, 0x00, 0x02, 0x00, 0x00, 0x00, 0x00, 0x00, 0x16, 0x00, 0x20, 0x00, 0x1c, 0x00, 0x1b, 0x00, 0x14, 0x00, 0x10, 0x00, 0x0c, 0x00, 0x00, 0x00, 0x00, 0x00, 0x08, 0x00, 0x07, 0x00, 0x16, 0x00, 0x00, 0x00, 0x00, 0x00, 0x00, 0x01, 0x18, 0x00, 0x00, 0x00, 0x34, 0x00, 0x00, 0x00, 0x50, 0x00, 0x00, 0x00, 0x01, 0x00, 0x00, 0x00, 0x00, 0x00, 0x00, 0x09, 0x6c, 0x00, 0x00, 0x00, 0x04, 0x00, 0x00, 0x00, 0xff, 0xff, 0xff, 0xff, 0x60, 0x00, 0x00, 0x00, 0x60, 0x00, 0x00, 0x00, 0x01, 0x00, 0x00, 0x00, 0x0c, 0x00, 0x0c, 0x00, 0x00, 0x00, 0x00, 0x00, 0x08, 0x00, 0x04, 0x00, 0x0c, 0x00, 0x00, 0x00, 0x08, 0x00, 0x00, 0x00, 0x10, 0x00, 0x00, 0x00, 0x01, 0x00, 0x00, 0x00, 0x80, 0xff, 0xff, 0xff, 0xff, 0xff, 0xff, 0xff, 0x01, 0x00, 0x00, 0x00, 0x81, 0x80, 0x80, 0x3b, 0x21, 0x00, 0x00, 0x00, 0x73, 0x65, 0x72, 0x76, 0x69, 0x6e, 0x67, 0x5f, 0x64, 0x65, 0x66, 0x61, 0x75, 0x6c, 0x74, 0x5f, 0x6b, 0x65, 0x72, 0x61, 0x73, 0x5f, 0x74, 0x65, 0x6e, 0x73, 0x6f, 0x72, 0x5f, 0x32, 0x31, 0x3a, 0x30, 0x00, 0x00, 0x00, 0x04, 0x00, 0x00, 0x00, 0x01, 0x00, 0x00, 0x00, 0x60, 0x00, 0x00, 0x00, 0x60, 0x00, 0x00, 0x00, 0x01, 0x00, 0x00, 0x00, 0x05, 0x00, 0x00, 0x00, 0x60, 0x00, 0x00, 0x00, 0x40, 0x00, 0x00, 0x00, 0x2c, 0x00, 0x00, 0x00, 0x18, 0x00, 0x00, 0x00, 0x04, 0x00, 0x00, 0x00, 0xc0, 0xff, 0xff, 0xff, 0x19, 0x00, 0x00, 0x00, 0x02, 0x00, 0x00, 0x00, 0x00, 0x00, 0x00, 0x19, 0xd0, 0xff, 0xff, 0xff, 0x09, 0x00, 0x00, 0x00, 0x04, 0x00, 0x00, 0x00, 0x00, 0x00, 0x00, 0x09, 0xe0, 0xff, 0xff, 0xff, 0x28, 0x00, 0x00, 0x00, 0x02, 0x00, 0x00, 0x00, 0x00, 0x00, 0x00, 0x28, 0xf0, 0xff, 0xff, 0xff, 0x11, 0x00, 0x00, 0x00, 0x02, 0x00, 0x00, 0x00, 0x00, 0x00, 0x00, 0x11, 0x0c, 0x00, 0x10, 0x00, 0x0f, 0x00, 0x00, 0x00, 0x08, 0x00, 0x04, 0x00, 0x0c, 0x00, 0x00, 0x00, 0x03, 0x00, 0x00, 0x00, 0x03, 0x00, 0x00, 0x00, 0x00, 0x00, 0x00, 0x03
};

const unsigned int B624_TinyESP32CNN_model_len = 12120;
