const unsigned char B631_DW_All_model[] = {
0x20, 0x00, 0x00, 0x00, 0x54, 0x46, 0x4c, 0x33, 0x00, 0x00, 0x00, 0x00, 0x14, 0x00, 0x20, 0x00, 0x1c, 0x00, 0x18, 0x00, 0x14, 0x00, 0x10, 0x00, 0x0c, 0x00, 0x00, 0x00, 0x08, 0x00, 0x04, 0x00, 0x14, 0x00, 0x00, 0x00, 0x1c, 0x00, 0x00, 0x00, 0x98, 0x00, 0x00, 0x00, 0x18, 0x01, 0x00, 0x00, 0xb8, 0x15, 0x00, 0x00, 0xc8, 0x15, 0x00, 0x00, 0x94, 0x30, 0x00, 0x00, 0x03, 0x00, 0x00, 0x00, 0x01, 0x00, 0x00, 0x00, 0x10, 0x00, 0x00, 0x00, 0x00, 0x00, 0x0a, 0x00, 0x10, 0x00, 0x0c, 0x00, 0x08, 0x00, 0x04, 0x00, 0x0a, 0x00, 0x00, 0x00, 0x0c, 0x00, 0x00, 0x00, 0x1c, 0x00, 0x00, 0x00, 0x3c, 0x00, 0x00, 0x00, 0x0f, 0x00, 0x00, 0x00, 0x73, 0x65, 0x72, 0x76, 0x69, 0x6e, 0x67, 0x5f, 0x64, 0x65, 0x66, 0x61, 0x75, 0x6c, 0x74, 0x00, 0x01, 0x00, 0x00, 0x00, 0x04, 0x00, 0x00, 0x00, 0x68, 0xff, 0xff, 0xff, 0x21, 0x00, 0x00, 0x00, 0x04, 0x00, 0x00, 0x00, 0x08, 0x00, 0x00, 0x00, 0x6f, 0x75, 0x74, 0x70, 0x75, 0x74, 0x5f, 0x30, 0x00, 0x00, 0x00, 0x00, 0x01, 0x00, 0x00, 0x00, 0x04, 0x00, 0x00, 0x00, 0x1e, 0xea, 0xff, 0xff, 0x04, 0x00, 0x00, 0x00, 0x0f, 0x00, 0x00, 0x00, 0x6b, 0x65, 0x72, 0x61, 0x73, 0x5f, 0x74, 0x65, 0x6e, 0x73, 0x6f, 0x72, 0x5f, 0x36, 0x31, 0x00, 0x03, 0x00, 0x00, 0x00, 0x5c, 0x00, 0x00, 0x00, 0x2c, 0x00, 0x00, 0x00, 0x04, 0x00, 0x00, 0x00, 0xb8, 0xff, 0xff, 0xff, 0x25, 0x00, 0x00, 0x00, 0x04, 0x00, 0x00, 0x00, 0x13, 0x00, 0x00, 0x00, 0x43, 0x4f, 0x4e, 0x56, 0x45, 0x52, 0x53, 0x49, 0x4f, 0x4e, 0x5f, 0x4d, 0x45, 0x54, 0x41, 0x44, 0x41, 0x54, 0x41, 0x00, 0xdc, 0xff, 0xff, 0xff, 0x24, 0x00, 0x00, 0x00, 0x04, 0x00, 0x00, 0x00, 0x13, 0x00, 0x00, 0x00, 0x6d, 0x69, 0x6e, 0x5f, 0x72, 0x75, 0x6e, 0x74, 0x69, 0x6d, 0x65, 0x5f, 0x76, 0x65, 0x72, 0x73, 0x69, 0x6f, 0x6e, 0x00, 0x08, 0x00, 0x0c, 0x00, 0x08, 0x00, 0x04, 0x00, 0x08, 0x00, 0x00, 0x00, 0x23, 0x00, 0x00, 0x00, 0x04, 0x00, 0x00, 0x00, 0x13, 0x00, 0x00, 0x00, 0x6d, 0x69, 0x6e, 0x5f, 0x72, 0x75, 0x6e, 0x74, 0x69, 0x6d, 0x65, 0x5f, 0x76, 0x65, 0x72, 0x73, 0x69, 0x6f, 0x6e, 0x00, 0x26, 0x00, 0x00, 0x00, 0x9c, 0x14, 0x00, 0x00, 0x94, 0x14, 0x00, 0x00, 0x7c, 0x14, 0x00, 0x00, 0x5c, 0x14, 0x00, 0x00, 0x8c, 0x13, 0x00, 0x00, 0xbc, 0x12, 0x00, 0x00, 0xac, 0x0c, 0x00, 0x00, 0x1c, 0x0c, 0x00, 0x00, 0xec, 0x0a, 0x00, 0x00, 0x5c, 0x0a, 0x00, 0x00, 0x4c, 0x07, 0x00, 0x00, 0xdc, 0x06, 0x00, 0x00, 0xf4, 0x05, 0x00, 0x00, 0x84, 0x05, 0x00, 0x00, 0xf4, 0x03, 0x00, 0x00, 0xa4, 0x03, 0x00, 0x00, 0x04, 0x03, 0x00, 0x00, 0xb4, 0x02, 0x00, 0x00, 0x24, 0x02, 0x00, 0x00, 0xf4, 0x01, 0x00, 0x00, 0x9c, 0x01, 0x00, 0x00, 0x6c, 0x01, 0x00, 0x00, 0x14, 0x01, 0x00, 0x00, 0x0c, 0x01, 0x00, 0x00, 0x04, 0x01, 0x00, 0x00, 0xfc, 0x00, 0x00, 0x00, 0xf4, 0x00, 0x00, 0x00, 0xec, 0x00, 0x00, 0x00, 0xe4, 0x00, 0x00, 0x00, 0xdc, 0x00, 0x00, 0x00, 0xd4, 0x00, 0x00, 0x00, 0xcc, 0x00, 0x00, 0x00, 0xc4, 0x00, 0x00, 0x00, 0xbc, 0x00, 0x00, 0x00, 0xb4, 0x00, 0x00, 0x00, 0x94, 0x00, 0x00, 0x00, 0x74, 0x00, 0x00, 0x00, 0x04, 0x00, 0x00, 0x00, 0x5a, 0xeb, 0xff, 0xff, 0x04, 0x00, 0x00, 0x00, 0x60, 0x00, 0x00, 0x00, 0x0c, 0x00, 0x00, 0x00, 0x08, 0x00, 0x0e, 0x00, 0x08, 0x00, 0x04, 0x00, 0x08, 0x00, 0x00, 0x00, 0x10, 0x00, 0x00, 0x00, 0x28, 0x00, 0x00, 0x00, 0x00, 0x00, 0x06, 0x00, 0x08, 0x00, 0x04, 0x00, 0x06, 0x00, 0x00, 0x00, 0x04, 0x00, 0x00, 0x00, 0x01, 0x00, 0x00, 0x00, 0xeb, 0x03, 0x00, 0x00, 0x0c, 0x00, 0x18, 0x00, 0x14, 0x00, 0x10, 0x00, 0x0c, 0x00, 0x04, 0x00, 0x0c, 0x00, 0x00, 0x00, 0xc6, 0x97, 0xea, 0x6a, 0x34, 0x01, 0xab, 0xe9, 0x02, 0x00, 0x00, 0x00, 0x02, 0x00, 0x00, 0x00, 0x04, 0x00, 0x00, 0x00, 0x06, 0x00, 0x00, 0x00, 0x32, 0x2e, 0x31, 0x39, 0x2e, 0x30, 0x00, 0x00, 0xc6, 0xeb, 0xff, 0xff, 0x04, 0x00, 0x00, 0x00, 0x10, 0x00, 0x00, 0x00, 0x00, 0x00, 0x00, 0x00, 0x00, 0x00, 0x00, 0x00, 0x00, 0x00, 0x00, 0x00, 0x00, 0x00, 0x00, 0x00, 0xe2, 0xeb, 0xff, 0xff, 0x04, 0x00, 0x00, 0x00, 0x10, 0x00, 0x00, 0x00, 0x31, 0x2e, 0x31, 0x34, 0x2e, 0x30, 0x00, 0x00, 0x00, 0x00, 0x00, 0x00, 0x00, 0x00, 0x00, 0x00, 0x90, 0xd2, 0xff, 0xff, 0x94, 0xd2, 0xff, 0xff, 0x98, 0xd2, 0xff, 0xff, 0x9c, 0xd2, 0xff, 0xff, 0xa0, 0xd2, 0xff, 0xff, 0xa4, 0xd2, 0xff, 0xff, 0xa8, 0xd2, 0xff, 0xff, 0xac, 0xd2, 0xff, 0xff, 0xb0, 0xd2, 0xff, 0xff, 0xb4, 0xd2, 0xff, 0xff, 0xb8, 0xd2, 0xff, 0xff, 0xbc, 0xd2, 0xff, 0xff, 0x2e, 0xec, 0xff, 0xff, 0x04, 0x00, 0x00, 0x00, 0x48, 0x00, 0x00, 0x00, 0xfc, 0x15, 0xf9, 0xf4, 0xed, 0x01, 0x08, 0xde, 0xce, 0xd6, 0x27, 0x12, 0xd0, 0xe0, 0xb2, 0x0b, 0x05, 0x1c, 0x39, 0x35, 0x89, 0x17, 0x4d, 0xc5, 0xf7, 0x29, 0xfd, 0xc2, 0x38, 0x17, 0x66, 0xb4, 0xc0, 0xfd, 0x36, 0x3f, 0x1a, 0xea, 0xfb, 0x17, 0xc0, 0x20, 0xe8, 0x22, 0x9c, 0x11, 0x03, 0xdb, 0xf4, 0xef, 0xf7, 0x10, 0xeb, 0xdf, 0xdf, 0x0c, 0x09, 0x7f, 0x01, 0xf5, 0xea, 0x1c, 0xf8, 0x15, 0x30, 0xfd, 0x09, 0x1c, 0x13, 0x03, 0xe6, 0x05, 0x82, 0xec, 0xff, 0xff, 0x04, 0x00, 0x00, 0x00, 0x20, 0x00, 0x00, 0x00, 0xdd, 0x2a, 0x00, 0x00, 0x6c, 0x30, 0x00, 0x00, 0x16, 0xe4, 0xff, 0xff, 0xcf, 0xd5, 0xff, 0xff, 0x0a, 0x30, 0x00, 0x00, 0x6e, 0x2e, 0x00, 0x00, 0x56, 0xcd, 0xff, 0xff, 0x6e, 0xcd, 0xff, 0xff, 0xae, 0xec, 0xff, 0xff, 0x04, 0x00, 0x00, 0x00, 0x48, 0x00, 0x00, 0x00, 0x07, 0x64, 0xec, 0x0a, 0x67, 0xed, 0x17, 0x53, 0x7f, 0xea, 0xe1, 0x26, 0x8a, 0x08, 0xdf, 0xa4, 0x40, 0x44, 0x04, 0xed, 0x40, 0x07, 0xe1, 0x4d, 0xe4, 0xc2, 0x07, 0xed, 0x1d, 0xc8, 0xef, 0x99, 0x57, 0xbf, 0xca, 0xe5, 0x06, 0x0f, 0xf0, 0xe9, 0x8e, 0x39, 0x18, 0xc8, 0x19, 0x50, 0x1a, 0x14, 0xdc, 0x4e, 0x0a, 0xe8, 0xc1, 0x32, 0xe0, 0x16, 0x29, 0xc0, 0x15, 0x05, 0xf3, 0xec, 0x23, 0x29, 0x98, 0xe9, 0xda, 0xfa, 0xd0, 0x1e, 0xce, 0x8c, 0x02, 0xed, 0xff, 0xff, 0x04, 0x00, 0x00, 0x00, 0x20, 0x00, 0x00, 0x00, 0x56, 0xfc, 0xff, 0xff, 0x05, 0xfb, 0xff, 0xff, 0x51, 0x05, 0x00, 0x00, 0xa3, 0x06, 0x00, 0x00, 0x11, 0x02, 0x00, 0x00, 0x8b, 0xf9, 0xff, 0xff, 0x9f, 0x07, 0x00, 0x00, 0x2d, 0x05, 0x00, 0x00, 0x2e, 0xed, 0xff, 0xff, 0x04, 0x00, 0x00, 0x00, 0x80, 0x00, 0x00, 0x00, 0xe1, 0xfa, 0x2e, 0xb6, 0xc5, 0xe1, 0x3c, 0xef, 0xfd, 0x09, 0x3f, 0x37, 0x1b, 0xde, 0x52, 0x0d, 0xb9, 0xd8, 0xbd, 0x25, 0xda, 0x14, 0x05, 0x24, 0x34, 0x27, 0xf1, 0xcc, 0x2f, 0x06, 0x10, 0xfd, 0x13, 0x4b, 0x05, 0x24, 0x09, 0xd6, 0xff, 0x1d, 0xd7, 0x08, 0xc2, 0xc9, 0xdb, 0x3b, 0x0a, 0x2e, 0x4b, 0xce, 0x2d, 0x81, 0xc2, 0x0f, 0x57, 0xba, 0xfe, 0xd7, 0xd8, 0x07, 0x34, 0x00, 0xd6, 0xeb, 0x36, 0xf6, 0xe5, 0xf6, 0xd7, 0x30, 0x36, 0x1d, 0x39, 0x9a, 0x02, 0xd8, 0x0d, 0x37, 0xb5, 0x34, 0x34, 0x03, 0x08, 0xf0, 0xb1, 0x26, 0x21, 0xcc, 0x2f, 0x0b, 0x14, 0x34, 0xd2, 0x1b, 0xda, 0x33, 0x41, 0x41, 0xdc, 0x1e, 0xc2, 0xff, 0x3e, 0x0c, 0x08, 0x07, 0xe1, 0xd2, 0x39, 0xbd, 0x10, 0x0c, 0x16, 0x42, 0xce, 0xda, 0x03, 0xe5, 0xe2, 0xcb, 0xd9, 0xc0, 0xd1, 0xc9, 0xef, 0x37, 0xf9, 0xd4, 0xba, 0xed, 0xff, 0xff, 0x04, 0x00, 0x00, 0x00, 0x40, 0x00, 0x00, 0x00, 0x1a, 0x04, 0x00, 0x00, 0xd9, 0xf4, 0xff, 0xff, 0x3f, 0x05, 0x00, 0x00, 0xf6, 0xfa, 0xff, 0xff, 0x91, 0xf5, 0xff, 0xff, 0x97, 0x01, 0x00, 0x00, 0xd9, 0x05, 0x00, 0x00, 0x9f, 0x03, 0x00, 0x00, 0x23, 0xfb, 0xff, 0xff, 0x14, 0x06, 0x00, 0x00, 0xa4, 0xff, 0xff, 0xff, 0x1d, 0xfb, 0xff, 0xff, 0xb9, 0xf5, 0xff, 0xff, 0x09, 0x04, 0x00, 0x00, 0x4a, 0x05, 0x00, 0x00, 0x0f, 0x0e, 0x00, 0x00, 0x06, 0xee, 0xff, 0xff, 0x04, 0x00, 0x00, 0x00, 0x90, 0x00, 0x00, 0x00, 0x8a, 0xde, 0xf6, 0x36, 0x32, 0x06, 0x1f, 0xac, 0xb0, 0x0c, 0xe5, 0x06, 0x37, 0xa8, 0xc1, 0xb3, 0x3b, 0x0b, 0x17, 0x0e, 0x03, 0x24, 0x0b, 0xe8, 0x40, 0x00, 0xf7, 0x04, 0xeb, 0x0b, 0x5c, 0xc9, 0x07, 0x03, 0xb1, 0xe8, 0x09, 0x2f, 0x19, 0xdb, 0x21, 0x1e, 0xd8, 0x0e, 0xde, 0xf4, 0xef, 0x0e, 0x5c, 0x12, 0x10, 0x12, 0x09, 0xf6, 0xae, 0xee, 0xcc, 0xe1, 0xc0, 0x14, 0xfe, 0x2a, 0x41, 0x23, 0x81, 0x12, 0x01, 0x0b, 0xd8, 0x1e, 0x27, 0x00, 0xfa, 0x4c, 0x1e, 0x19, 0x34, 0x34, 0xbb, 0x16, 0xe2, 0x0d, 0x2a, 0xe1, 0x5f, 0x27, 0x20, 0x5b, 0x26, 0xe8, 0x0e, 0xf3, 0xc9, 0x18, 0x30, 0xbb, 0x6a, 0x19, 0x32, 0x11, 0xca, 0xe0, 0xc9, 0x49, 0x00, 0x35, 0xd6, 0x1c, 0xe7, 0x30, 0xf5, 0xf4, 0x14, 0x1c, 0x22, 0x17, 0x0d, 0x08, 0xf4, 0x44, 0xd2, 0xe9, 0x43, 0xf8, 0x06, 0xf2, 0xda, 0x05, 0x22, 0x26, 0x77, 0x1b, 0xee, 0xfc, 0x31, 0x4c, 0x2f, 0xc0, 0x21, 0x25, 0x21, 0xff, 0x19, 0x0e, 0xa2, 0xee, 0xff, 0xff, 0x04, 0x00, 0x00, 0x00, 0x40, 0x00, 0x00, 0x00, 0x12, 0xfd, 0xff, 0xff, 0xbf, 0xf5, 0xff, 0xff, 0x54, 0xf7, 0xff, 0xff, 0x6c, 0xfb, 0xff, 0xff, 0x2f, 0xfd, 0xff, 0xff, 0x3e, 0xfb, 0xff, 0xff, 0xb9, 0xfd, 0xff, 0xff, 0x87, 0xfa, 0xff, 0xff, 0xdc, 0xff, 0xff, 0xff, 0xad, 0xfd, 0xff, 0xff, 0x28, 0x00, 0x00, 0x00, 0x5d, 0xfa, 0xff, 0xff, 0x23, 0xff, 0xff, 0xff, 0x6d, 0xfa, 0xff, 0xff, 0x49, 0xfc, 0xff, 0xff, 0xb1, 0x09, 0x00, 0x00, 0xee, 0xee, 0xff, 0xff, 0x04, 0x00, 0x00, 0x00, 0x80, 0x01, 0x00, 0x00, 0x19, 0x04, 0x24, 0x13, 0xab, 0x18, 0xd0, 0xd5, 0xaf, 0x25, 0xbd, 0x31, 0xc9, 0xe8, 0x1b, 0x24, 0x1a, 0x17, 0xf5, 0xfe, 0x21, 0x31, 0xc7, 0xb4, 0x27, 0xe3, 0x39, 0xd9, 0xda, 0x0d, 0x33, 0xe8, 0x3c, 0xb3, 0x3f, 0x10, 0xc5, 0x20, 0x28, 0xd7, 0x26, 0xc0, 0xdc, 0xde, 0x14, 0xe7, 0x3c, 0xe4, 0xed, 0x00, 0x11, 0xf6, 0x09, 0x0d, 0x03, 0xf9, 0x35, 0xf6, 0x3d, 0x17, 0x2c, 0x1d, 0xf8, 0xfa, 0xd7, 0x06, 0xfd, 0x1b, 0xf3, 0x34, 0x27, 0x04, 0x06, 0x36, 0x01, 0x13, 0xee, 0xe1, 0xf4, 0x0b, 0xba, 0xf1, 0x20, 0xe1, 0x0c, 0x19, 0x26, 0xd9, 0x0f, 0xd8, 0x05, 0x47, 0x1c, 0xf3, 0xde, 0xf9, 0x53, 0xcc, 0x2f, 0xa3, 0xef, 0x40, 0x07, 0x39, 0x06, 0xcd, 0x40, 0xb2, 0xf0, 0x1f, 0xf6, 0x1a, 0xd1, 0xce, 0x37, 0x72, 0x2a, 0x0b, 0x1b, 0xe8, 0x17, 0xd3, 0x17, 0x35, 0xe9, 0xbc, 0xed, 0xae, 0x34, 0xff, 0x3b, 0x06, 0x4a, 0x0c, 0x3a, 0xc0, 0x08, 0x26, 0xef, 0x34, 0x31, 0xdf, 0x41, 0xa8, 0x17, 0x07, 0xa6, 0x0e, 0xc3, 0xcf, 0xe6, 0xc8, 0x3b, 0x1c, 0x8b, 0x6e, 0x09, 0xe8, 0xb4, 0x09, 0x0a, 0xf3, 0xd8, 0xff, 0xf2, 0x0d, 0x19, 0xe8, 0x28, 0x1f, 0x02, 0x03, 0x33, 0xde, 0xed, 0xea, 0x17, 0x16, 0xdd, 0x19, 0xe2, 0xf5, 0x17, 0xf8, 0x4c, 0x39, 0xf6, 0x0a, 0x12, 0x1e, 0xf9, 0x00, 0x35, 0x5d, 0xb4, 0xec, 0x51, 0xcc, 0xea, 0x40, 0x36, 0x2c, 0xbc, 0xf4, 0xe5, 0xb9, 0x29, 0x49, 0xf0, 0xde, 0xe5, 0xc1, 0xff, 0xd7, 0x19, 0xd4, 0xf6, 0xc8, 0xff, 0x29, 0x02, 0xed, 0xce, 0x37, 0x13, 0x1b, 0xf0, 0x27, 0xbf, 0x34, 0x14, 0xc7, 0x58, 0x01, 0x2d, 0x48, 0xf2, 0x57, 0xf3, 0x88, 0x3e, 0xde, 0x28, 0xd5, 0x42, 0x30, 0xd4, 0xfc, 0x2b, 0x00, 0x31, 0xff, 0x13, 0xd3, 0x41, 0xfd, 0xf6, 0x39, 0x1c, 0xf7, 0xec, 0x5d, 0xd2, 0xec, 0x1c, 0x5a, 0x19, 0xf5, 0xfe, 0x16, 0x19, 0xb6, 0x03, 0xcc, 0x0c, 0xca, 0x2e, 0xf2, 0xe3, 0x37, 0xe1, 0x22, 0x30, 0xf0, 0x14, 0x9a, 0xf5, 0xa6, 0x25, 0xe0, 0x0f, 0x21, 0x06, 0xcf, 0x20, 0xfa, 0xda, 0x30, 0x31, 0xef, 0x01, 0x10, 0xe9, 0xe3, 0xea, 0x06, 0x1e, 0x17, 0xe3, 0xe1, 0x34, 0xe6, 0x1b, 0x1f, 0x3b, 0xd5, 0xe5, 0xbc, 0x29, 0xf2, 0x01, 0x13, 0xbe, 0x48, 0xb3, 0x1a, 0x0c, 0xdf, 0xf7, 0x08, 0xfe, 0x45, 0x2f, 0x31, 0x05, 0x24, 0xfd, 0x81, 0xfb, 0x1c, 0x17, 0x1e, 0x44, 0x5b, 0xb7, 0x52, 0xb9, 0x02, 0x00, 0x2b, 0x9e, 0x57, 0x05, 0xfb, 0xe4, 0x00, 0xd9, 0x01, 0x33, 0x14, 0xda, 0xf6, 0x15, 0xaf, 0x3b, 0xd8, 0xf0, 0xdb, 0xd1, 0xd0, 0x0c, 0x3d, 0x20, 0xdf, 0xe6, 0x3b, 0xed, 0xe5, 0x29, 0x04, 0x2b, 0xd3, 0xce, 0x29, 0x7a, 0xf0, 0xff, 0xff, 0x04, 0x00, 0x00, 0x00, 0x60, 0x00, 0x00, 0x00, 0x73, 0x01, 0x00, 0x00, 0x1c, 0x03, 0x00, 0x00, 0xf6, 0x09, 0x00, 0x00, 0x4b, 0xfc, 0xff, 0xff, 0x0f, 0xfc, 0xff, 0xff, 0xf3, 0xfb, 0xff, 0xff, 0x03, 0x01, 0x00, 0x00, 0xc1, 0x02, 0x00, 0x00, 0x31, 0xf4, 0xff, 0xff, 0x3f, 0x05, 0x00, 0x00, 0x8d, 0xff, 0xff, 0xff, 0x33, 0xfa, 0xff, 0xff, 0x37, 0xf5, 0xff, 0xff, 0x2d, 0x0d, 0x00, 0x00, 0x52, 0xf9, 0xff, 0xff, 0x0c, 0xff, 0xff, 0xff, 0x5d, 0xf7, 0xff, 0xff, 0x9b, 0x10, 0x00, 0x00, 0x54, 0x02, 0x00, 0x00, 0xc8, 0x01, 0x00, 0x00, 0x3d, 0xf6, 0xff, 0xff, 0x8c, 0xfa, 0xff, 0xff, 0xd1, 0x07, 0x00, 0x00, 0xc7, 0x01, 0x00, 0x00, 0xe6, 0xf0, 0xff, 0xff, 0x04, 0x00, 0x00, 0x00, 0xd8, 0x00, 0x00, 0x00, 0x42, 0xb4, 0x33, 0xcf, 0x40, 0x14, 0xf4, 0xcf, 0x0a, 0xfd, 0x81, 0xb2, 0x1e, 0x0b, 0xff, 0xec, 0xf9, 0xde, 0x40, 0xf0, 0xf8, 0x23, 0xe2, 0xe4, 0x03, 0xdc, 0x02, 0xdf, 0xf6, 0xce, 0xd3, 0x08, 0x3f, 0x29, 0x99, 0x44, 0x04, 0xe8, 0x03, 0xf4, 0xec, 0x5f, 0x3a, 0xd8, 0x10, 0xd5, 0x1e, 0xc9, 0x6c, 0xb6, 0xd7, 0xdf, 0x25, 0x21, 0xf4, 0x1b, 0xc6, 0xd7, 0xf8, 0xed, 0x23, 0xc0, 0x10, 0xcb, 0x0b, 0xe3, 0x06, 0xd7, 0xe8, 0x24, 0x6f, 0xe8, 0xf0, 0x28, 0x00, 0xff, 0x3a, 0x13, 0xee, 0xec, 0xd6, 0x16, 0x2a, 0xd5, 0xff, 0xf7, 0x22, 0x0f, 0x30, 0xca, 0x0b, 0xd6, 0xcf, 0x0a, 0x32, 0xf2, 0xb6, 0x13, 0x30, 0x01, 0xd7, 0x93, 0xde, 0x2e, 0xf5, 0x08, 0x34, 0xd0, 0x12, 0xea, 0x0e, 0xf3, 0x21, 0xe0, 0x1d, 0x2e, 0xd8, 0xf6, 0xef, 0xea, 0x24, 0x4e, 0xd6, 0xa6, 0xd5, 0x13, 0xb9, 0xfa, 0x36, 0xe2, 0xfb, 0x23, 0xee, 0xf4, 0xe0, 0xeb, 0x34, 0xec, 0x2b, 0x07, 0x0c, 0x15, 0x42, 0xe2, 0x20, 0x03, 0x23, 0x26, 0x01, 0x43, 0xeb, 0xeb, 0x12, 0x3b, 0xff, 0xf0, 0x16, 0xda, 0xda, 0xec, 0x0d, 0xe4, 0x25, 0xf2, 0x15, 0x14, 0xe6, 0x19, 0x00, 0x0b, 0x04, 0x38, 0xc3, 0xee, 0x1a, 0xe2, 0xc3, 0x1b, 0x52, 0x0b, 0x0a, 0xba, 0x2c, 0x05, 0xc0, 0xd7, 0xe9, 0x40, 0x07, 0x22, 0x33, 0xe6, 0xd4, 0x07, 0x2f, 0x61, 0xd1, 0xd3, 0xdc, 0xd4, 0x11, 0x0b, 0xd9, 0x28, 0x10, 0xe3, 0xc7, 0xeb, 0x09, 0xe5, 0x11, 0xd6, 0xea, 0x17, 0x1d, 0x28, 0xca, 0xf1, 0xff, 0xff, 0x04, 0x00, 0x00, 0x00, 0x60, 0x00, 0x00, 0x00, 0xf8, 0xf9, 0xff, 0xff, 0x68, 0xfd, 0xff, 0xff, 0xf3, 0xfa, 0xff, 0xff, 0x86, 0xff, 0xff, 0xff, 0x92, 0x04, 0x00, 0x00, 0xcc, 0x02, 0x00, 0x00, 0x49, 0x0f, 0x00, 0x00, 0xef, 0x05, 0x00, 0x00, 0x8d, 0xff, 0xff, 0xff, 0x8a, 0xfa, 0xff, 0xff, 0x07, 0xff, 0xff, 0xff, 0xf6, 0xff, 0xff, 0xff, 0x68, 0xf7, 0xff, 0xff, 0x03, 0x10, 0x00, 0x00, 0x31, 0xff, 0xff, 0xff, 0x86, 0x07, 0x00, 0x00, 0x95, 0xfd, 0xff, 0xff, 0xe4, 0x0b, 0x00, 0x00, 0x70, 0xf5, 0xff, 0xff, 0xc0, 0xff, 0xff, 0xff, 0x81, 0x03, 0x00, 0x00, 0xaa, 0xf9, 0xff, 0xff, 0x60, 0xf9, 0xff, 0xff, 0x4d, 0x0c, 0x00, 0x00, 0x36, 0xf2, 0xff, 0xff, 0x04, 0x00, 0x00, 0x00, 0x00, 0x03, 0x00, 0x00, 0xed, 0x2f, 0x01, 0xd9, 0x09, 0xde, 0xc1, 0xe5, 0x16, 0xd6, 0x10, 0x0c, 0x21, 0xf2, 0xf4, 0xf1, 0x23, 0xd0, 0xb7, 0x56, 0xd4, 0xf1, 0xe3, 0x1a, 0x21, 0x37, 0x1d, 0xd0, 0xd6, 0xd6, 0x25, 0x19, 0xc0, 0x0f, 0xe0, 0xbf, 0x12, 0xb1, 0xb8, 0xe2, 0xe8, 0x0c, 0x43, 0x1c, 0x1d, 0xc6, 0x30, 0x13, 0x02, 0x0d, 0xf4, 0xf2, 0xff, 0x03, 0x04, 0xef, 0xec, 0xf1, 0xf6, 0xf6, 0xfa, 0xec, 0xde, 0x1c, 0x0f, 0xf0, 0xe1, 0xf9, 0x13, 0xf5, 0x01, 0x10, 0xf6, 0x17, 0xe8, 0xfd, 0xea, 0xfe, 0xe2, 0xf4, 0x1a, 0xce, 0x17, 0x19, 0x14, 0x06, 0xfb, 0xf9, 0x07, 0xde, 0x0d, 0xfd, 0x23, 0xee, 0x17, 0x07, 0x15, 0x23, 0xfc, 0x07, 0x08, 0x21, 0xeb, 0x2f, 0xf7, 0xe7, 0x14, 0x1d, 0x02, 0xfd, 0x1a, 0xec, 0x25, 0x09, 0xe8, 0x07, 0x25, 0x05, 0xc9, 0xe0, 0xea, 0x16, 0x0b, 0x59, 0xe4, 0xd9, 0xcc, 0xcc, 0x13, 0x26, 0x25, 0x14, 0xdb, 0xd9, 0x15, 0x36, 0x25, 0xc5, 0xc5, 0x26, 0x37, 0x48, 0x08, 0x06, 0x03, 0xfa, 0xc7, 0xfd, 0x10, 0xf9, 0xf0, 0xe9, 0x49, 0xed, 0xeb, 0xff, 0x19, 0x21, 0x38, 0xdb, 0x1d, 0x5d, 0xc9, 0x26, 0x0d, 0xc9, 0xe9, 0xbc, 0xf8, 0xdf, 0x12, 0xcc, 0x00, 0x14, 0x2a, 0x18, 0x02, 0xd1, 0xc9, 0x08, 0x37, 0xbe, 0xc2, 0x01, 0xe8, 0xfe, 0x37, 0x09, 0x29, 0xf3, 0x06, 0x15, 0xd0, 0xe4, 0xec, 0x20, 0xb8, 0x24, 0xfa, 0xb6, 0x13, 0x0a, 0xdb, 0x2d, 0x18, 0xf9, 0xdb, 0xfb, 0x00, 0x0e, 0x03, 0x05, 0xe4, 0x17, 0xe1, 0xf2, 0xfa, 0xf9, 0x03, 0xf1, 0x44, 0x14, 0x1f, 0x00, 0xc8, 0xf0, 0x37, 0x10, 0xc1, 0x01, 0xc1, 0xe0, 0xf8, 0xa5, 0xb7, 0x19, 0x01, 0x10, 0xeb, 0xe0, 0x13, 0x0e, 0xf8, 0xec, 0xf2, 0xdd, 0x31, 0xd4, 0xed, 0x0f, 0x25, 0x28, 0x44, 0xe2, 0xe9, 0x03, 0xeb, 0x05, 0xc0, 0xe5, 0xdc, 0x33, 0x08, 0xea, 0xd1, 0xfb, 0x01, 0xee, 0x19, 0xe4, 0xf6, 0xf4, 0xf7, 0xe9, 0x2f, 0xef, 0xf6, 0x03, 0x06, 0x15, 0xe3, 0xd9, 0xe3, 0x02, 0x26, 0xfc, 0x29, 0xe4, 0x11, 0x18, 0xdf, 0x19, 0x13, 0x1a, 0x16, 0x09, 0xf3, 0xf6, 0x00, 0x02, 0xfb, 0xd6, 0x09, 0x3f, 0x0a, 0x12, 0x27, 0x1b, 0xe6, 0xd3, 0xfe, 0xd2, 0xdb, 0x1e, 0x02, 0x28, 0x0a, 0x0a, 0xbc, 0x19, 0xe7, 0xd3, 0xe7, 0x05, 0x20, 0xf9, 0xf6, 0x22, 0xff, 0x1e, 0x2d, 0x14, 0x21, 0x03, 0xf1, 0x32, 0x2d, 0x0a, 0xcc, 0x0b, 0x0a, 0xea, 0x1a, 0xd5, 0x0a, 0xd1, 0x30, 0xe4, 0x09, 0x13, 0x1d, 0x2b, 0xed, 0x01, 0x0f, 0xbd, 0xde, 0xd9, 0x10, 0x5b, 0x26, 0x81, 0xe6, 0x27, 0x61, 0xf7, 0xbc, 0x94, 0x31, 0xff, 0x26, 0x0a, 0xeb, 0x16, 0x3f, 0x4f, 0x1d, 0xce, 0xf6, 0xcd, 0x47, 0xc1, 0xea, 0xdc, 0x24, 0xda, 0xd9, 0xea, 0x8b, 0xe5, 0xe3, 0xf9, 0x25, 0x25, 0x2a, 0xe9, 0xf0, 0x12, 0xd1, 0x2d, 0x03, 0xd6, 0xee, 0x04, 0x27, 0xf4, 0xe3, 0x0e, 0x0c, 0xcc, 0x1c, 0x0f, 0xf2, 0xd0, 0x22, 0xed, 0x26, 0xf9, 0xfd, 0xcc, 0x37, 0x07, 0x07, 0x04, 0xe0, 0x24, 0x25, 0x1d, 0x3c, 0x14, 0x3e, 0xe8, 0x20, 0x43, 0x19, 0x1c, 0x01, 0x20, 0xed, 0xd2, 0xac, 0xae, 0x33, 0x08, 0xfa, 0xc6, 0xee, 0x34, 0xd0, 0x08, 0x29, 0xb5, 0xfe, 0xe5, 0xf8, 0x10, 0x16, 0xfd, 0xb6, 0xf7, 0xe8, 0xb4, 0x2d, 0xfe, 0x05, 0xf4, 0xc5, 0xfc, 0x0b, 0x3e, 0x44, 0x29, 0xc5, 0xfc, 0xe7, 0x05, 0x14, 0xd6, 0xd6, 0x23, 0xed, 0xd9, 0xda, 0xf3, 0xdc, 0x07, 0xec, 0xef, 0x08, 0xf2, 0xfe, 0x34, 0x1f, 0x1f, 0x1b, 0xe6, 0x1c, 0x08, 0x26, 0xca, 0x13, 0x40, 0x16, 0x21, 0xfb, 0x09, 0xd2, 0xb4, 0x20, 0xe7, 0x22, 0x23, 0xe4, 0x20, 0x06, 0xce, 0x04, 0xf2, 0xd7, 0x30, 0xec, 0x0b, 0x43, 0x04, 0xf0, 0xf3, 0xd3, 0xe5, 0x21, 0x25, 0xe8, 0xb8, 0xed, 0xd4, 0x17, 0x16, 0xea, 0x06, 0xdc, 0x1c, 0x07, 0x32, 0x01, 0x0d, 0xfb, 0xec, 0xfe, 0x10, 0x22, 0x0e, 0x20, 0x31, 0x17, 0xf5, 0x0b, 0xc7, 0x09, 0x09, 0x12, 0xdf, 0xdc, 0x20, 0xfd, 0xd5, 0x2d, 0x33, 0x01, 0xdf, 0xe7, 0xd1, 0xee, 0xc6, 0xf7, 0x1d, 0x1d, 0xe9, 0x2b, 0xf2, 0xe4, 0x06, 0x23, 0xf9, 0x2e, 0x04, 0x06, 0x26, 0xcc, 0xfc, 0x0b, 0xee, 0xdb, 0x08, 0xd7, 0x1f, 0xf2, 0x08, 0xc0, 0x14, 0xf5, 0x02, 0x19, 0x16, 0x09, 0x09, 0xea, 0x0d, 0xff, 0x0a, 0x20, 0x20, 0xf0, 0xeb, 0xfb, 0x03, 0xfe, 0xf1, 0x18, 0x01, 0x03, 0xf1, 0xfd, 0xe5, 0x01, 0xe8, 0x0b, 0x0f, 0x0d, 0x1e, 0xcc, 0x2e, 0x1a, 0x09, 0x42, 0x02, 0x36, 0x25, 0x10, 0xe4, 0xdd, 0x46, 0x0e, 0x55, 0xe7, 0x0e, 0x50, 0xfe, 0xdc, 0xf7, 0x09, 0x2e, 0xdb, 0x99, 0xc8, 0xeb, 0x26, 0xf6, 0x2a, 0xe6, 0x08, 0x0f, 0xef, 0xfc, 0x1f, 0x60, 0xb9, 0xdf, 0xf7, 0xb6, 0xda, 0x25, 0xf8, 0xcf, 0xd1, 0x15, 0xe2, 0xe1, 0xe6, 0x34, 0xed, 0x08, 0x08, 0xf2, 0xfd, 0xb6, 0x1f, 0x3b, 0x1f, 0x02, 0xe4, 0x0a, 0x15, 0x04, 0xd3, 0xfd, 0xee, 0xf9, 0x25, 0x16, 0xc0, 0xea, 0x0e, 0x47, 0x39, 0xfa, 0xee, 0x2c, 0xe3, 0xf3, 0x19, 0x1d, 0xaa, 0xe6, 0xd6, 0xe1, 0x1a, 0xeb, 0xe3, 0xed, 0xe2, 0xd8, 0x15, 0xe1, 0x2e, 0x1c, 0xe7, 0x23, 0x23, 0x03, 0x15, 0x0d, 0xf0, 0x61, 0x2c, 0xfa, 0x42, 0x22, 0x0a, 0x20, 0xc0, 0x03, 0xc2, 0x10, 0x19, 0xb9, 0xd9, 0xff, 0x16, 0xf7, 0xfb, 0xdf, 0x22, 0x22, 0x0d, 0xfc, 0xfd, 0x09, 0x22, 0xe9, 0xeb, 0xd0, 0x10, 0x51, 0x35, 0x18, 0x28, 0xc5, 0x14, 0xd2, 0x42, 0xf5, 0xff, 0xff, 0x04, 0x00, 0x00, 0x00, 0x80, 0x00, 0x00, 0x00, 0x56, 0x0f, 0x00, 0x00, 0xa0, 0x00, 0x00, 0x00, 0x48, 0x0b, 0x00, 0x00, 0x50, 0x07, 0x00, 0x00, 0x15, 0xfb, 0xff, 0xff, 0x13, 0x00, 0x00, 0x00, 0xe2, 0x03, 0x00, 0x00, 0x52, 0xff, 0xff, 0xff, 0x4a, 0x0b, 0x00, 0x00, 0x41, 0x0f, 0x00, 0x00, 0xdc, 0x05, 0x00, 0x00, 0x18, 0x03, 0x00, 0x00, 0x09, 0xf7, 0xff, 0xff, 0xd9, 0xf7, 0xff, 0xff, 0xcf, 0xf3, 0xff, 0xff, 0x2e, 0x0a, 0x00, 0x00, 0xe6, 0x0e, 0x00, 0x00, 0x0a, 0xef, 0xff, 0xff, 0x75, 0x07, 0x00, 0x00, 0xcb, 0x02, 0x00, 0x00, 0x75, 0xf9, 0xff, 0xff, 0x4a, 0x02, 0x00, 0x00, 0xc3, 0xee, 0xff, 0xff, 0x5b, 0x07, 0x00, 0x00, 0x4a, 0xff, 0xff, 0xff, 0xe3, 0xf5, 0xff, 0xff, 0x1d, 0xed, 0xff, 0xff, 0xa8, 0x0e, 0x00, 0x00, 0xd4, 0xff, 0xff, 0xff, 0xa4, 0x09, 0x00, 0x00, 0xa6, 0xf3, 0xff, 0xff, 0x15, 0xfb, 0xff, 0xff, 0xce, 0xf5, 0xff, 0xff, 0x04, 0x00, 0x00, 0x00, 0x20, 0x01, 0x00, 0x00, 0xf8, 0x30, 0xc1, 0x03, 0x3f, 0xf9, 0xf6, 0x14, 0x3d, 0xf5, 0xf3, 0x01, 0x7f, 0x19, 0xc2, 0xdc, 0x1d, 0xcd, 0xe7, 0xf9, 0xeb, 0xee, 0x55, 0xf8, 0xf8, 0xb8, 0x19, 0xcc, 0x2f, 0xf5, 0xea, 0x04, 0x32, 0xe2, 0xe9, 0x35, 0xb3, 0x16, 0xf2, 0xd4, 0xfa, 0x17, 0x0a, 0x15, 0xed, 0x0a, 0xe9, 0xf8, 0xdc, 0xe7, 0xd4, 0xd2, 0xf5, 0x3f, 0xa5, 0xfe, 0x0d, 0x4e, 0x0c, 0xeb, 0x16, 0xe0, 0x03, 0xf3, 0x01, 0xe8, 0xe1, 0x2f, 0xe2, 0xe2, 0xfb, 0xec, 0xe3, 0xbe, 0xed, 0x83, 0x8c, 0x1b, 0xda, 0xe9, 0x22, 0x17, 0xec, 0xe3, 0x07, 0x35, 0xe9, 0xfb, 0xed, 0xd2, 0xd7, 0xe2, 0x33, 0xf9, 0xe7, 0x04, 0x15, 0x0d, 0x11, 0x02, 0xfd, 0xfb, 0xee, 0x07, 0xed, 0x1b, 0xfd, 0xfc, 0xbd, 0x1c, 0x4f, 0xf3, 0x16, 0x08, 0x19, 0xf9, 0x00, 0x28, 0xab, 0xf4, 0xf7, 0x2d, 0xeb, 0xfd, 0xed, 0x0d, 0xfd, 0xf3, 0xf7, 0x2b, 0xf7, 0xf3, 0xfd, 0x02, 0xf0, 0xf1, 0x10, 0x0e, 0xea, 0x42, 0x0c, 0x13, 0xe0, 0x11, 0x03, 0x04, 0xee, 0xff, 0xfc, 0xd4, 0x2e, 0xeb, 0xf0, 0x32, 0x15, 0x0f, 0xb3, 0x06, 0xfc, 0xf0, 0xfa, 0x14, 0x0a, 0xf7, 0x17, 0xf6, 0xe6, 0xd5, 0x14, 0xf9, 0x02, 0xe5, 0x00, 0x17, 0x3d, 0xf0, 0x19, 0x19, 0x13, 0xf8, 0xeb, 0xc6, 0xfb, 0xe4, 0xd7, 0x1a, 0xd9, 0xe4, 0xee, 0x1d, 0x04, 0xf7, 0xfc, 0xdb, 0x2f, 0x1a, 0xda, 0x07, 0x05, 0x23, 0xe5, 0x34, 0xf1, 0x14, 0x5e, 0x0b, 0x16, 0xf7, 0x18, 0xd8, 0xf8, 0xec, 0xee, 0xf8, 0x2c, 0xf1, 0x03, 0xdd, 0xef, 0xd6, 0xec, 0xeb, 0xe6, 0xf8, 0x2b, 0xcb, 0x0f, 0x1a, 0x1f, 0x13, 0xec, 0xfc, 0xd5, 0xfe, 0xfd, 0x10, 0xf2, 0x08, 0x0c, 0x02, 0xd2, 0x10, 0xcf, 0xee, 0xf4, 0xfd, 0xd1, 0xf0, 0xf7, 0x31, 0x1f, 0xf1, 0x2b, 0xd9, 0x00, 0xe9, 0x07, 0x1b, 0x2d, 0x03, 0x34, 0xe9, 0xf3, 0x1c, 0xf5, 0x11, 0xe8, 0xea, 0x36, 0x1b, 0x14, 0xeb, 0xc6, 0x0a, 0x03, 0xed, 0xed, 0x18, 0x39, 0xf4, 0x09, 0xf5, 0x0b, 0xfb, 0xaf, 0x00, 0xe8, 0xf2, 0xfa, 0xf6, 0xff, 0xff, 0x04, 0x00, 0x00, 0x00, 0x80, 0x00, 0x00, 0x00, 0x3d, 0xfa, 0xff, 0xff, 0x19, 0xfd, 0xff, 0xff, 0xc0, 0xfe, 0xff, 0xff, 0xca, 0xf9, 0xff, 0xff, 0xea, 0xfd, 0xff, 0xff, 0x96, 0xff, 0xff, 0xff, 0x0a, 0x07, 0x00, 0x00, 0x1f, 0x00, 0x00, 0x00, 0x11, 0xff, 0xff, 0xff, 0x7f, 0xfa, 0xff, 0xff, 0x92, 0x05, 0x00, 0x00, 0xd6, 0xfe, 0xff, 0xff, 0x87, 0xff, 0xff, 0xff, 0x98, 0xf8, 0xff, 0xff, 0x9f, 0xfe, 0xff, 0xff, 0xc5, 0x06, 0x00, 0x00, 0x96, 0xfe, 0xff, 0xff, 0x0d, 0xff, 0xff, 0xff, 0x86, 0x06, 0x00, 0x00, 0x95, 0x06, 0x00, 0x00, 0xd7, 0x03, 0x00, 0x00, 0xb4, 0xfb, 0xff, 0xff, 0x53, 0xff, 0xff, 0xff, 0xde, 0x05, 0x00, 0x00, 0xb4, 0x04, 0x00, 0x00, 0x7e, 0xfd, 0xff, 0xff, 0xa6, 0xfe, 0xff, 0xff, 0x02, 0x09, 0x00, 0x00, 0x49, 0x01, 0x00, 0x00, 0xfd, 0x00, 0x00, 0x00, 0x0c, 0x04, 0x00, 0x00, 0x8e, 0x05, 0x00, 0x00, 0x86, 0xf7, 0xff, 0xff, 0x04, 0x00, 0x00, 0x00, 0x00, 0x06, 0x00, 0x00, 0xcb, 0x0b, 0x2c, 0x27, 0xc5, 0x08, 0xe0, 0xe4, 0xd2, 0x1c, 0xfe, 0x1f, 0xe5, 0x09, 0x3b, 0xd5, 0xf0, 0x40, 0xcd, 0xe0, 0x01, 0xf5, 0x48, 0x15, 0x29, 0x12, 0x48, 0xd6, 0x2a, 0xfa, 0x1b, 0xb5, 0xbf, 0x68, 0x22, 0x12, 0xe6, 0x12, 0xe7, 0x18, 0xbf, 0x13, 0x24, 0x10, 0xd3, 0x33, 0x2a, 0xcb, 0xf4, 0x38, 0xd3, 0xc7, 0xd0, 0x17, 0x28, 0xd2, 0xdb, 0xf8, 0x2e, 0xeb, 0x25, 0x1c, 0x3f, 0xd8, 0xbf, 0x2f, 0x1f, 0x32, 0xd5, 0x22, 0xe1, 0xfd, 0xd4, 0x00, 0x41, 0x13, 0xeb, 0x27, 0x2d, 0xcc, 0xdc, 0x50, 0xbd, 0xc1, 0xe2, 0x0f, 0x3b, 0x17, 0x03, 0x0b, 0x38, 0xed, 0x47, 0x14, 0xf4, 0xca, 0x43, 0xdb, 0xd7, 0xdd, 0x0f, 0xd2, 0x1f, 0x23, 0xe7, 0x1b, 0xd4, 0xff, 0x2c, 0xc8, 0xdd, 0x36, 0x05, 0xfd, 0x27, 0x2d, 0x10, 0xfd, 0xe7, 0xf4, 0x42, 0xfd, 0xfa, 0x17, 0xe7, 0x03, 0x1c, 0x4a, 0xfe, 0xee, 0xca, 0xe6, 0x0f, 0xde, 0x54, 0x5b, 0xf9, 0x17, 0xd1, 0xe5, 0xf9, 0x11, 0xc9, 0x2b, 0xe2, 0xe5, 0x4c, 0x03, 0xe1, 0xfb, 0xbd, 0xe7, 0xce, 0xea, 0xdc, 0x29, 0xf1, 0x4e, 0xef, 0x43, 0xba, 0x2f, 0x0e, 0x2c, 0xd6, 0x32, 0xe2, 0x03, 0xe0, 0xff, 0x41, 0x0c, 0xec, 0x2a, 0x2a, 0xc5, 0xd8, 0x52, 0xb4, 0xcc, 0xf1, 0x13, 0x3c, 0x0e, 0x08, 0x05, 0x34, 0xf4, 0x4c, 0xf0, 0xea, 0xd5, 0x0b, 0xdb, 0x50, 0x21, 0x07, 0x29, 0xd6, 0xe9, 0x2c, 0x16, 0x13, 0x46, 0x12, 0xe7, 0x1c, 0x0e, 0xd3, 0x1e, 0xec, 0x33, 0x09, 0xef, 0x23, 0x3e, 0x3c, 0x48, 0x17, 0x0a, 0x14, 0xcd, 0x15, 0x16, 0xdf, 0x2d, 0xfd, 0xf6, 0xfc, 0xf1, 0x3b, 0x42, 0xd7, 0x3a, 0x98, 0xe3, 0xc9, 0xf5, 0xf2, 0xd4, 0x40, 0xea, 0x26, 0xde, 0xf3, 0xf7, 0xf5, 0x12, 0xce, 0xda, 0x22, 0xdf, 0xe7, 0x7f, 0x49, 0x05, 0x2c, 0xc4, 0x35, 0x0a, 0x27, 0x25, 0x23, 0xf6, 0x23, 0x0a, 0x3e, 0x15, 0x25, 0xd0, 0x04, 0x13, 0xc9, 0x03, 0x0a, 0x1e, 0x1b, 0xf6, 0xfc, 0x37, 0x40, 0x43, 0xfc, 0x16, 0xf2, 0x04, 0xee, 0x08, 0xf6, 0xf0, 0x15, 0x02, 0xc5, 0xed, 0xf3, 0xdf, 0xd6, 0x46, 0x02, 0x2f, 0xd7, 0xd1, 0x3a, 0xe7, 0x1c, 0x0d, 0xf1, 0xd1, 0x00, 0xbb, 0x43, 0xee, 0xfc, 0x2d, 0x49, 0xc7, 0xd8, 0x21, 0x42, 0xd1, 0x31, 0xe4, 0x05, 0xf9, 0x61, 0xfc, 0x29, 0x35, 0x6f, 0xea, 0x0c, 0xfe, 0x46, 0x00, 0xcb, 0x49, 0xcd, 0xeb, 0x13, 0x2c, 0x46, 0x25, 0xcb, 0xb4, 0xd1, 0xff, 0xdc, 0x67, 0xea, 0x28, 0xe4, 0x3b, 0x08, 0xe9, 0xf7, 0xbd, 0xf8, 0xc9, 0x51, 0x59, 0xd2, 0x27, 0xfc, 0x02, 0xf0, 0xd8, 0xe9, 0x2e, 0x1c, 0xfc, 0x38, 0xc5, 0xe1, 0xfc, 0xe9, 0xb8, 0xd1, 0xf8, 0xf4, 0xf7, 0xe6, 0x3c, 0x2d, 0x00, 0x24, 0xe3, 0x49, 0x0e, 0x48, 0x5b, 0x12, 0xf4, 0x5c, 0xd8, 0x26, 0x12, 0x55, 0x0e, 0xdc, 0x15, 0xba, 0x21, 0xfa, 0x2a, 0x64, 0x2f, 0xda, 0x4a, 0x24, 0x20, 0xe3, 0x46, 0x09, 0xf0, 0xaa, 0x3b, 0xb8, 0x47, 0x14, 0x28, 0xcf, 0x16, 0xe6, 0xf4, 0xc8, 0x21, 0xfb, 0x07, 0xd9, 0x0a, 0x3b, 0xb5, 0xfc, 0x44, 0xd5, 0xb4, 0xd4, 0x07, 0x39, 0xca, 0xf5, 0xfb, 0x44, 0xe5, 0x17, 0x0c, 0x3f, 0xbe, 0xf0, 0xfd, 0x16, 0xda, 0xdb, 0xec, 0x38, 0x13, 0xd3, 0x60, 0xe6, 0x04, 0xd4, 0xe1, 0x13, 0xea, 0x34, 0xf5, 0x05, 0xcd, 0xee, 0xce, 0x25, 0x0e, 0xd4, 0x1c, 0x31, 0xc5, 0xd5, 0x42, 0x69, 0xe2, 0xe9, 0xf9, 0x14, 0x1e, 0xc3, 0xfb, 0xc2, 0xe9, 0xde, 0x23, 0x13, 0x46, 0xd3, 0xe6, 0x2b, 0xdb, 0x12, 0x25, 0xed, 0xce, 0x08, 0xcf, 0x49, 0xe8, 0xea, 0x2e, 0x41, 0xc6, 0xf0, 0xfb, 0x53, 0xee, 0x15, 0xd4, 0x01, 0xe8, 0xd2, 0xf6, 0xfc, 0xef, 0x02, 0x3c, 0x0c, 0x5b, 0xe2, 0xd2, 0x2b, 0xe7, 0x09, 0x05, 0xfd, 0xff, 0x2a, 0xbd, 0x40, 0x10, 0x30, 0x32, 0x2f, 0xd9, 0xd8, 0x05, 0x1a, 0x04, 0x15, 0xe5, 0x42, 0x10, 0x3b, 0x3a, 0xf4, 0xf5, 0x46, 0xdb, 0x4e, 0x11, 0x38, 0xf1, 0xe1, 0x23, 0xba, 0x27, 0xec, 0x31, 0x4e, 0x22, 0xde, 0x24, 0x20, 0x25, 0xe8, 0x2c, 0x0a, 0xf0, 0xc2, 0x1e, 0xcc, 0x5a, 0x15, 0x13, 0xf8, 0x2e, 0xe9, 0x1b, 0xea, 0xeb, 0x1f, 0x0c, 0xe9, 0x54, 0xfd, 0xc3, 0xf9, 0x1c, 0xe7, 0xc1, 0xe4, 0x41, 0x09, 0xf5, 0xf2, 0xdc, 0x04, 0x10, 0x36, 0x2d, 0xf0, 0xf1, 0x09, 0xdf, 0x5e, 0x18, 0x1e, 0x34, 0xe2, 0xd4, 0x34, 0xeb, 0x36, 0x3d, 0x23, 0x0d, 0xfb, 0x0a, 0xbd, 0x3a, 0xea, 0x2b, 0x31, 0x1f, 0xef, 0x57, 0x45, 0x34, 0x09, 0x14, 0x18, 0xed, 0xd8, 0x02, 0x15, 0xd8, 0xf1, 0xf1, 0xdc, 0xd9, 0x48, 0x05, 0xf0, 0x73, 0xdd, 0x1d, 0xed, 0xdf, 0x11, 0xff, 0x19, 0xdb, 0x1b, 0xf7, 0x20, 0xcb, 0x20, 0x25, 0x2b, 0x1a, 0x1d, 0xef, 0xca, 0x16, 0x09, 0xe2, 0xea, 0x10, 0x0f, 0xf3, 0x16, 0x37, 0x08, 0x22, 0x1e, 0xe5, 0xfe, 0xf8, 0x12, 0x3e, 0xd7, 0x14, 0xe6, 0xd9, 0x28, 0xe1, 0xff, 0x5c, 0xdb, 0xc7, 0xd4, 0xd2, 0xdf, 0x48, 0x0e, 0x2f, 0xd5, 0x50, 0x21, 0xe3, 0x44, 0x12, 0x49, 0x44, 0x07, 0xef, 0x51, 0xe2, 0x24, 0x09, 0x45, 0xf5, 0xe2, 0x20, 0xc0, 0x07, 0xfd, 0x37, 0x4b, 0x1e, 0xdb, 0x2e, 0x1e, 0x1a, 0xe3, 0x3f, 0x04, 0xf1, 0xe6, 0x2e, 0xc6, 0x4d, 0x06, 0x21, 0xf6, 0x17, 0xf2, 0x0c, 0xec, 0xf1, 0x3e, 0x0b, 0xe5, 0x50, 0x0c, 0xbd, 0xe6, 0x2d, 0xdf, 0xc4, 0xe6, 0x4b, 0x09, 0xed, 0xef, 0xe1, 0x0d, 0x08, 0x4d, 0x24, 0xff, 0xda, 0x15, 0xe6, 0xd1, 0xe6, 0xfa, 0x06, 0x4b, 0x3a, 0x1c, 0xf7, 0xc0, 0xdb, 0x0f, 0xf8, 0xd7, 0x55, 0xcc, 0xd4, 0x34, 0x2b, 0x33, 0x35, 0xc7, 0xa7, 0xf5, 0xea, 0xd1, 0x3b, 0xed, 0x4d, 0xec, 0x04, 0x0b, 0xef, 0xde, 0xdf, 0x28, 0xf1, 0x5f, 0x4b, 0x30, 0xf7, 0xf3, 0xf4, 0x1c, 0x07, 0xcf, 0x43, 0xeb, 0xec, 0x32, 0x14, 0x09, 0x20, 0xd1, 0xb3, 0xc2, 0xe6, 0xdf, 0x57, 0xee, 0x52, 0xd9, 0x17, 0xd7, 0xfe, 0x25, 0x2c, 0xc6, 0xff, 0xe9, 0xea, 0xdf, 0x1f, 0x04, 0x2d, 0xdb, 0xed, 0x32, 0xd6, 0x0a, 0x40, 0xdb, 0xd3, 0xf7, 0xd4, 0x4c, 0xf8, 0x01, 0x25, 0x4b, 0xd7, 0x15, 0x0b, 0x33, 0xc8, 0x08, 0xcc, 0x5b, 0x12, 0xdb, 0x29, 0xc8, 0xd9, 0x17, 0x1e, 0x01, 0x6a, 0xf1, 0xeb, 0x40, 0x01, 0xe4, 0x3b, 0xe5, 0x25, 0x33, 0xe1, 0x4a, 0x48, 0x66, 0x44, 0x3a, 0xe6, 0x07, 0xfd, 0xed, 0x08, 0xd3, 0x15, 0x1b, 0x25, 0xc6, 0x12, 0xc1, 0xea, 0xc5, 0x38, 0x14, 0x0f, 0xce, 0xf9, 0x40, 0xc7, 0x10, 0x38, 0xc9, 0xc1, 0xd9, 0xce, 0x51, 0xe2, 0xfb, 0x1b, 0x5b, 0xbf, 0x09, 0x17, 0x3d, 0xd3, 0x19, 0xfc, 0x2b, 0x04, 0x4e, 0x42, 0xfe, 0x0e, 0x56, 0xe5, 0x19, 0x00, 0x29, 0x2b, 0xc6, 0x18, 0xc9, 0xe7, 0x10, 0x12, 0x3f, 0x37, 0xc6, 0x00, 0xe8, 0x01, 0xdc, 0x50, 0x07, 0x05, 0xc8, 0x59, 0xfe, 0xf8, 0xe9, 0xe4, 0x25, 0xca, 0x45, 0x6a, 0x04, 0x02, 0xd5, 0xea, 0xf7, 0x1b, 0xda, 0x28, 0x02, 0xd4, 0x35, 0x24, 0xfa, 0x2d, 0xc8, 0xad, 0xaa, 0xcd, 0xe6, 0x3e, 0xfc, 0x71, 0x24, 0x20, 0xcc, 0x6b, 0x0c, 0x21, 0xf9, 0x27, 0xe8, 0x10, 0xf5, 0xe8, 0x2a, 0x10, 0xf0, 0x4a, 0x02, 0xbb, 0xf3, 0x10, 0xe2, 0xd9, 0xc7, 0x49, 0x03, 0x0d, 0xcc, 0xe4, 0x06, 0x0d, 0x53, 0x10, 0x0a, 0xe5, 0xeb, 0x2c, 0x16, 0xd7, 0xd1, 0xe5, 0xff, 0x13, 0xd3, 0x4f, 0xd0, 0x0c, 0xd7, 0xf7, 0xfa, 0xfb, 0x59, 0xdf, 0x11, 0xd2, 0x11, 0xd3, 0x1f, 0xde, 0xe8, 0x09, 0x12, 0xc8, 0xdb, 0x6f, 0x2a, 0xf5, 0xfb, 0xdd, 0xd7, 0xce, 0x0a, 0xf2, 0x35, 0x45, 0xf2, 0x4e, 0xf8, 0xd2, 0xfa, 0xdb, 0xef, 0x30, 0x1b, 0xf4, 0x3f, 0xfa, 0xf5, 0xdd, 0xee, 0xc6, 0xf0, 0xe8, 0x26, 0xd7, 0xea, 0x31, 0x26, 0x11, 0x1a, 0xce, 0xe9, 0xed, 0xcf, 0x00, 0xe4, 0xfa, 0x04, 0x3f, 0xf0, 0x44, 0xf6, 0xd9, 0x31, 0xe8, 0x08, 0x08, 0x0e, 0x02, 0x22, 0xc5, 0x47, 0x24, 0x38, 0x24, 0x34, 0xcf, 0xdd, 0x0f, 0x2c, 0x16, 0xcc, 0x46, 0x0a, 0x27, 0xee, 0x36, 0xe8, 0x13, 0xe8, 0xf3, 0x57, 0x0d, 0xef, 0x3c, 0x17, 0xbe, 0xdb, 0x3f, 0xc2, 0xc5, 0xe9, 0x4c, 0x15, 0x05, 0xf6, 0xf6, 0x17, 0x05, 0x55, 0x16, 0xe2, 0xdc, 0xd8, 0x2c, 0x15, 0x17, 0xc4, 0xf0, 0x0a, 0xfe, 0xbc, 0x46, 0xf9, 0xf6, 0xc9, 0xe1, 0x3a, 0xe1, 0x3c, 0x1e, 0xdc, 0xc5, 0xca, 0xcf, 0x3f, 0xdd, 0x05, 0x14, 0x53, 0xc2, 0xf7, 0x20, 0x35, 0xc1, 0x29, 0xf1, 0xd4, 0xcd, 0x0b, 0xe1, 0x46, 0x48, 0x09, 0x2e, 0xc4, 0xe4, 0xf8, 0xfe, 0xc6, 0x32, 0xf2, 0xe3, 0x54, 0x05, 0x01, 0xfe, 0xd2, 0xd6, 0x05, 0xec, 0xd7, 0x28, 0xe9, 0x64, 0xfa, 0x44, 0x18, 0xe3, 0x18, 0x03, 0x60, 0x23, 0x3c, 0x22, 0x52, 0xe2, 0x2f, 0x01, 0x49, 0x12, 0xc1, 0x2d, 0xc0, 0xe7, 0x1b, 0x33, 0x2c, 0x26, 0xcf, 0xf8, 0xd0, 0x06, 0xd8, 0x5e, 0xf1, 0x28, 0xb4, 0x4d, 0xd2, 0x4d, 0x01, 0x29, 0xed, 0x1c, 0xee, 0x06, 0xfd, 0xeb, 0x38, 0x11, 0xf7, 0x42, 0x0d, 0xd7, 0xe3, 0x39, 0xc8, 0xcc, 0xde, 0x4e, 0x0c, 0xfe, 0x01, 0xf4, 0x13, 0x10, 0x57, 0xff, 0xed, 0xe7, 0x30, 0xda, 0x3d, 0x0a, 0x53, 0x40, 0xf9, 0xf1, 0x57, 0xdd, 0x31, 0x05, 0x4a, 0x02, 0xe0, 0x34, 0xb7, 0x20, 0xeb, 0x47, 0x7c, 0x1a, 0xd9, 0x2e, 0x2f, 0x20, 0xe1, 0x41, 0x10, 0xef, 0xac, 0x39, 0x33, 0xc5, 0xfa, 0xd0, 0x0a, 0xf6, 0x4c, 0xf2, 0x01, 0x19, 0xed, 0x04, 0xe2, 0xcb, 0xf1, 0x09, 0xe7, 0xde, 0x29, 0x2a, 0x19, 0xef, 0xd9, 0x00, 0x41, 0x15, 0xf8, 0x18, 0xe8, 0x0b, 0xfc, 0xf1, 0x24, 0xe8, 0x41, 0x11, 0x45, 0x45, 0x1d, 0xfe, 0x5a, 0xdb, 0x4e, 0x08, 0x45, 0x01, 0xdb, 0x15, 0xbd, 0x15, 0xf7, 0x27, 0x6a, 0x2f, 0xd6, 0x36, 0x09, 0x1c, 0xe3, 0x43, 0x0a, 0xf0, 0x8e, 0x2f, 0x0e, 0xd2, 0xf4, 0xf5, 0xf1, 0xec, 0x1d, 0x02, 0xfd, 0x5e, 0x0e, 0x48, 0xe1, 0xe5, 0x1c, 0xec, 0x10, 0xda, 0x20, 0x13, 0x30, 0xcd, 0x0e, 0xfa, 0x04, 0x14, 0x35, 0xfe, 0xdb, 0xf4, 0x1a, 0x07, 0x20, 0xef, 0x30, 0x0f, 0x4b, 0x3d, 0x00, 0x01, 0x68, 0xe4, 0x1c, 0x0a, 0x3f, 0xe9, 0xde, 0x33, 0xc4, 0xfb, 0xeb, 0x1d, 0x40, 0x2a, 0xd7, 0x0a, 0x1e, 0x1d, 0xe2, 0x57, 0xf2, 0xe4, 0xea, 0x37, 0xf2, 0xdb, 0x51, 0x28, 0xca, 0x08, 0xc8, 0xd4, 0xf2, 0x2a, 0x17, 0x50, 0xea, 0xe0, 0x35, 0xda, 0xe4, 0x2c, 0xd9, 0xf8, 0xee, 0xdd, 0x3e, 0x2e, 0x48, 0x44, 0x3d, 0xdf, 0x1e, 0xfb, 0x04, 0xd4, 0xe1, 0x14, 0x25, 0x2a, 0xef, 0x25, 0xd8, 0xf6, 0x05, 0xef, 0x47, 0x23, 0x12, 0x25, 0x0e, 0xdb, 0xe1, 0x44, 0xce, 0xf1, 0xea, 0x27, 0x07, 0x18, 0x17, 0x13, 0x17, 0x05, 0x4e, 0xf0, 0x0b, 0xd4, 0xd6, 0x21, 0x27, 0x18, 0xc0, 0x02, 0xcf, 0xf2, 0xc4, 0x31, 0xd9, 0x19, 0xc8, 0xfd, 0x2d, 0xb4, 0x18, 0x1b, 0xdd, 0xdb, 0xfd, 0xc7, 0x4e, 0x03, 0xd1, 0x11, 0x49, 0xcf, 0xef, 0x13, 0x47, 0xd3, 0x92, 0xfd, 0xff, 0xff, 0x04, 0x00, 0x00, 0x00, 0xc0, 0x00, 0x00, 0x00, 0xd5, 0xfe, 0xff, 0xff, 0xbe, 0x01, 0x00, 0x00, 0x33, 0xff, 0xff, 0xff, 0x88, 0xf0, 0xff, 0xff, 0x7b, 0xf9, 0xff, 0xff, 0xd7, 0xfd, 0xff, 0xff, 0x18, 0xe5, 0xff, 0xff, 0xc2, 0x01, 0x00, 0x00, 0xc9, 0xe5, 0xff, 0xff, 0xa1, 0x05, 0x00, 0x00, 0xd1, 0xe7, 0xff, 0xff, 0x7f, 0x04, 0x00, 0x00, 0xc5, 0xdc, 0xff, 0xff, 0x3c, 0x0b, 0x00, 0x00, 0xa3, 0x02, 0x00, 0x00, 0x69, 0x04, 0x00, 0x00, 0xac, 0xf8, 0xff, 0xff, 0xdb, 0xe3, 0xff, 0xff, 0xb7, 0xfd, 0xff, 0xff, 0x1c, 0xe3, 0xff, 0xff, 0xdb, 0xf7, 0xff, 0xff, 0x66, 0xf4, 0xff, 0xff, 0x90, 0xdf, 0xff, 0xff, 0x40, 0xfd, 0xff, 0xff, 0xb2, 0xf7, 0xff, 0xff, 0x8b, 0xf2, 0xff, 0xff, 0x2b, 0x00, 0x00, 0x00, 0x43, 0xe8, 0xff, 0xff, 0xdd, 0x0a, 0x00, 0x00, 0xea, 0xe6, 0xff, 0xff, 0x9a, 0xf3, 0xff, 0xff, 0xb0, 0xfd, 0xff, 0xff, 0x76, 0x07, 0x00, 0x00, 0xab, 0xfd, 0xff, 0xff, 0x42, 0xf8, 0xff, 0xff, 0x70, 0xfb, 0xff, 0xff, 0xd1, 0x08, 0x00, 0x00, 0xc3, 0xf5, 0xff, 0xff, 0xc5, 0xe5, 0xff, 0xff, 0xb3, 0xf8, 0xff, 0xff, 0xfd, 0xdc, 0xff, 0xff, 0x83, 0xf7, 0xff, 0xff, 0xc2, 0xdf, 0xff, 0xff, 0x11, 0xf3, 0xff, 0xff, 0xf3, 0xe3, 0xff, 0xff, 0x99, 0xf9, 0xff, 0xff, 0xf8, 0xf2, 0xff, 0xff, 0x4a, 0x0c, 0x00, 0x00, 0x5e, 0xfe, 0xff, 0xff, 0x04, 0x00, 0x00, 0x00, 0xc0, 0x00, 0x00, 0x00, 0x16, 0x13, 0x3c, 0xb7, 0xd2, 0x41, 0x31, 0xbf, 0x06, 0xc7, 0x13, 0xd1, 0x07, 0x0a, 0xb4, 0xd0, 0xe1, 0x40, 0x35, 0x56, 0xb2, 0x36, 0x3b, 0x39, 0x00, 0xf3, 0xee, 0xfc, 0xdb, 0x4a, 0xdf, 0x51, 0xac, 0xba, 0xdb, 0x45, 0xc3, 0xd2, 0x1a, 0x50, 0x4a, 0xca, 0x36, 0xb9, 0x38, 0x2f, 0x49, 0xe4, 0x9d, 0x8c, 0x9c, 0x17, 0x1c, 0x8b, 0x3a, 0xee, 0x3c, 0xfc, 0x2e, 0x1f, 0xfc, 0xaf, 0x10, 0xe9, 0x35, 0x38, 0xa0, 0x2c, 0x41, 0xfb, 0x40, 0x9c, 0x37, 0x20, 0xb0, 0x06, 0xb2, 0x2e, 0xf6, 0xcc, 0xe0, 0x24, 0x35, 0xa5, 0xbd, 0x1b, 0x21, 0xb4, 0x4b, 0x36, 0x2c, 0x28, 0x43, 0x1a, 0xb0, 0xc6, 0xc6, 0x1b, 0x06, 0xf4, 0x31, 0xfb, 0xa7, 0x34, 0xc6, 0xd9, 0x1e, 0x39, 0xc3, 0xfc, 0x1c, 0xb6, 0xd2, 0xd6, 0x34, 0xca, 0x0b, 0x4b, 0xf0, 0x2d, 0x45, 0x31, 0xab, 0x86, 0xc6, 0x34, 0x34, 0x44, 0x0f, 0x34, 0xd9, 0x28, 0xe1, 0x2a, 0x0c, 0x37, 0x14, 0xfe, 0xf2, 0xd5, 0x09, 0xc4, 0xe6, 0xea, 0x4c, 0x31, 0x42, 0xc8, 0xbd, 0x39, 0x18, 0x26, 0xde, 0x4b, 0x9b, 0x13, 0x81, 0x39, 0x4d, 0x5b, 0x4e, 0x99, 0x0a, 0xf3, 0x40, 0xb8, 0x99, 0x12, 0xcc, 0xa6, 0x50, 0x13, 0x2c, 0xb1, 0xa2, 0x2a, 0x1f, 0x17, 0x46, 0x22, 0x29, 0xda, 0x8e, 0x1c, 0xda, 0xee, 0x97, 0x25, 0xa6, 0x4f, 0x07, 0x4a, 0x2a, 0xff, 0xff, 0xff, 0x04, 0x00, 0x00, 0x00, 0x10, 0x00, 0x00, 0x00, 0xdd, 0xee, 0xff, 0xff, 0x1d, 0x0b, 0x00, 0x00, 0x26, 0x0c, 0x00, 0x00, 0x45, 0xf9, 0xff, 0xff, 0x46, 0xff, 0xff, 0xff, 0x04, 0x00, 0x00, 0x00, 0x08, 0x00, 0x00, 0x00, 0x01, 0x00, 0x00, 0x00, 0x02, 0x00, 0x00, 0x00, 0xec, 0xe5, 0xff, 0xff, 0xf0, 0xe5, 0xff, 0xff, 0x0f, 0x00, 0x00, 0x00, 0x4d, 0x4c, 0x49, 0x52, 0x20, 0x43, 0x6f, 0x6e, 0x76, 0x65, 0x72, 0x74, 0x65, 0x64, 0x2e, 0x00, 0x01, 0x00, 0x00, 0x00, 0x14, 0x00, 0x00, 0x00, 0x00, 0x00, 0x0e, 0x00, 0x18, 0x00, 0x14, 0x00, 0x10, 0x00, 0x0c, 0x00, 0x08, 0x00, 0x04, 0x00, 0x0e, 0x00, 0x00, 0x00, 0x14, 0x00, 0x00, 0x00, 0x1c, 0x00, 0x00, 0x00, 0x70, 0x03, 0x00, 0x00, 0x74, 0x03, 0x00, 0x00, 0x78, 0x03, 0x00, 0x00, 0x04, 0x00, 0x00, 0x00, 0x6d, 0x61, 0x69, 0x6e, 0x00, 0x00, 0x00, 0x00, 0x0c, 0x00, 0x00, 0x00, 0x0c, 0x03, 0x00, 0x00, 0xa4, 0x02, 0x00, 0x00, 0x54, 0x02, 0x00, 0x00, 0x0c, 0x02, 0x00, 0x00, 0xbc, 0x01, 0x00, 0x00, 0x74, 0x01, 0x00, 0x00, 0x34, 0x01, 0x00, 0x00, 0xec, 0x00, 0x00, 0x00, 0xac, 0x00, 0x00, 0x00, 0x78, 0x00, 0x00, 0x00, 0x40, 0x00, 0x00, 0x00, 0x04, 0x00, 0x00, 0x00, 0x96, 0xfd, 0xff, 0xff, 0x1c, 0x00, 0x00, 0x00, 0x00, 0x00, 0x00, 0x09, 0x1c, 0x00, 0x00, 0x00, 0x20, 0x00, 0x00, 0x00, 0x04, 0x00, 0x00, 0x00, 0x00, 0x00, 0x06, 0x00, 0x08, 0x00, 0x04, 0x00, 0x06, 0x00, 0x00, 0x00, 0x00, 0x00, 0x80, 0x3f, 0x01, 0x00, 0x00, 0x00, 0x21, 0x00, 0x00, 0x00, 0x01, 0x00, 0x00, 0x00, 0x20, 0x00, 0x00, 0x00, 0x5e, 0xfe, 0xff, 0xff, 0x14, 0x00, 0x00, 0x00, 0x00, 0x00, 0x00, 0x08, 0x10, 0x00, 0x00, 0x00, 0x14, 0x00, 0x00, 0x00, 0x03, 0x00, 0x00, 0x00, 0xc8, 0xe6, 0xff, 0xff, 0x01, 0x00, 0x00, 0x00, 0x20, 0x00, 0x00, 0x00, 0x03, 0x00, 0x00, 0x00, 0x1f, 0x00, 0x00, 0x00, 0x03, 0x00, 0x00, 0x00, 0x02, 0x00, 0x00, 0x00, 0x92, 0xfe, 0xff, 0xff, 0x14, 0x00, 0x00, 0x00, 0x00, 0x00, 0x00, 0x1b, 0x10, 0x00, 0x00, 0x00, 0x14, 0x00, 0x00, 0x00, 0x02, 0x00, 0x00, 0x00, 0xfc, 0xe6, 0xff, 0xff, 0x01, 0x00, 0x00, 0x00, 0x1f, 0x00, 0x00, 0x00, 0x02, 0x00, 0x00, 0x00, 0x1e, 0x00, 0x00, 0x00, 0x01, 0x00, 0x00, 0x00, 0xce, 0xfd, 0xff, 0xff, 0x10, 0x00, 0x00, 0x00, 0x00, 0x00, 0x00, 0x01, 0x18, 0x00, 0x00, 0x00, 0x1c, 0x00, 0x00, 0x00, 0xc0, 0xfd, 0xff, 0xff, 0x00, 0x00, 0x00, 0x03, 0x01, 0x00, 0x00, 0x00, 0x01, 0x00, 0x00, 0x00, 0x01, 0x00, 0x00, 0x00, 0x1e, 0x00, 0x00, 0x00, 0x03, 0x00, 0x00, 0x00, 0x1d, 0x00, 0x00, 0x00, 0x05, 0x00, 0x00, 0x00, 0x04, 0x00, 0x00, 0x00, 0xfe, 0xfe, 0xff, 0xff, 0x14, 0x00, 0x00, 0x00, 0x00, 0x00, 0x00, 0x02, 0x20, 0x00, 0x00, 0x00, 0x24, 0x00, 0x00, 0x00, 0x01, 0x00, 0x00, 0x00, 0x5e, 0xfe, 0xff, 0xff, 0x00, 0x00, 0x00, 0x03, 0x01, 0x00, 0x00, 0x00, 0x02, 0x00, 0x00, 0x00, 0x02, 0x00, 0x00, 0x00, 0x01, 0x00, 0x00, 0x00, 0x1d, 0x00, 0x00, 0x00, 0x03, 0x00, 0x00, 0x00, 0x1c, 0x00, 0x00, 0x00, 0x07, 0x00, 0x00, 0x00, 0x06, 0x00, 0x00, 0x00, 0x4e, 0xfe, 0xff, 0xff, 0x10, 0x00, 0x00, 0x00, 0x00, 0x00, 0x00, 0x01, 0x18, 0x00, 0x00, 0x00, 0x1c, 0x00, 0x00, 0x00, 0x40, 0xfe, 0xff, 0xff, 0x00, 0x00, 0x00, 0x03, 0x01, 0x00, 0x00, 0x00, 0x01, 0x00, 0x00, 0x00, 0x01, 0x00, 0x00, 0x00, 0x1c, 0x00, 0x00, 0x00, 0x03, 0x00, 0x00, 0x00, 0x1b, 0x00, 0x00, 0x00, 0x09, 0x00, 0x00, 0x00, 0x08, 0x00, 0x00, 0x00, 0x7e, 0xff, 0xff, 0xff, 0x14, 0x00, 0x00, 0x00, 0x00, 0x00, 0x00, 0x02, 0x20, 0x00, 0x00, 0x00, 0x24, 0x00, 0x00, 0x00, 0x01, 0x00, 0x00, 0x00, 0xde, 0xfe, 0xff, 0xff, 0x00, 0x00, 0x00, 0x03, 0x01, 0x00, 0x00, 0x00, 0x02, 0x00, 0x00, 0x00, 0x02, 0x00, 0x00, 0x00, 0x01, 0x00, 0x00, 0x00, 0x1b, 0x00, 0x00, 0x00, 0x03, 0x00, 0x00, 0x00, 0x1a, 0x00, 0x00, 0x00, 0x0b, 0x00, 0x00, 0x00, 0x0a, 0x00, 0x00, 0x00, 0xce, 0xfe, 0xff, 0xff, 0x10, 0x00, 0x00, 0x00, 0x00, 0x00, 0x00, 0x01, 0x18, 0x00, 0x00, 0x00, 0x1c, 0x00, 0x00, 0x00, 0xc0, 0xfe, 0xff, 0xff, 0x00, 0x00, 0x00, 0x03, 0x01, 0x00, 0x00, 0x00, 0x01, 0x00, 0x00, 0x00, 0x01, 0x00, 0x00, 0x00, 0x1a, 0x00, 0x00, 0x00, 0x03, 0x00, 0x00, 0x00, 0x19, 0x00, 0x00, 0x00, 0x0d, 0x00, 0x00, 0x00, 0x0c, 0x00, 0x00, 0x00, 0x00, 0x00, 0x0e, 0x00, 0x18, 0x00, 0x14, 0x00, 0x10, 0x00, 0x0c, 0x00, 0x0b, 0x00, 0x04, 0x00, 0x0e, 0x00, 0x00, 0x00, 0x14, 0x00, 0x00, 0x00, 0x00, 0x00, 0x00, 0x02, 0x20, 0x00, 0x00, 0x00, 0x24, 0x00, 0x00, 0x00, 0x01, 0x00, 0x00, 0x00, 0x6e, 0xff, 0xff, 0xff, 0x00, 0x00, 0x00, 0x03, 0x01, 0x00, 0x00, 0x00, 0x02, 0x00, 0x00, 0x00, 0x02, 0x00, 0x00, 0x00, 0x01, 0x00, 0x00, 0x00, 0x19, 0x00, 0x00, 0x00, 0x03, 0x00, 0x00, 0x00, 0x18, 0x00, 0x00, 0x00, 0x0f, 0x00, 0x00, 0x00, 0x0e, 0x00, 0x00, 0x00, 0x5e, 0xff, 0xff, 0xff, 0x10, 0x00, 0x00, 0x00, 0x00, 0x00, 0x00, 0x01, 0x18, 0x00, 0x00, 0x00, 0x1c, 0x00, 0x00, 0x00, 0x50, 0xff, 0xff, 0xff, 0x00, 0x00, 0x00, 0x03, 0x01, 0x00, 0x00, 0x00, 0x01, 0x00, 0x00, 0x00, 0x01, 0x00, 0x00, 0x00, 0x18, 0x00, 0x00, 0x00, 0x03, 0x00, 0x00, 0x00, 0x17, 0x00, 0x00, 0x00, 0x11, 0x00, 0x00, 0x00, 0x10, 0x00, 0x00, 0x00, 0x00, 0x00, 0x0e, 0x00, 0x1a, 0x00, 0x14, 0x00, 0x10, 0x00, 0x0c, 0x00, 0x0b, 0x00, 0x04, 0x00, 0x0e, 0x00, 0x00, 0x00, 0x24, 0x00, 0x00, 0x00, 0x00, 0x00, 0x00, 0x02, 0x30, 0x00, 0x00, 0x00, 0x34, 0x00, 0x00, 0x00, 0x01, 0x00, 0x00, 0x00, 0x00, 0x00, 0x0e, 0x00, 0x14, 0x00, 0x00, 0x00, 0x10, 0x00, 0x0c, 0x00, 0x08, 0x00, 0x07, 0x00, 0x0e, 0x00, 0x00, 0x00, 0x00, 0x00, 0x00, 0x03, 0x01, 0x00, 0x00, 0x00, 0x02, 0x00, 0x00, 0x00, 0x02, 0x00, 0x00, 0x00, 0x01, 0x00, 0x00, 0x00, 0x17, 0x00, 0x00, 0x00, 0x03, 0x00, 0x00, 0x00, 0x16, 0x00, 0x00, 0x00, 0x13, 0x00, 0x00, 0x00, 0x12, 0x00, 0x00, 0x00, 0x00, 0x00, 0x0e, 0x00, 0x14, 0x00, 0x00, 0x00, 0x10, 0x00, 0x0c, 0x00, 0x0b, 0x00, 0x04, 0x00, 0x0e, 0x00, 0x00, 0x00, 0x1c, 0x00, 0x00, 0x00, 0x00, 0x00, 0x00, 0x01, 0x24, 0x00, 0x00, 0x00, 0x28, 0x00, 0x00, 0x00, 0x0c, 0x00, 0x10, 0x00, 0x00, 0x00, 0x0c, 0x00, 0x08, 0x00, 0x07, 0x00, 0x0c, 0x00, 0x00, 0x00, 0x00, 0x00, 0x00, 0x03, 0x01, 0x00, 0x00, 0x00, 0x01, 0x00, 0x00, 0x00, 0x01, 0x00, 0x00, 0x00, 0x16, 0x00, 0x00, 0x00, 0x03, 0x00, 0x00, 0x00, 0x00, 0x00, 0x00, 0x00, 0x15, 0x00, 0x00, 0x00, 0x14, 0x00, 0x00, 0x00, 0x01, 0x00, 0x00, 0x00, 0x21, 0x00, 0x00, 0x00, 0x01, 0x00, 0x00, 0x00, 0x00, 0x00, 0x00, 0x00, 0x22, 0x00, 0x00, 0x00, 0x8c, 0x16, 0x00, 0x00, 0x30, 0x16, 0x00, 0x00, 0xb8, 0x15, 0x00, 0x00, 0x54, 0x15, 0x00, 0x00, 0xf0, 0x14, 0x00, 0x00, 0x84, 0x14, 0x00, 0x00, 0x20, 0x14, 0x00, 0x00, 0xb4, 0x13, 0x00, 0x00, 0x50, 0x13, 0x00, 0x00, 0xe4, 0x12, 0x00, 0x00, 0x80, 0x12, 0x00, 0x00, 0x14, 0x12, 0x00, 0x00, 0xb0, 0x11, 0x00, 0x00, 0x44, 0x11, 0x00, 0x00, 0xe0, 0x10, 0x00, 0x00, 0x74, 0x10, 0x00, 0x00, 0x10, 0x10, 0x00, 0x00, 0xa4, 0x0f, 0x00, 0x00, 0x40, 0x0f, 0x00, 0x00, 0xd4, 0x0e, 0x00, 0x00, 0x70, 0x0e, 0x00, 0x00, 0x04, 0x0e, 0x00, 0x00, 0xd8, 0x0c, 0x00, 0x00, 0x3c, 0x0b, 0x00, 0x00, 0x10, 0x0a, 0x00, 0x00, 0x74, 0x08, 0x00, 0x00, 0x48, 0x07, 0x00, 0x00, 0xac, 0x05, 0x00, 0x00, 0x80, 0x04, 0x00, 0x00, 0xe4, 0x02, 0x00, 0x00, 0xb8, 0x01, 0x00, 0x00, 0x24, 0x01, 0x00, 0x00, 0x80, 0x00, 0x00, 0x00, 0x04, 0x00, 0x00, 0x00, 0x12, 0xea, 0xff, 0xff, 0x00, 0x00, 0x00, 0x01, 0x18, 0x00, 0x00, 0x00, 0x20, 0x00, 0x00, 0x00, 0x3c, 0x00, 0x00, 0x00, 0x22, 0x00, 0x00, 0x00, 0x00, 0x00, 0x00, 0x09, 0x50, 0x00, 0x00, 0x00, 0x02, 0x00, 0x00, 0x00, 0xff, 0xff, 0xff, 0xff, 0x04, 0x00, 0x00, 0x00, 0xf4, 0xe9, 0xff, 0xff, 0x08, 0x00, 0x00, 0x00, 0x10, 0x00, 0x00, 0x00, 0x01, 0x00, 0x00, 0x00, 0x80, 0xff, 0xff, 0xff, 0xff, 0xff, 0xff, 0xff, 0x01, 0x00, 0x00, 0x00, 0x00, 0x00, 0x80, 0x3b, 0x1b, 0x00, 0x00, 0x00, 0x53, 0x74, 0x61, 0x74, 0x65, 0x66, 0x75, 0x6c, 0x50, 0x61, 0x72, 0x74, 0x69, 0x74, 0x69, 0x6f, 0x6e, 0x65, 0x64, 0x43, 0x61, 0x6c, 0x6c, 0x5f, 0x31, 0x3a, 0x30, 0x00, 0x02, 0x00, 0x00, 0x00, 0x01, 0x00, 0x00, 0x00, 0x04, 0x00, 0x00, 0x00, 0x8a, 0xea, 0xff, 0xff, 0x00, 0x00, 0x00, 0x01, 0x18, 0x00, 0x00, 0x00, 0x20, 0x00, 0x00, 0x00, 0x3c, 0x00, 0x00, 0x00, 0x21, 0x00, 0x00, 0x00, 0x00, 0x00, 0x00, 0x09, 0x78, 0x00, 0x00, 0x00, 0x02, 0x00, 0x00, 0x00, 0xff, 0xff, 0xff, 0xff, 0x04, 0x00, 0x00, 0x00, 0x6c, 0xea, 0xff, 0xff, 0x08, 0x00, 0x00, 0x00, 0x10, 0x00, 0x00, 0x00, 0x01, 0x00, 0x00, 0x00, 0xef, 0xff, 0xff, 0xff, 0xff, 0xff, 0xff, 0xff, 0x01, 0x00, 0x00, 0x00, 0x5f, 0x24, 0x8d, 0x3d, 0x40, 0x00, 0x00, 0x00, 0x66, 0x75, 0x6e, 0x63, 0x74, 0x69, 0x6f, 0x6e, 0x61, 0x6c, 0x5f, 0x32, 0x5f, 0x31, 0x2f, 0x64, 0x65, 0x6e, 0x73, 0x65, 0x5f, 0x32, 0x5f, 0x31, 0x2f, 0x4d, 0x61, 0x74, 0x4d, 0x75, 0x6c, 0x3b, 0x66, 0x75, 0x6e, 0x63, 0x74, 0x69, 0x6f, 0x6e, 0x61, 0x6c, 0x5f, 0x32, 0x5f, 0x31, 0x2f, 0x64, 0x65, 0x6e, 0x73, 0x65, 0x5f, 0x32, 0x5f, 0x31, 0x2f, 0x42, 0x69, 0x61, 0x73, 0x41, 0x64, 0x64, 0x00, 0x00, 0x00, 0x00, 0x02, 0x00, 0x00, 0x00, 0x01, 0x00, 0x00, 0x00, 0x04, 0x00, 0x00, 0x00, 0x2a, 0xeb, 0xff, 0xff, 0x00, 0x00, 0x00, 0x01, 0x18, 0x00, 0x00, 0x00, 0x20, 0x00, 0x00, 0x00, 0x3c, 0x00, 0x00, 0x00, 0x20, 0x00, 0x00, 0x00, 0x00, 0x00, 0x00, 0x09, 0x68, 0x00, 0x00, 0x00, 0x02, 0x00, 0x00, 0x00, 0xff, 0xff, 0xff, 0xff, 0x30, 0x00, 0x00, 0x00, 0x0c, 0xeb, 0xff, 0xff, 0x08, 0x00, 0x00, 0x00, 0x10, 0x00, 0x00, 0x00, 0x01, 0x00, 0x00, 0x00, 0x80, 0xff, 0xff, 0xff, 0xff, 0xff, 0xff, 0xff, 0x01, 0x00, 0x00, 0x00, 0xfe, 0x41, 0x2d, 0x3c, 0x30, 0x00, 0x00, 0x00, 0x66, 0x75, 0x6e, 0x63, 0x74, 0x69, 0x6f, 0x6e, 0x61, 0x6c, 0x5f, 0x32, 0x5f, 0x31, 0x2f, 0x67, 0x6c, 0x6f, 0x62, 0x61, 0x6c, 0x5f, 0x61, 0x76, 0x65, 0x72, 0x61, 0x67, 0x65, 0x5f, 0x70, 0x6f, 0x6f, 0x6c, 0x69, 0x6e, 0x67, 0x32, 0x64, 0x5f, 0x32, 0x5f, 0x31, 0x2f, 0x4d, 0x65, 0x61, 0x6e, 0x00, 0x00, 0x00, 0x00, 0x02, 0x00, 0x00, 0x00, 0x01, 0x00, 0x00, 0x00, 0x30, 0x00, 0x00, 0x00, 0xba, 0xeb, 0xff, 0xff, 0x00, 0x00, 0x00, 0x01, 0x18, 0x00, 0x00, 0x00, 0x28, 0x00, 0x00, 0x00, 0x48, 0x00, 0x00, 0x00, 0x1f, 0x00, 0x00, 0x00, 0x00, 0x00, 0x00, 0x09, 0xf8, 0x00, 0x00, 0x00, 0x04, 0x00, 0x00, 0x00, 0xff, 0xff, 0xff, 0xff, 0x06, 0x00, 0x00, 0x00, 0x06, 0x00, 0x00, 0x00, 0x30, 0x00, 0x00, 0x00, 0xa4, 0xeb, 0xff, 0xff, 0x08, 0x00, 0x00, 0x00, 0x14, 0x00, 0x00, 0x00, 0x01, 0x00, 0x00, 0x00, 0x80, 0xff, 0xff, 0xff, 0xff, 0xff, 0xff, 0xff, 0x00, 0x00, 0x00, 0x00, 0x01, 0x00, 0x00, 0x00, 0xc1, 0xc0, 0xc0, 0x3c, 0xb4, 0x00, 0x00, 0x00, 0x66, 0x75, 0x6e, 0x63, 0x74, 0x69, 0x6f, 0x6e, 0x61, 0x6c, 0x5f, 0x32, 0x5f, 0x31, 0x2f, 0x72, 0x65, 0x5f, 0x6c, 0x75, 0x5f, 0x32, 0x36, 0x5f, 0x31, 0x2f, 0x52, 0x65, 0x6c, 0x75, 0x36, 0x3b, 0x66, 0x75, 0x6e, 0x63, 0x74, 0x69, 0x6f, 0x6e, 0x61, 0x6c, 0x5f, 0x32, 0x5f, 0x31, 0x2f, 0x62, 0x61, 0x74, 0x63, 0x68, 0x5f, 0x6e, 0x6f, 0x72, 0x6d, 0x61, 0x6c, 0x69, 0x7a, 0x61, 0x74, 0x69, 0x6f, 0x6e, 0x5f, 0x32, 0x36, 0x5f, 0x31, 0x2f, 0x62, 0x61, 0x74, 0x63, 0x68, 0x6e, 0x6f, 0x72, 0x6d, 0x2f, 0x61, 0x64, 0x64, 0x5f, 0x31, 0x3b, 0x66, 0x75, 0x6e, 0x63, 0x74, 0x69, 0x6f, 0x6e, 0x61, 0x6c, 0x5f, 0x32, 0x5f, 0x31, 0x2f, 0x63, 0x6f, 0x6e, 0x76, 0x32, 0x64, 0x5f, 0x31, 0x34, 0x5f, 0x31, 0x2f, 0x63, 0x6f, 0x6e, 0x76, 0x6f, 0x6c, 0x75, 0x74, 0x69, 0x6f, 0x6e, 0x3b, 0x66, 0x75, 0x6e, 0x63, 0x74, 0x69, 0x6f, 0x6e, 0x61, 0x6c, 0x5f, 0x32, 0x5f, 0x31, 0x2f, 0x62, 0x61, 0x74, 0x63, 0x68, 0x5f, 0x6e, 0x6f, 0x72, 0x6d, 0x61, 0x6c, 0x69, 0x7a, 0x61, 0x74, 0x69, 0x6f, 0x6e, 0x5f, 0x32, 0x36, 0x5f, 0x31, 0x2f, 0x62, 0x61, 0x74, 0x63, 0x68, 0x6e, 0x6f, 0x72, 0x6d, 0x2f, 0x73, 0x75, 0x62, 0x00, 0x00, 0x00, 0x00, 0x04, 0x00, 0x00, 0x00, 0x01, 0x00, 0x00, 0x00, 0x06, 0x00, 0x00, 0x00, 0x06, 0x00, 0x00, 0x00, 0x30, 0x00, 0x00, 0x00, 0xe2, 0xec, 0xff, 0xff, 0x00, 0x00, 0x00, 0x01, 0x18, 0x00, 0x00, 0x00, 0x28, 0x00, 0x00, 0x00, 0x44, 0x00, 0x00, 0x00, 0x1e, 0x00, 0x00, 0x00, 0x00, 0x00, 0x00, 0x09, 0x68, 0x01, 0x00, 0x00, 0x04, 0x00, 0x00, 0x00, 0xff, 0xff, 0xff, 0xff, 0x06, 0x00, 0x00, 0x00, 0x06, 0x00, 0x00, 0x00, 0x20, 0x00, 0x00, 0x00, 0xcc, 0xec, 0xff, 0xff, 0x08, 0x00, 0x00, 0x00, 0x10, 0x00, 0x00, 0x00, 0x01, 0x00, 0x00, 0x00, 0x80, 0xff, 0xff, 0xff, 0xff, 0xff, 0xff, 0xff, 0x01, 0x00, 0x00, 0x00, 0xc1, 0xc0, 0xc0, 0x3c, 0x2a, 0x01, 0x00, 0x00, 0x66, 0x75, 0x6e, 0x63, 0x74, 0x69, 0x6f, 0x6e, 0x61, 0x6c, 0x5f, 0x32, 0x5f, 0x31, 0x2f, 0x72, 0x65, 0x5f, 0x6c, 0x75, 0x5f, 0x32, 0x35, 0x5f, 0x31, 0x2f, 0x52, 0x65, 0x6c, 0x75, 0x36, 0x3b, 0x66, 0x75, 0x6e, 0x63, 0x74, 0x69, 0x6f, 0x6e, 0x61, 0x6c, 0x5f, 0x32, 0x5f, 0x31, 0x2f, 0x62, 0x61, 0x74, 0x63, 0x68, 0x5f, 0x6e, 0x6f, 0x72, 0x6d, 0x61, 0x6c, 0x69, 0x7a, 0x61, 0x74, 0x69, 0x6f, 0x6e, 0x5f, 0x32, 0x35, 0x5f, 0x31, 0x2f, 0x62, 0x61, 0x74, 0x63, 0x68, 0x6e, 0x6f, 0x72, 0x6d, 0x2f, 0x61, 0x64, 0x64, 0x5f, 0x31, 0x3b, 0x66, 0x75, 0x6e, 0x63, 0x74, 0x69, 0x6f, 0x6e, 0x61, 0x6c, 0x5f, 0x32, 0x5f, 0x31, 0x2f, 0x62, 0x61, 0x74, 0x63, 0x68, 0x5f, 0x6e, 0x6f, 0x72, 0x6d, 0x61, 0x6c, 0x69, 0x7a, 0x61, 0x74, 0x69, 0x6f, 0x6e, 0x5f, 0x32, 0x35, 0x5f, 0x31, 0x2f, 0x62, 0x61, 0x74, 0x63, 0x68, 0x6e, 0x6f, 0x72, 0x6d, 0x2f, 0x6d, 0x75, 0x6c, 0x5f, 0x31, 0x3b, 0x66, 0x75, 0x6e, 0x63, 0x74, 0x69, 0x6f, 0x6e, 0x61, 0x6c, 0x5f, 0x32, 0x5f, 0x31, 0x2f, 0x64, 0x65, 0x70, 0x74, 0x68, 0x77, 0x69, 0x73, 0x65, 0x5f, 0x63, 0x6f, 0x6e, 0x76, 0x32, 0x64, 0x5f, 0x31, 0x31, 0x5f, 0x31, 0x2f, 0x64, 0x65, 0x70, 0x74, 0x68, 0x77, 0x69, 0x73, 0x65, 0x3b, 0x66, 0x75, 0x6e, 0x63, 0x74, 0x69, 0x6f, 0x6e, 0x61, 0x6c, 0x5f, 0x32, 0x5f, 0x31, 0x2f, 0x62, 0x61, 0x74, 0x63, 0x68, 0x5f, 0x6e, 0x6f, 0x72, 0x6d, 0x61, 0x6c, 0x69, 0x7a, 0x61, 0x74, 0x69, 0x6f, 0x6e, 0x5f, 0x32, 0x35, 0x5f, 0x31, 0x2f, 0x62, 0x61, 0x74, 0x63, 0x68, 0x6e, 0x6f, 0x72, 0x6d, 0x2f, 0x6d, 0x75, 0x6c, 0x3b, 0x66, 0x75, 0x6e, 0x63, 0x74, 0x69, 0x6f, 0x6e, 0x61, 0x6c, 0x5f, 0x32, 0x5f, 0x31, 0x2f, 0x62, 0x61, 0x74, 0x63, 0x68, 0x5f, 0x6e, 0x6f, 0x72, 0x6d, 0x61, 0x6c, 0x69, 0x7a, 0x61, 0x74, 0x69, 0x6f, 0x6e, 0x5f, 0x32, 0x35, 0x5f, 0x31, 0x2f, 0x62, 0x61, 0x74, 0x63, 0x68, 0x6e, 0x6f, 0x72, 0x6d, 0x2f, 0x73, 0x75, 0x62, 0x00, 0x00, 0x04, 0x00, 0x00, 0x00, 0x01, 0x00, 0x00, 0x00, 0x06, 0x00, 0x00, 0x00, 0x06, 0x00, 0x00, 0x00, 0x20, 0x00, 0x00, 0x00, 0x7a, 0xee, 0xff, 0xff, 0x00, 0x00, 0x00, 0x01, 0x18, 0x00, 0x00, 0x00, 0x28, 0x00, 0x00, 0x00, 0x48, 0x00, 0x00, 0x00, 0x1d, 0x00, 0x00, 0x00, 0x00, 0x00, 0x00, 0x09, 0xf8, 0x00, 0x00, 0x00, 0x04, 0x00, 0x00, 0x00, 0xff, 0xff, 0xff, 0xff, 0x0c, 0x00, 0x00, 0x00, 0x0c, 0x00, 0x00, 0x00, 0x20, 0x00, 0x00, 0x00, 0x64, 0xee, 0xff, 0xff, 0x08, 0x00, 0x00, 0x00, 0x14, 0x00, 0x00, 0x00, 0x01, 0x00, 0x00, 0x00, 0x80, 0xff, 0xff, 0xff, 0xff, 0xff, 0xff, 0xff, 0x00, 0x00, 0x00, 0x00, 0x01, 0x00, 0x00, 0x00, 0xc1, 0xc0, 0xc0, 0x3c, 0xb4, 0x00, 0x00, 0x00, 0x66, 0x75, 0x6e, 0x63, 0x74, 0x69, 0x6f, 0x6e, 0x61, 0x6c, 0x5f, 0x32, 0x5f, 0x31, 0x2f, 0x72, 0x65, 0x5f, 0x6c, 0x75, 0x5f, 0x32, 0x34, 0x5f, 0x31, 0x2f, 0x52, 0x65, 0x6c, 0x75, 0x36, 0x3b, 0x66, 0x75, 0x6e, 0x63, 0x74, 0x69, 0x6f, 0x6e, 0x61, 0x6c, 0x5f, 0x32, 0x5f, 0x31, 0x2f, 0x62, 0x61, 0x74, 0x63, 0x68, 0x5f, 0x6e, 0x6f, 0x72, 0x6d, 0x61, 0x6c, 0x69, 0x7a, 0x61, 0x74, 0x69, 0x6f, 0x6e, 0x5f, 0x32, 0x34, 0x5f, 0x31, 0x2f, 0x62, 0x61, 0x74, 0x63, 0x68, 0x6e, 0x6f, 0x72, 0x6d, 0x2f, 0x61, 0x64, 0x64, 0x5f, 0x31, 0x3b, 0x66, 0x75, 0x6e, 0x63, 0x74, 0x69, 0x6f, 0x6e, 0x61, 0x6c, 0x5f, 0x32, 0x5f, 0x31, 0x2f, 0x63, 0x6f, 0x6e, 0x76, 0x32, 0x64, 0x5f, 0x31, 0x33, 0x5f, 0x31, 0x2f, 0x63, 0x6f, 0x6e, 0x76, 0x6f, 0x6c, 0x75, 0x74, 0x69, 0x6f, 0x6e, 0x3b, 0x66, 0x75, 0x6e, 0x63, 0x74, 0x69, 0x6f, 0x6e, 0x61, 0x6c, 0x5f, 0x32, 0x5f, 0x31, 0x2f, 0x62, 0x61, 0x74, 0x63, 0x68, 0x5f, 0x6e, 0x6f, 0x72, 0x6d, 0x61, 0x6c, 0x69, 0x7a, 0x61, 0x74, 0x69, 0x6f, 0x6e, 0x5f, 0x32, 0x34, 0x5f, 0x31, 0x2f, 0x62, 0x61, 0x74, 0x63, 0x68, 0x6e, 0x6f, 0x72, 0x6d, 0x2f, 0x73, 0x75, 0x62, 0x00, 0x00, 0x00, 0x00, 0x04, 0x00, 0x00, 0x00, 0x01, 0x00, 0x00, 0x00, 0x0c, 0x00, 0x00, 0x00, 0x0c, 0x00, 0x00, 0x00, 0x20, 0x00, 0x00, 0x00, 0xa2, 0xef, 0xff, 0xff, 0x00, 0x00, 0x00, 0x01, 0x18, 0x00, 0x00, 0x00, 0x28, 0x00, 0x00, 0x00, 0x44, 0x00, 0x00, 0x00, 0x1c, 0x00, 0x00, 0x00, 0x00, 0x00, 0x00, 0x09, 0x68, 0x01, 0x00, 0x00, 0x04, 0x00, 0x00, 0x00, 0xff, 0xff, 0xff, 0xff, 0x0c, 0x00, 0x00, 0x00, 0x0c, 0x00, 0x00, 0x00, 0x18, 0x00, 0x00, 0x00, 0x8c, 0xef, 0xff, 0xff, 0x08, 0x00, 0x00, 0x00, 0x10, 0x00, 0x00, 0x00, 0x01, 0x00, 0x00, 0x00, 0x80, 0xff, 0xff, 0xff, 0xff, 0xff, 0xff, 0xff, 0x01, 0x00, 0x00, 0x00, 0xc1, 0xc0, 0xc0, 0x3c, 0x2a, 0x01, 0x00, 0x00, 0x66, 0x75, 0x6e, 0x63, 0x74, 0x69, 0x6f, 0x6e, 0x61, 0x6c, 0x5f, 0x32, 0x5f, 0x31, 0x2f, 0x72, 0x65, 0x5f, 0x6c, 0x75, 0x5f, 0x32, 0x33, 0x5f, 0x31, 0x2f, 0x52, 0x65, 0x6c, 0x75, 0x36, 0x3b, 0x66, 0x75, 0x6e, 0x63, 0x74, 0x69, 0x6f, 0x6e, 0x61, 0x6c, 0x5f, 0x32, 0x5f, 0x31, 0x2f, 0x62, 0x61, 0x74, 0x63, 0x68, 0x5f, 0x6e, 0x6f, 0x72, 0x6d, 0x61, 0x6c, 0x69, 0x7a, 0x61, 0x74, 0x69, 0x6f, 0x6e, 0x5f, 0x32, 0x33, 0x5f, 0x31, 0x2f, 0x62, 0x61, 0x74, 0x63, 0x68, 0x6e, 0x6f, 0x72, 0x6d, 0x2f, 0x61, 0x64, 0x64, 0x5f, 0x31, 0x3b, 0x66, 0x75, 0x6e, 0x63, 0x74, 0x69, 0x6f, 0x6e, 0x61, 0x6c, 0x5f, 0x32, 0x5f, 0x31, 0x2f, 0x62, 0x61, 0x74, 0x63, 0x68, 0x5f, 0x6e, 0x6f, 0x72, 0x6d, 0x61, 0x6c, 0x69, 0x7a, 0x61, 0x74, 0x69, 0x6f, 0x6e, 0x5f, 0x32, 0x33, 0x5f, 0x31, 0x2f, 0x62, 0x61, 0x74, 0x63, 0x68, 0x6e, 0x6f, 0x72, 0x6d, 0x2f, 0x6d, 0x75, 0x6c, 0x5f, 0x31, 0x3b, 0x66, 0x75, 0x6e, 0x63, 0x74, 0x69, 0x6f, 0x6e, 0x61, 0x6c, 0x5f, 0x32, 0x5f, 0x31, 0x2f, 0x64, 0x65, 0x70, 0x74, 0x68, 0x77, 0x69, 0x73, 0x65, 0x5f, 0x63, 0x6f, 0x6e, 0x76, 0x32, 0x64, 0x5f, 0x31, 0x30, 0x5f, 0x31, 0x2f, 0x64, 0x65, 0x70, 0x74, 0x68, 0x77, 0x69, 0x73, 0x65, 0x3b, 0x66, 0x75, 0x6e, 0x63, 0x74, 0x69, 0x6f, 0x6e, 0x61, 0x6c, 0x5f, 0x32, 0x5f, 0x31, 0x2f, 0x62, 0x61, 0x74, 0x63, 0x68, 0x5f, 0x6e, 0x6f, 0x72, 0x6d, 0x61, 0x6c, 0x69, 0x7a, 0x61, 0x74, 0x69, 0x6f, 0x6e, 0x5f, 0x32, 0x33, 0x5f, 0x31, 0x2f, 0x62, 0x61, 0x74, 0x63, 0x68, 0x6e, 0x6f, 0x72, 0x6d, 0x2f, 0x6d, 0x75, 0x6c, 0x3b, 0x66, 0x75, 0x6e, 0x63, 0x74, 0x69, 0x6f, 0x6e, 0x61, 0x6c, 0x5f, 0x32, 0x5f, 0x31, 0x2f, 0x62, 0x61, 0x74, 0x63, 0x68, 0x5f, 0x6e, 0x6f, 0x72, 0x6d, 0x61, 0x6c, 0x69, 0x7a, 0x61, 0x74, 0x69, 0x6f, 0x6e, 0x5f, 0x32, 0x33, 0x5f, 0x31, 0x2f, 0x62, 0x61, 0x74, 0x63, 0x68, 0x6e, 0x6f, 0x72, 0x6d, 0x2f, 0x73, 0x75, 0x62, 0x00, 0x00, 0x04, 0x00, 0x00, 0x00, 0x01, 0x00, 0x00, 0x00, 0x0c, 0x00, 0x00, 0x00, 0x0c, 0x00, 0x00, 0x00, 0x18, 0x00, 0x00, 0x00, 0x3a, 0xf1, 0xff, 0xff, 0x00, 0x00, 0x00, 0x01, 0x18, 0x00, 0x00, 0x00, 0x28, 0x00, 0x00, 0x00, 0x48, 0x00, 0x00, 0x00, 0x1b, 0x00, 0x00, 0x00, 0x00, 0x00, 0x00, 0x09, 0xf8, 0x00, 0x00, 0x00, 0x04, 0x00, 0x00, 0x00, 0xff, 0xff, 0xff, 0xff, 0x18, 0x00, 0x00, 0x00, 0x18, 0x00, 0x00, 0x00, 0x18, 0x00, 0x00, 0x00, 0x24, 0xf1, 0xff, 0xff, 0x08, 0x00, 0x00, 0x00, 0x14, 0x00, 0x00, 0x00, 0x01, 0x00, 0x00, 0x00, 0x80, 0xff, 0xff, 0xff, 0xff, 0xff, 0xff, 0xff, 0x00, 0x00, 0x00, 0x00, 0x01, 0x00, 0x00, 0x00, 0xc1, 0xc0, 0xc0, 0x3c, 0xb4, 0x00, 0x00, 0x00, 0x66, 0x75, 0x6e, 0x63, 0x74, 0x69, 0x6f, 0x6e, 0x61, 0x6c, 0x5f, 0x32, 0x5f, 0x31, 0x2f, 0x72, 0x65, 0x5f, 0x6c, 0x75, 0x5f, 0x32, 0x32, 0x5f, 0x31, 0x2f, 0x52, 0x65, 0x6c, 0x75, 0x36, 0x3b, 0x66, 0x75, 0x6e, 0x63, 0x74, 0x69, 0x6f, 0x6e, 0x61, 0x6c, 0x5f, 0x32, 0x5f, 0x31, 0x2f, 0x62, 0x61, 0x74, 0x63, 0x68, 0x5f, 0x6e, 0x6f, 0x72, 0x6d, 0x61, 0x6c, 0x69, 0x7a, 0x61, 0x74, 0x69, 0x6f, 0x6e, 0x5f, 0x32, 0x32, 0x5f, 0x31, 0x2f, 0x62, 0x61, 0x74, 0x63, 0x68, 0x6e, 0x6f, 0x72, 0x6d, 0x2f, 0x61, 0x64, 0x64, 0x5f, 0x31, 0x3b, 0x66, 0x75, 0x6e, 0x63, 0x74, 0x69, 0x6f, 0x6e, 0x61, 0x6c, 0x5f, 0x32, 0x5f, 0x31, 0x2f, 0x63, 0x6f, 0x6e, 0x76, 0x32, 0x64, 0x5f, 0x31, 0x32, 0x5f, 0x31, 0x2f, 0x63, 0x6f, 0x6e, 0x76, 0x6f, 0x6c, 0x75, 0x74, 0x69, 0x6f, 0x6e, 0x3b, 0x66, 0x75, 0x6e, 0x63, 0x74, 0x69, 0x6f, 0x6e, 0x61, 0x6c, 0x5f, 0x32, 0x5f, 0x31, 0x2f, 0x62, 0x61, 0x74, 0x63, 0x68, 0x5f, 0x6e, 0x6f, 0x72, 0x6d, 0x61, 0x6c, 0x69, 0x7a, 0x61, 0x74, 0x69, 0x6f, 0x6e, 0x5f, 0x32, 0x32, 0x5f, 0x31, 0x2f, 0x62, 0x61, 0x74, 0x63, 0x68, 0x6e, 0x6f, 0x72, 0x6d, 0x2f, 0x73, 0x75, 0x62, 0x00, 0x00, 0x00, 0x00, 0x04, 0x00, 0x00, 0x00, 0x01, 0x00, 0x00, 0x00, 0x18, 0x00, 0x00, 0x00, 0x18, 0x00, 0x00, 0x00, 0x18, 0x00, 0x00, 0x00, 0x62, 0xf2, 0xff, 0xff, 0x00, 0x00, 0x00, 0x01, 0x18, 0x00, 0x00, 0x00, 0x28, 0x00, 0x00, 0x00, 0x44, 0x00, 0x00, 0x00, 0x1a, 0x00, 0x00, 0x00, 0x00, 0x00, 0x00, 0x09, 0x68, 0x01, 0x00, 0x00, 0x04, 0x00, 0x00, 0x00, 0xff, 0xff, 0xff, 0xff, 0x18, 0x00, 0x00, 0x00, 0x18, 0x00, 0x00, 0x00, 0x10, 0x00, 0x00, 0x00, 0x4c, 0xf2, 0xff, 0xff, 0x08, 0x00, 0x00, 0x00, 0x10, 0x00, 0x00, 0x00, 0x01, 0x00, 0x00, 0x00, 0x80, 0xff, 0xff, 0xff, 0xff, 0xff, 0xff, 0xff, 0x01, 0x00, 0x00, 0x00, 0xc1, 0xc0, 0xc0, 0x3c, 0x29, 0x01, 0x00, 0x00, 0x66, 0x75, 0x6e, 0x63, 0x74, 0x69, 0x6f, 0x6e, 0x61, 0x6c, 0x5f, 0x32, 0x5f, 0x31, 0x2f, 0x72, 0x65, 0x5f, 0x6c, 0x75, 0x5f, 0x32, 0x31, 0x5f, 0x31, 0x2f, 0x52, 0x65, 0x6c, 0x75, 0x36, 0x3b, 0x66, 0x75, 0x6e, 0x63, 0x74, 0x69, 0x6f, 0x6e, 0x61, 0x6c, 0x5f, 0x32, 0x5f, 0x31, 0x2f, 0x62, 0x61, 0x74, 0x63, 0x68, 0x5f, 0x6e, 0x6f, 0x72, 0x6d, 0x61, 0x6c, 0x69, 0x7a, 0x61, 0x74, 0x69, 0x6f, 0x6e, 0x5f, 0x32, 0x31, 0x5f, 0x31, 0x2f, 0x62, 0x61, 0x74, 0x63, 0x68, 0x6e, 0x6f, 0x72, 0x6d, 0x2f, 0x61, 0x64, 0x64, 0x5f, 0x31, 0x3b, 0x66, 0x75, 0x6e, 0x63, 0x74, 0x69, 0x6f, 0x6e, 0x61, 0x6c, 0x5f, 0x32, 0x5f, 0x31, 0x2f, 0x62, 0x61, 0x74, 0x63, 0x68, 0x5f, 0x6e, 0x6f, 0x72, 0x6d, 0x61, 0x6c, 0x69, 0x7a, 0x61, 0x74, 0x69, 0x6f, 0x6e, 0x5f, 0x32, 0x31, 0x5f, 0x31, 0x2f, 0x62, 0x61, 0x74, 0x63, 0x68, 0x6e, 0x6f, 0x72, 0x6d, 0x2f, 0x6d, 0x75, 0x6c, 0x5f, 0x31, 0x3b, 0x66, 0x75, 0x6e, 0x63, 0x74, 0x69, 0x6f, 0x6e, 0x61, 0x6c, 0x5f, 0x32, 0x5f, 0x31, 0x2f, 0x64, 0x65, 0x70, 0x74, 0x68, 0x77, 0x69, 0x73, 0x65, 0x5f, 0x63, 0x6f, 0x6e, 0x76, 0x32, 0x64, 0x5f, 0x39, 0x5f, 0x31, 0x2f, 0x64, 0x65, 0x70, 0x74, 0x68, 0x77, 0x69, 0x73, 0x65, 0x3b, 0x66, 0x75, 0x6e, 0x63, 0x74, 0x69, 0x6f, 0x6e, 0x61, 0x6c, 0x5f, 0x32, 0x5f, 0x31, 0x2f, 0x62, 0x61, 0x74, 0x63, 0x68, 0x5f, 0x6e, 0x6f, 0x72, 0x6d, 0x61, 0x6c, 0x69, 0x7a, 0x61, 0x74, 0x69, 0x6f, 0x6e, 0x5f, 0x32, 0x31, 0x5f, 0x31, 0x2f, 0x62, 0x61, 0x74, 0x63, 0x68, 0x6e, 0x6f, 0x72, 0x6d, 0x2f, 0x6d, 0x75, 0x6c, 0x3b, 0x66, 0x75, 0x6e, 0x63, 0x74, 0x69, 0x6f, 0x6e, 0x61, 0x6c, 0x5f, 0x32, 0x5f, 0x31, 0x2f, 0x62, 0x61, 0x74, 0x63, 0x68, 0x5f, 0x6e, 0x6f, 0x72, 0x6d, 0x61, 0x6c, 0x69, 0x7a, 0x61, 0x74, 0x69, 0x6f, 0x6e, 0x5f, 0x32, 0x31, 0x5f, 0x31, 0x2f, 0x62, 0x61, 0x74, 0x63, 0x68, 0x6e, 0x6f, 0x72, 0x6d, 0x2f, 0x73, 0x75, 0x62, 0x00, 0x00, 0x00, 0x04, 0x00, 0x00, 0x00, 0x01, 0x00, 0x00, 0x00, 0x18, 0x00, 0x00, 0x00, 0x18, 0x00, 0x00, 0x00, 0x10, 0x00, 0x00, 0x00, 0xfa, 0xf3, 0xff, 0xff, 0x00, 0x00, 0x00, 0x01, 0x18, 0x00, 0x00, 0x00, 0x28, 0x00, 0x00, 0x00, 0x48, 0x00, 0x00, 0x00, 0x19, 0x00, 0x00, 0x00, 0x00, 0x00, 0x00, 0x09, 0xf8, 0x00, 0x00, 0x00, 0x04, 0x00, 0x00, 0x00, 0xff, 0xff, 0xff, 0xff, 0x30, 0x00, 0x00, 0x00, 0x30, 0x00, 0x00, 0x00, 0x10, 0x00, 0x00, 0x00, 0xe4, 0xf3, 0xff, 0xff, 0x08, 0x00, 0x00, 0x00, 0x14, 0x00, 0x00, 0x00, 0x01, 0x00, 0x00, 0x00, 0x80, 0xff, 0xff, 0xff, 0xff, 0xff, 0xff, 0xff, 0x00, 0x00, 0x00, 0x00, 0x01, 0x00, 0x00, 0x00, 0xc1, 0xc0, 0xc0, 0x3c, 0xb4, 0x00, 0x00, 0x00, 0x66, 0x75, 0x6e, 0x63, 0x74, 0x69, 0x6f, 0x6e, 0x61, 0x6c, 0x5f, 0x32, 0x5f, 0x31, 0x2f, 0x72, 0x65, 0x5f, 0x6c, 0x75, 0x5f, 0x32, 0x30, 0x5f, 0x31, 0x2f, 0x52, 0x65, 0x6c, 0x75, 0x36, 0x3b, 0x66, 0x75, 0x6e, 0x63, 0x74, 0x69, 0x6f, 0x6e, 0x61, 0x6c, 0x5f, 0x32, 0x5f, 0x31, 0x2f, 0x62, 0x61, 0x74, 0x63, 0x68, 0x5f, 0x6e, 0x6f, 0x72, 0x6d, 0x61, 0x6c, 0x69, 0x7a, 0x61, 0x74, 0x69, 0x6f, 0x6e, 0x5f, 0x32, 0x30, 0x5f, 0x31, 0x2f, 0x62, 0x61, 0x74, 0x63, 0x68, 0x6e, 0x6f, 0x72, 0x6d, 0x2f, 0x61, 0x64, 0x64, 0x5f, 0x31, 0x3b, 0x66, 0x75, 0x6e, 0x63, 0x74, 0x69, 0x6f, 0x6e, 0x61, 0x6c, 0x5f, 0x32, 0x5f, 0x31, 0x2f, 0x63, 0x6f, 0x6e, 0x76, 0x32, 0x64, 0x5f, 0x31, 0x31, 0x5f, 0x31, 0x2f, 0x63, 0x6f, 0x6e, 0x76, 0x6f, 0x6c, 0x75, 0x74, 0x69, 0x6f, 0x6e, 0x3b, 0x66, 0x75, 0x6e, 0x63, 0x74, 0x69, 0x6f, 0x6e, 0x61, 0x6c, 0x5f, 0x32, 0x5f, 0x31, 0x2f, 0x62, 0x61, 0x74, 0x63, 0x68, 0x5f, 0x6e, 0x6f, 0x72, 0x6d, 0x61, 0x6c, 0x69, 0x7a, 0x61, 0x74, 0x69, 0x6f, 0x6e, 0x5f, 0x32, 0x30, 0x5f, 0x31, 0x2f, 0x62, 0x61, 0x74, 0x63, 0x68, 0x6e, 0x6f, 0x72, 0x6d, 0x2f, 0x73, 0x75, 0x62, 0x00, 0x00, 0x00, 0x00, 0x04, 0x00, 0x00, 0x00, 0x01, 0x00, 0x00, 0x00, 0x30, 0x00, 0x00, 0x00, 0x30, 0x00, 0x00, 0x00, 0x10, 0x00, 0x00, 0x00, 0x22, 0xf5, 0xff, 0xff, 0x00, 0x00, 0x00, 0x01, 0x18, 0x00, 0x00, 0x00, 0x28, 0x00, 0x00, 0x00, 0x44, 0x00, 0x00, 0x00, 0x18, 0x00, 0x00, 0x00, 0x00, 0x00, 0x00, 0x09, 0x68, 0x01, 0x00, 0x00, 0x04, 0x00, 0x00, 0x00, 0xff, 0xff, 0xff, 0xff, 0x30, 0x00, 0x00, 0x00, 0x30, 0x00, 0x00, 0x00, 0x08, 0x00, 0x00, 0x00, 0x0c, 0xf5, 0xff, 0xff, 0x08, 0x00, 0x00, 0x00, 0x10, 0x00, 0x00, 0x00, 0x01, 0x00, 0x00, 0x00, 0x80, 0xff, 0xff, 0xff, 0xff, 0xff, 0xff, 0xff, 0x01, 0x00, 0x00, 0x00, 0xc1, 0xc0, 0xc0, 0x3c, 0x29, 0x01, 0x00, 0x00, 0x66, 0x75, 0x6e, 0x63, 0x74, 0x69, 0x6f, 0x6e, 0x61, 0x6c, 0x5f, 0x32, 0x5f, 0x31, 0x2f, 0x72, 0x65, 0x5f, 0x6c, 0x75, 0x5f, 0x31, 0x39, 0x5f, 0x31, 0x2f, 0x52, 0x65, 0x6c, 0x75, 0x36, 0x3b, 0x66, 0x75, 0x6e, 0x63, 0x74, 0x69, 0x6f, 0x6e, 0x61, 0x6c, 0x5f, 0x32, 0x5f, 0x31, 0x2f, 0x62, 0x61, 0x74, 0x63, 0x68, 0x5f, 0x6e, 0x6f, 0x72, 0x6d, 0x61, 0x6c, 0x69, 0x7a, 0x61, 0x74, 0x69, 0x6f, 0x6e, 0x5f, 0x31, 0x39, 0x5f, 0x31, 0x2f, 0x62, 0x61, 0x74, 0x63, 0x68, 0x6e, 0x6f, 0x72, 0x6d, 0x2f, 0x61, 0x64, 0x64, 0x5f, 0x31, 0x3b, 0x66, 0x75, 0x6e, 0x63, 0x74, 0x69, 0x6f, 0x6e, 0x61, 0x6c, 0x5f, 0x32, 0x5f, 0x31, 0x2f, 0x62, 0x61, 0x74, 0x63, 0x68, 0x5f, 0x6e, 0x6f, 0x72, 0x6d, 0x61, 0x6c, 0x69, 0x7a, 0x61, 0x74, 0x69, 0x6f, 0x6e, 0x5f, 0x31, 0x39, 0x5f, 0x31, 0x2f, 0x62, 0x61, 0x74, 0x63, 0x68, 0x6e, 0x6f, 0x72, 0x6d, 0x2f, 0x6d, 0x75, 0x6c, 0x5f, 0x31, 0x3b, 0x66, 0x75, 0x6e, 0x63, 0x74, 0x69, 0x6f, 0x6e, 0x61, 0x6c, 0x5f, 0x32, 0x5f, 0x31, 0x2f, 0x64, 0x65, 0x70, 0x74, 0x68, 0x77, 0x69, 0x73, 0x65, 0x5f, 0x63, 0x6f, 0x6e, 0x76, 0x32, 0x64, 0x5f, 0x38, 0x5f, 0x31, 0x2f, 0x64, 0x65, 0x70, 0x74, 0x68, 0x77, 0x69, 0x73, 0x65, 0x3b, 0x66, 0x75, 0x6e, 0x63, 0x74, 0x69, 0x6f, 0x6e, 0x61, 0x6c, 0x5f, 0x32, 0x5f, 0x31, 0x2f, 0x62, 0x61, 0x74, 0x63, 0x68, 0x5f, 0x6e, 0x6f, 0x72, 0x6d, 0x61, 0x6c, 0x69, 0x7a, 0x61, 0x74, 0x69, 0x6f, 0x6e, 0x5f, 0x31, 0x39, 0x5f, 0x31, 0x2f, 0x62, 0x61, 0x74, 0x63, 0x68, 0x6e, 0x6f, 0x72, 0x6d, 0x2f, 0x6d, 0x75, 0x6c, 0x3b, 0x66, 0x75, 0x6e, 0x63, 0x74, 0x69, 0x6f, 0x6e, 0x61, 0x6c, 0x5f, 0x32, 0x5f, 0x31, 0x2f, 0x62, 0x61, 0x74, 0x63, 0x68, 0x5f, 0x6e, 0x6f, 0x72, 0x6d, 0x61, 0x6c, 0x69, 0x7a, 0x61, 0x74, 0x69, 0x6f, 0x6e, 0x5f, 0x31, 0x39, 0x5f, 0x31, 0x2f, 0x62, 0x61, 0x74, 0x63, 0x68, 0x6e, 0x6f, 0x72, 0x6d, 0x2f, 0x73, 0x75, 0x62, 0x00, 0x00, 0x00, 0x04, 0x00, 0x00, 0x00, 0x01, 0x00, 0x00, 0x00, 0x30, 0x00, 0x00, 0x00, 0x30, 0x00, 0x00, 0x00, 0x08, 0x00, 0x00, 0x00, 0xba, 0xf6, 0xff, 0xff, 0x00, 0x00, 0x00, 0x01, 0x18, 0x00, 0x00, 0x00, 0x28, 0x00, 0x00, 0x00, 0x48, 0x00, 0x00, 0x00, 0x17, 0x00, 0x00, 0x00, 0x00, 0x00, 0x00, 0x09, 0xf8, 0x00, 0x00, 0x00, 0x04, 0x00, 0x00, 0x00, 0xff, 0xff, 0xff, 0xff, 0x60, 0x00, 0x00, 0x00, 0x60, 0x00, 0x00, 0x00, 0x08, 0x00, 0x00, 0x00, 0xa4, 0xf6, 0xff, 0xff, 0x08, 0x00, 0x00, 0x00, 0x14, 0x00, 0x00, 0x00, 0x01, 0x00, 0x00, 0x00, 0x80, 0xff, 0xff, 0xff, 0xff, 0xff, 0xff, 0xff, 0x00, 0x00, 0x00, 0x00, 0x01, 0x00, 0x00, 0x00, 0xc1, 0xc0, 0xc0, 0x3c, 0xb5, 0x00, 0x00, 0x00, 0x66, 0x75, 0x6e, 0x63, 0x74, 0x69, 0x6f, 0x6e, 0x61, 0x6c, 0x5f, 0x32, 0x5f, 0x31, 0x2f, 0x72, 0x65, 0x5f, 0x6c, 0x75, 0x5f, 0x31, 0x38, 0x5f, 0x31, 0x2f, 0x52, 0x65, 0x6c, 0x75, 0x36, 0x3b, 0x66, 0x75, 0x6e, 0x63, 0x74, 0x69, 0x6f, 0x6e, 0x61, 0x6c, 0x5f, 0x32, 0x5f, 0x31, 0x2f, 0x62, 0x61, 0x74, 0x63, 0x68, 0x5f, 0x6e, 0x6f, 0x72, 0x6d, 0x61, 0x6c, 0x69, 0x7a, 0x61, 0x74, 0x69, 0x6f, 0x6e, 0x5f, 0x31, 0x38, 0x5f, 0x31, 0x2f, 0x62, 0x61, 0x74, 0x63, 0x68, 0x6e, 0x6f, 0x72, 0x6d, 0x2f, 0x61, 0x64, 0x64, 0x5f, 0x31, 0x3b, 0x66, 0x75, 0x6e, 0x63, 0x74, 0x69, 0x6f, 0x6e, 0x61, 0x6c, 0x5f, 0x32, 0x5f, 0x31, 0x2f, 0x63, 0x6f, 0x6e, 0x76, 0x32, 0x64, 0x5f, 0x31, 0x30, 0x5f, 0x31, 0x2f, 0x63, 0x6f, 0x6e, 0x76, 0x6f, 0x6c, 0x75, 0x74, 0x69, 0x6f, 0x6e, 0x3b, 0x66, 0x75, 0x6e, 0x63, 0x74, 0x69, 0x6f, 0x6e, 0x61, 0x6c, 0x5f, 0x32, 0x5f, 0x31, 0x2f, 0x62, 0x61, 0x74, 0x63, 0x68, 0x5f, 0x6e, 0x6f, 0x72, 0x6d, 0x61, 0x6c, 0x69, 0x7a, 0x61, 0x74, 0x69, 0x6f, 0x6e, 0x5f, 0x31, 0x38, 0x5f, 0x31, 0x2f, 0x62, 0x61, 0x74, 0x63, 0x68, 0x6e, 0x6f, 0x72, 0x6d, 0x2f, 0x73, 0x75, 0x62, 0x31, 0x00, 0x00, 0x00, 0x04, 0x00, 0x00, 0x00, 0x01, 0x00, 0x00, 0x00, 0x60, 0x00, 0x00, 0x00, 0x60, 0x00, 0x00, 0x00, 0x08, 0x00, 0x00, 0x00, 0x3a, 0xf8, 0xff, 0xff, 0x00, 0x00, 0x00, 0x01, 0x14, 0x00, 0x00, 0x00, 0x30, 0x00, 0x00, 0x00, 0x16, 0x00, 0x00, 0x00, 0x00, 0x00, 0x00, 0x09, 0x3c, 0x00, 0x00, 0x00, 0xb4, 0xf7, 0xff, 0xff, 0x08, 0x00, 0x00, 0x00, 0x10, 0x00, 0x00, 0x00, 0x01, 0x00, 0x00, 0x00, 0x00, 0x00, 0x00, 0x00, 0x00, 0x00, 0x00, 0x00, 0x01, 0x00, 0x00, 0x00, 0x8e, 0x21, 0x20, 0x3d, 0x13, 0x00, 0x00, 0x00, 0x74, 0x66, 0x6c, 0x2e, 0x70, 0x73, 0x65, 0x75, 0x64, 0x6f, 0x5f, 0x71, 0x63, 0x6f, 0x6e, 0x73, 0x74, 0x31, 0x39, 0x00, 0x04, 0x00, 0x00, 0x00, 0x08, 0x00, 0x00, 0x00, 0x03, 0x00, 0x00, 0x00, 0x03, 0x00, 0x00, 0x00, 0x01, 0x00, 0x00, 0x00, 0xa2, 0xf8, 0xff, 0xff, 0x00, 0x00, 0x00, 0x01, 0x14, 0x00, 0x00, 0x00, 0x34, 0x00, 0x00, 0x00, 0x15, 0x00, 0x00, 0x00, 0x00, 0x00, 0x00, 0x02, 0x40, 0x00, 0x00, 0x00, 0x1c, 0xf8, 0xff, 0xff, 0x08, 0x00, 0x00, 0x00, 0x14, 0x00, 0x00, 0x00, 0x01, 0x00, 0x00, 0x00, 0x00, 0x00, 0x00, 0x00, 0x00, 0x00, 0x00, 0x00, 0x00, 0x00, 0x00, 0x00, 0x01, 0x00, 0x00, 0x00, 0x51, 0xc2, 0x20, 0x39, 0x13, 0x00, 0x00, 0x00, 0x74, 0x66, 0x6c, 0x2e, 0x70, 0x73, 0x65, 0x75, 0x64, 0x6f, 0x5f, 0x71, 0x63, 0x6f, 0x6e, 0x73, 0x74, 0x31, 0x38, 0x00, 0x01, 0x00, 0x00, 0x00, 0x08, 0x00, 0x00, 0x00, 0x02, 0xf9, 0xff, 0xff, 0x00, 0x00, 0x00, 0x01, 0x14, 0x00, 0x00, 0x00, 0x30, 0x00, 0x00, 0x00, 0x14, 0x00, 0x00, 0x00, 0x00, 0x00, 0x00, 0x09, 0x3c, 0x00, 0x00, 0x00, 0x7c, 0xf8, 0xff, 0xff, 0x08, 0x00, 0x00, 0x00, 0x10, 0x00, 0x00, 0x00, 0x01, 0x00, 0x00, 0x00, 0x00, 0x00, 0x00, 0x00, 0x00, 0x00, 0x00, 0x00, 0x01, 0x00, 0x00, 0x00, 0xc6, 0xcd, 0x97, 0x3c, 0x13, 0x00, 0x00, 0x00, 0x74, 0x66, 0x6c, 0x2e, 0x70, 0x73, 0x65, 0x75, 0x64, 0x6f, 0x5f, 0x71, 0x63, 0x6f, 0x6e, 0x73, 0x74, 0x31, 0x37, 0x00, 0x04, 0x00, 0x00, 0x00, 0x01, 0x00, 0x00, 0x00, 0x03, 0x00, 0x00, 0x00, 0x03, 0x00, 0x00, 0x00, 0x08, 0x00, 0x00, 0x00, 0x6a, 0xf9, 0xff, 0xff, 0x00, 0x00, 0x00, 0x01, 0x14, 0x00, 0x00, 0x00, 0x34, 0x00, 0x00, 0x00, 0x13, 0x00, 0x00, 0x00, 0x00, 0x00, 0x00, 0x02, 0x40, 0x00, 0x00, 0x00, 0xe4, 0xf8, 0xff, 0xff, 0x08, 0x00, 0x00, 0x00, 0x14, 0x00, 0x00, 0x00, 0x01, 0x00, 0x00, 0x00, 0x00, 0x00, 0x00, 0x00, 0x00, 0x00, 0x00, 0x00, 0x00, 0x00, 0x00, 0x00, 0x01, 0x00, 0x00, 0x00, 0x43, 0x99, 0xe4, 0x39, 0x13, 0x00, 0x00, 0x00, 0x74, 0x66, 0x6c, 0x2e, 0x70, 0x73, 0x65, 0x75, 0x64, 0x6f, 0x5f, 0x71, 0x63, 0x6f, 0x6e, 0x73, 0x74, 0x31, 0x36, 0x00, 0x01, 0x00, 0x00, 0x00, 0x08, 0x00, 0x00, 0x00, 0xca, 0xf9, 0xff, 0xff, 0x00, 0x00, 0x00, 0x01, 0x14, 0x00, 0x00, 0x00, 0x30, 0x00, 0x00, 0x00, 0x12, 0x00, 0x00, 0x00, 0x00, 0x00, 0x00, 0x09, 0x3c, 0x00, 0x00, 0x00, 0x44, 0xf9, 0xff, 0xff, 0x08, 0x00, 0x00, 0x00, 0x10, 0x00, 0x00, 0x00, 0x01, 0x00, 0x00, 0x00, 0x00, 0x00, 0x00, 0x00, 0x00, 0x00, 0x00, 0x00, 0x01, 0x00, 0x00, 0x00, 0x3e, 0x6b, 0x64, 0x3c, 0x13, 0x00, 0x00, 0x00, 0x74, 0x66, 0x6c, 0x2e, 0x70, 0x73, 0x65, 0x75, 0x64, 0x6f, 0x5f, 0x71, 0x63, 0x6f, 0x6e, 0x73, 0x74, 0x31, 0x35, 0x00, 0x04, 0x00, 0x00, 0x00, 0x10, 0x00, 0x00, 0x00, 0x01, 0x00, 0x00, 0x00, 0x01, 0x00, 0x00, 0x00, 0x08, 0x00, 0x00, 0x00, 0x32, 0xfa, 0xff, 0xff, 0x00, 0x00, 0x00, 0x01, 0x14, 0x00, 0x00, 0x00, 0x34, 0x00, 0x00, 0x00, 0x11, 0x00, 0x00, 0x00, 0x00, 0x00, 0x00, 0x02, 0x40, 0x00, 0x00, 0x00, 0xac, 0xf9, 0xff, 0xff, 0x08, 0x00, 0x00, 0x00, 0x14, 0x00, 0x00, 0x00, 0x01, 0x00, 0x00, 0x00, 0x00, 0x00, 0x00, 0x00, 0x00, 0x00, 0x00, 0x00, 0x00, 0x00, 0x00, 0x00, 0x01, 0x00, 0x00, 0x00, 0x6b, 0xfc, 0xab, 0x39, 0x13, 0x00, 0x00, 0x00, 0x74, 0x66, 0x6c, 0x2e, 0x70, 0x73, 0x65, 0x75, 0x64, 0x6f, 0x5f, 0x71, 0x63, 0x6f, 0x6e, 0x73, 0x74, 0x31, 0x34, 0x00, 0x01, 0x00, 0x00, 0x00, 0x10, 0x00, 0x00, 0x00, 0x92, 0xfa, 0xff, 0xff, 0x00, 0x00, 0x00, 0x01, 0x14, 0x00, 0x00, 0x00, 0x30, 0x00, 0x00, 0x00, 0x10, 0x00, 0x00, 0x00, 0x00, 0x00, 0x00, 0x09, 0x3c, 0x00, 0x00, 0x00, 0x0c, 0xfa, 0xff, 0xff, 0x08, 0x00, 0x00, 0x00, 0x10, 0x00, 0x00, 0x00, 0x01, 0x00, 0x00, 0x00, 0x00, 0x00, 0x00, 0x00, 0x00, 0x00, 0x00, 0x00, 0x01, 0x00, 0x00, 0x00, 0xe7, 0x45, 0x8d, 0x3c, 0x13, 0x00, 0x00, 0x00, 0x74, 0x66, 0x6c, 0x2e, 0x70, 0x73, 0x65, 0x75, 0x64, 0x6f, 0x5f, 0x71, 0x63, 0x6f, 0x6e, 0x73, 0x74, 0x31, 0x33, 0x00, 0x04, 0x00, 0x00, 0x00, 0x01, 0x00, 0x00, 0x00, 0x03, 0x00, 0x00, 0x00, 0x03, 0x00, 0x00, 0x00, 0x10, 0x00, 0x00, 0x00, 0xfa, 0xfa, 0xff, 0xff, 0x00, 0x00, 0x00, 0x01, 0x14, 0x00, 0x00, 0x00, 0x34, 0x00, 0x00, 0x00, 0x0f, 0x00, 0x00, 0x00, 0x00, 0x00, 0x00, 0x02, 0x40, 0x00, 0x00, 0x00, 0x74, 0xfa, 0xff, 0xff, 0x08, 0x00, 0x00, 0x00, 0x14, 0x00, 0x00, 0x00, 0x01, 0x00, 0x00, 0x00, 0x00, 0x00, 0x00, 0x00, 0x00, 0x00, 0x00, 0x00, 0x00, 0x00, 0x00, 0x00, 0x01, 0x00, 0x00, 0x00, 0x98, 0xbd, 0xd4, 0x39, 0x13, 0x00, 0x00, 0x00, 0x74, 0x66, 0x6c, 0x2e, 0x70, 0x73, 0x65, 0x75, 0x64, 0x6f, 0x5f, 0x71, 0x63, 0x6f, 0x6e, 0x73, 0x74, 0x31, 0x32, 0x00, 0x01, 0x00, 0x00, 0x00, 0x10, 0x00, 0x00, 0x00, 0x5a, 0xfb, 0xff, 0xff, 0x00, 0x00, 0x00, 0x01, 0x14, 0x00, 0x00, 0x00, 0x30, 0x00, 0x00, 0x00, 0x0e, 0x00, 0x00, 0x00, 0x00, 0x00, 0x00, 0x09, 0x3c, 0x00, 0x00, 0x00, 0xd4, 0xfa, 0xff, 0xff, 0x08, 0x00, 0x00, 0x00, 0x10, 0x00, 0x00, 0x00, 0x01, 0x00, 0x00, 0x00, 0x00, 0x00, 0x00, 0x00, 0x00, 0x00, 0x00, 0x00, 0x01, 0x00, 0x00, 0x00, 0x24, 0x0a, 0x06, 0x3c, 0x13, 0x00, 0x00, 0x00, 0x74, 0x66, 0x6c, 0x2e, 0x70, 0x73, 0x65, 0x75, 0x64, 0x6f, 0x5f, 0x71, 0x63, 0x6f, 0x6e, 0x73, 0x74, 0x31, 0x31, 0x00, 0x04, 0x00, 0x00, 0x00, 0x18, 0x00, 0x00, 0x00, 0x01, 0x00, 0x00, 0x00, 0x01, 0x00, 0x00, 0x00, 0x10, 0x00, 0x00, 0x00, 0xc2, 0xfb, 0xff, 0xff, 0x00, 0x00, 0x00, 0x01, 0x14, 0x00, 0x00, 0x00, 0x34, 0x00, 0x00, 0x00, 0x0d, 0x00, 0x00, 0x00, 0x00, 0x00, 0x00, 0x02, 0x40, 0x00, 0x00, 0x00, 0x3c, 0xfb, 0xff, 0xff, 0x08, 0x00, 0x00, 0x00, 0x14, 0x00, 0x00, 0x00, 0x01, 0x00, 0x00, 0x00, 0x00, 0x00, 0x00, 0x00, 0x00, 0x00, 0x00, 0x00, 0x00, 0x00, 0x00, 0x00, 0x01, 0x00, 0x00, 0x00, 0x0f, 0xd9, 0x49, 0x39, 0x13, 0x00, 0x00, 0x00, 0x74, 0x66, 0x6c, 0x2e, 0x70, 0x73, 0x65, 0x75, 0x64, 0x6f, 0x5f, 0x71, 0x63, 0x6f, 0x6e, 0x73, 0x74, 0x31, 0x30, 0x00, 0x01, 0x00, 0x00, 0x00, 0x18, 0x00, 0x00, 0x00, 0x22, 0xfc, 0xff, 0xff, 0x00, 0x00, 0x00, 0x01, 0x14, 0x00, 0x00, 0x00, 0x30, 0x00, 0x00, 0x00, 0x0c, 0x00, 0x00, 0x00, 0x00, 0x00, 0x00, 0x09, 0x3c, 0x00, 0x00, 0x00, 0x9c, 0xfb, 0xff, 0xff, 0x08, 0x00, 0x00, 0x00, 0x10, 0x00, 0x00, 0x00, 0x01, 0x00, 0x00, 0x00, 0x00, 0x00, 0x00, 0x00, 0x00, 0x00, 0x00, 0x00, 0x01, 0x00, 0x00, 0x00, 0x88, 0xfa, 0x7a, 0x3c, 0x12, 0x00, 0x00, 0x00, 0x74, 0x66, 0x6c, 0x2e, 0x70, 0x73, 0x65, 0x75, 0x64, 0x6f, 0x5f, 0x71, 0x63, 0x6f, 0x6e, 0x73, 0x74, 0x39, 0x00, 0x00, 0x04, 0x00, 0x00, 0x00, 0x01, 0x00, 0x00, 0x00, 0x03, 0x00, 0x00, 0x00, 0x03, 0x00, 0x00, 0x00, 0x18, 0x00, 0x00, 0x00, 0x8a, 0xfc, 0xff, 0xff, 0x00, 0x00, 0x00, 0x01, 0x14, 0x00, 0x00, 0x00, 0x34, 0x00, 0x00, 0x00, 0x0b, 0x00, 0x00, 0x00, 0x00, 0x00, 0x00, 0x02, 0x40, 0x00, 0x00, 0x00, 0x04, 0xfc, 0xff, 0xff, 0x08, 0x00, 0x00, 0x00, 0x14, 0x00, 0x00, 0x00, 0x01, 0x00, 0x00, 0x00, 0x00, 0x00, 0x00, 0x00, 0x00, 0x00, 0x00, 0x00, 0x00, 0x00, 0x00, 0x00, 0x01, 0x00, 0x00, 0x00, 0xdf, 0xf8, 0xbc, 0x39, 0x12, 0x00, 0x00, 0x00, 0x74, 0x66, 0x6c, 0x2e, 0x70, 0x73, 0x65, 0x75, 0x64, 0x6f, 0x5f, 0x71, 0x63, 0x6f, 0x6e, 0x73, 0x74, 0x38, 0x00, 0x00, 0x01, 0x00, 0x00, 0x00, 0x18, 0x00, 0x00, 0x00, 0xea, 0xfc, 0xff, 0xff, 0x00, 0x00, 0x00, 0x01, 0x14, 0x00, 0x00, 0x00, 0x30, 0x00, 0x00, 0x00, 0x0a, 0x00, 0x00, 0x00, 0x00, 0x00, 0x00, 0x09, 0x3c, 0x00, 0x00, 0x00, 0x64, 0xfc, 0xff, 0xff, 0x08, 0x00, 0x00, 0x00, 0x10, 0x00, 0x00, 0x00, 0x01, 0x00, 0x00, 0x00, 0x00, 0x00, 0x00, 0x00, 0x00, 0x00, 0x00, 0x00, 0x01, 0x00, 0x00, 0x00, 0x65, 0x73, 0x12, 0x3c, 0x12, 0x00, 0x00, 0x00, 0x74, 0x66, 0x6c, 0x2e, 0x70, 0x73, 0x65, 0x75, 0x64, 0x6f, 0x5f, 0x71, 0x63, 0x6f, 0x6e, 0x73, 0x74, 0x37, 0x00, 0x00, 0x04, 0x00, 0x00, 0x00, 0x20, 0x00, 0x00, 0x00, 0x01, 0x00, 0x00, 0x00, 0x01, 0x00, 0x00, 0x00, 0x18, 0x00, 0x00, 0x00, 0x52, 0xfd, 0xff, 0xff, 0x00, 0x00, 0x00, 0x01, 0x14, 0x00, 0x00, 0x00, 0x34, 0x00, 0x00, 0x00, 0x09, 0x00, 0x00, 0x00, 0x00, 0x00, 0x00, 0x02, 0x40, 0x00, 0x00, 0x00, 0xcc, 0xfc, 0xff, 0xff, 0x08, 0x00, 0x00, 0x00, 0x14, 0x00, 0x00, 0x00, 0x01, 0x00, 0x00, 0x00, 0x00, 0x00, 0x00, 0x00, 0x00, 0x00, 0x00, 0x00, 0x00, 0x00, 0x00, 0x00, 0x01, 0x00, 0x00, 0x00, 0xa1, 0x89, 0x5c, 0x39, 0x12, 0x00, 0x00, 0x00, 0x74, 0x66, 0x6c, 0x2e, 0x70, 0x73, 0x65, 0x75, 0x64, 0x6f, 0x5f, 0x71, 0x63, 0x6f, 0x6e, 0x73, 0x74, 0x36, 0x00, 0x00, 0x01, 0x00, 0x00, 0x00, 0x20, 0x00, 0x00, 0x00, 0xb2, 0xfd, 0xff, 0xff, 0x00, 0x00, 0x00, 0x01, 0x14, 0x00, 0x00, 0x00, 0x30, 0x00, 0x00, 0x00, 0x08, 0x00, 0x00, 0x00, 0x00, 0x00, 0x00, 0x09, 0x3c, 0x00, 0x00, 0x00, 0x2c, 0xfd, 0xff, 0xff, 0x08, 0x00, 0x00, 0x00, 0x10, 0x00, 0x00, 0x00, 0x01, 0x00, 0x00, 0x00, 0x00, 0x00, 0x00, 0x00, 0x00, 0x00, 0x00, 0x00, 0x01, 0x00, 0x00, 0x00, 0x55, 0x2c, 0xd6, 0x3c, 0x12, 0x00, 0x00, 0x00, 0x74, 0x66, 0x6c, 0x2e, 0x70, 0x73, 0x65, 0x75, 0x64, 0x6f, 0x5f, 0x71, 0x63, 0x6f, 0x6e, 0x73, 0x74, 0x35, 0x00, 0x00, 0x04, 0x00, 0x00, 0x00, 0x01, 0x00, 0x00, 0x00, 0x03, 0x00, 0x00, 0x00, 0x03, 0x00, 0x00, 0x00, 0x20, 0x00, 0x00, 0x00, 0x1a, 0xfe, 0xff, 0xff, 0x00, 0x00, 0x00, 0x01, 0x14, 0x00, 0x00, 0x00, 0x34, 0x00, 0x00, 0x00, 0x07, 0x00, 0x00, 0x00, 0x00, 0x00, 0x00, 0x02, 0x40, 0x00, 0x00, 0x00, 0x94, 0xfd, 0xff, 0xff, 0x08, 0x00, 0x00, 0x00, 0x14, 0x00, 0x00, 0x00, 0x01, 0x00, 0x00, 0x00, 0x00, 0x00, 0x00, 0x00, 0x00, 0x00, 0x00, 0x00, 0x00, 0x00, 0x00, 0x00, 0x01, 0x00, 0x00, 0x00, 0x82, 0x42, 0x21, 0x3a, 0x12, 0x00, 0x00, 0x00, 0x74, 0x66, 0x6c, 0x2e, 0x70, 0x73, 0x65, 0x75, 0x64, 0x6f, 0x5f, 0x71, 0x63, 0x6f, 0x6e, 0x73, 0x74, 0x34, 0x00, 0x00, 0x01, 0x00, 0x00, 0x00, 0x20, 0x00, 0x00, 0x00, 0x7a, 0xfe, 0xff, 0xff, 0x00, 0x00, 0x00, 0x01, 0x14, 0x00, 0x00, 0x00, 0x30, 0x00, 0x00, 0x00, 0x06, 0x00, 0x00, 0x00, 0x00, 0x00, 0x00, 0x09, 0x3c, 0x00, 0x00, 0x00, 0xf4, 0xfd, 0xff, 0xff, 0x08, 0x00, 0x00, 0x00, 0x10, 0x00, 0x00, 0x00, 0x01, 0x00, 0x00, 0x00, 0x00, 0x00, 0x00, 0x00, 0x00, 0x00, 0x00, 0x00, 0x01, 0x00, 0x00, 0x00, 0xda, 0xf8, 0x2f, 0x3c, 0x12, 0x00, 0x00, 0x00, 0x74, 0x66, 0x6c, 0x2e, 0x70, 0x73, 0x65, 0x75, 0x64, 0x6f, 0x5f, 0x71, 0x63, 0x6f, 0x6e, 0x73, 0x74, 0x33, 0x00, 0x00, 0x04, 0x00, 0x00, 0x00, 0x30, 0x00, 0x00, 0x00, 0x01, 0x00, 0x00, 0x00, 0x01, 0x00, 0x00, 0x00, 0x20, 0x00, 0x00, 0x00, 0xe2, 0xfe, 0xff, 0xff, 0x00, 0x00, 0x00, 0x01, 0x14, 0x00, 0x00, 0x00, 0x34, 0x00, 0x00, 0x00, 0x05, 0x00, 0x00, 0x00, 0x00, 0x00, 0x00, 0x02, 0x40, 0x00, 0x00, 0x00, 0x5c, 0xfe, 0xff, 0xff, 0x08, 0x00, 0x00, 0x00, 0x14, 0x00, 0x00, 0x00, 0x01, 0x00, 0x00, 0x00, 0x00, 0x00, 0x00, 0x00, 0x00, 0x00, 0x00, 0x00, 0x00, 0x00, 0x00, 0x00, 0x01, 0x00, 0x00, 0x00, 0x23, 0x7f, 0x84, 0x39, 0x12, 0x00, 0x00, 0x00, 0x74, 0x66, 0x6c, 0x2e, 0x70, 0x73, 0x65, 0x75, 0x64, 0x6f, 0x5f, 0x71, 0x63, 0x6f, 0x6e, 0x73, 0x74, 0x32, 0x00, 0x00, 0x01, 0x00, 0x00, 0x00, 0x30, 0x00, 0x00, 0x00, 0x42, 0xff, 0xff, 0xff, 0x00, 0x00, 0x00, 0x01, 0x14, 0x00, 0x00, 0x00, 0x30, 0x00, 0x00, 0x00, 0x04, 0x00, 0x00, 0x00, 0x00, 0x00, 0x00, 0x09, 0x3c, 0x00, 0x00, 0x00, 0xbc, 0xfe, 0xff, 0xff, 0x08, 0x00, 0x00, 0x00, 0x10, 0x00, 0x00, 0x00, 0x01, 0x00, 0x00, 0x00, 0x00, 0x00, 0x00, 0x00, 0x00, 0x00, 0x00, 0x00, 0x01, 0x00, 0x00, 0x00, 0xfb, 0x11, 0xb1, 0x3b, 0x12, 0x00, 0x00, 0x00, 0x74, 0x66, 0x6c, 0x2e, 0x70, 0x73, 0x65, 0x75, 0x64, 0x6f, 0x5f, 0x71, 0x63, 0x6f, 0x6e, 0x73, 0x74, 0x31, 0x00, 0x00, 0x02, 0x00, 0x00, 0x00, 0x04, 0x00, 0x00, 0x00, 0x30, 0x00, 0x00, 0x00, 0xa2, 0xff, 0xff, 0xff, 0x00, 0x00, 0x00, 0x01, 0x14, 0x00, 0x00, 0x00, 0x30, 0x00, 0x00, 0x00, 0x03, 0x00, 0x00, 0x00, 0x00, 0x00, 0x00, 0x02, 0x3c, 0x00, 0x00, 0x00, 0x1c, 0xff, 0xff, 0xff, 0x08, 0x00, 0x00, 0x00, 0x10, 0x00, 0x00, 0x00, 0x01, 0x00, 0x00, 0x00, 0x00, 0x00, 0x00, 0x00, 0x00, 0x00, 0x00, 0x00, 0x01, 0x00, 0x00, 0x00, 0x98, 0xad, 0x6f, 0x38, 0x11, 0x00, 0x00, 0x00, 0x74, 0x66, 0x6c, 0x2e, 0x70, 0x73, 0x65, 0x75, 0x64, 0x6f, 0x5f, 0x71, 0x63, 0x6f, 0x6e, 0x73, 0x74, 0x00, 0x00, 0x00, 0x01, 0x00, 0x00, 0x00, 0x04, 0x00, 0x00, 0x00, 0x00, 0x00, 0x16, 0x00, 0x1c, 0x00, 0x18, 0x00, 0x17, 0x00, 0x10, 0x00, 0x0c, 0x00, 0x08, 0x00, 0x00, 0x00, 0x00, 0x00, 0x00, 0x00, 0x07, 0x00, 0x16, 0x00, 0x00, 0x00, 0x00, 0x00, 0x00, 0x01, 0x18, 0x00, 0x00, 0x00, 0x18, 0x00, 0x00, 0x00, 0x02, 0x00, 0x00, 0x00, 0x00, 0x00, 0x00, 0x02, 0x20, 0x00, 0x00, 0x00, 0x04, 0x00, 0x04, 0x00, 0x04, 0x00, 0x00, 0x00, 0x0e, 0x00, 0x00, 0x00, 0x61, 0x72, 0x69, 0x74, 0x68, 0x2e, 0x63, 0x6f, 0x6e, 0x73, 0x74, 0x61, 0x6e, 0x74, 0x00, 0x00, 0x01, 0x00, 0x00, 0x00, 0x02, 0x00, 0x00, 0x00, 0x00, 0x00, 0x16, 0x00, 0x20, 0x00, 0x1c, 0x00, 0x1b, 0x00, 0x14, 0x00, 0x10, 0x00, 0x0c, 0x00, 0x00, 0x00, 0x00, 0x00, 0x08, 0x00, 0x07, 0x00, 0x16, 0x00, 0x00, 0x00, 0x00, 0x00, 0x00, 0x01, 0x18, 0x00, 0x00, 0x00, 0x34, 0x00, 0x00, 0x00, 0x50, 0x00, 0x00, 0x00, 0x01, 0x00, 0x00, 0x00, 0x00, 0x00, 0x00, 0x09, 0x6c, 0x00, 0x00, 0x00, 0x04, 0x00, 0x00, 0x00, 0xff, 0xff, 0xff, 0xff, 0x60, 0x00, 0x00, 0x00, 0x60, 0x00, 0x00, 0x00, 0x01, 0x00, 0x00, 0x00, 0x0c, 0x00, 0x0c, 0x00, 0x00, 0x00, 0x00, 0x00, 0x08, 0x00, 0x04, 0x00, 0x0c, 0x00, 0x00, 0x00, 0x08, 0x00, 0x00, 0x00, 0x10, 0x00, 0x00, 0x00, 0x01, 0x00, 0x00, 0x00, 0x80, 0xff, 0xff, 0xff, 0xff, 0xff, 0xff, 0xff, 0x01, 0x00, 0x00, 0x00, 0x81, 0x80, 0x80, 0x3b, 0x21, 0x00, 0x00, 0x00, 0x73, 0x65, 0x72, 0x76, 0x69, 0x6e, 0x67, 0x5f, 0x64, 0x65, 0x66, 0x61, 0x75, 0x6c, 0x74, 0x5f, 0x6b, 0x65, 0x72, 0x61, 0x73, 0x5f, 0x74, 0x65, 0x6e, 0x73, 0x6f, 0x72, 0x5f, 0x36, 0x31, 0x3a, 0x30, 0x00, 0x00, 0x00, 0x04, 0x00, 0x00, 0x00, 0x01, 0x00, 0x00, 0x00, 0x60, 0x00, 0x00, 0x00, 0x60, 0x00, 0x00, 0x00, 0x01, 0x00, 0x00, 0x00, 0x05, 0x00, 0x00, 0x00, 0x60, 0x00, 0x00, 0x00, 0x40, 0x00, 0x00, 0x00, 0x2c, 0x00, 0x00, 0x00, 0x18, 0x00, 0x00, 0x00, 0x04, 0x00, 0x00, 0x00, 0xc0, 0xff, 0xff, 0xff, 0x19, 0x00, 0x00, 0x00, 0x02, 0x00, 0x00, 0x00, 0x00, 0x00, 0x00, 0x19, 0xd0, 0xff, 0xff, 0xff, 0x09, 0x00, 0x00, 0x00, 0x04, 0x00, 0x00, 0x00, 0x00, 0x00, 0x00, 0x09, 0xe0, 0xff, 0xff, 0xff, 0x28, 0x00, 0x00, 0x00, 0x02, 0x00, 0x00, 0x00, 0x00, 0x00, 0x00, 0x28, 0xf0, 0xff, 0xff, 0xff, 0x04, 0x00, 0x00, 0x00, 0x03, 0x00, 0x00, 0x00, 0x00, 0x00, 0x00, 0x04, 0x0c, 0x00, 0x10, 0x00, 0x0f, 0x00, 0x00, 0x00, 0x08, 0x00, 0x04, 0x00, 0x0c, 0x00, 0x00, 0x00, 0x03, 0x00, 0x00, 0x00, 0x03, 0x00, 0x00, 0x00, 0x00, 0x00, 0x00, 0x03
};

const unsigned int B631_DW_All_model_len = 12608;
